, 68122
the 61776
. 55111
to 32111
of 30558
and 29221
a 28387
" 26610
in 24525
's 12854
that 11994
for 11547
on 9885
The 9882
is 9675
said 9569
with 8111
was 8094
as 6694
at 6372
it 6293
he 5889
by 5731
from 5625
be 5386
have 5207
his 4980
has 4918
are 4852
I 4716
) 4689
( 4677
an 4663
not 4141
: 4033
- 3942
who 3781
will 3588
had 3503
were 3274
or 3199
they 3179
$ 3170
this 3128
their 3030
but 2973
more 2953
been 2829
which 2660
about 2633
its 2630
't 2526
would 2524
' 2352
one 2304
out 2286
her 2266
It 2225
after 2212
up 2201
we 2186
than 2139
you 2060
He 2015
also 1991
/ 1943
year 1920
In 1913
people 1903
can 1886
she 1849
all 1847
But 1836
when 1825
two 1819
A 1811
other 1732
-- 1720
into 1662
first 1646
over 1618
time 1572
there 1556
new 1534
years 1492
last 1479
could 1451
million 1430
We 1386
percent 1373
them 1372
some 1362
no 1315
New 1307
what 1301
if 1285
; 1266
? 1255
him 1254
like 1218
just 1206
Mr. 1201
our 1194
so 1183
do 1168
U.S. 1128
only 1108
because 1100
before 1098
2007 1089
made 1063
against 1044
most 1041
three 1030
back 1028
And 1023
government 1022
get 991
now 986
where 972
told 968
any 951
company 935
They 930
make 928
through 913
being 900
way 897
many 896
my 893
off 887
This 872
down 859
week 854
man 853
say 850
home 837
did 828
says 826
Iraq 815
may 812
including 810
those 806
even 804
while 797
such 792
day 790
since 789
then 789
1 782
well 777
police 774
world 771
between 767
work 762
10 759
country 757
how 745
still 745
York 740
next 733
should 733
very 731
're 729
game 725
United 720
me 718
state 717
going 715
un@@ 713
much 711
take 706
former 700
-@@ 696
during 695
under 690
% 678
don 673
There 669
second 669
go 668
us 664
four 662
think 660
re@@ 652
found 649
end 645
American 641
your 633
2 630
officials 628
That 626
30 622
around 621
another 619
good 614
president 611
set 605
children 599
If 597
part 596
report 595
For 592
see 588
group 586
these 585
business 583
team 583
per 582
season 581
months 579
own 573
market 568
want 568
both 567
President 566
five 564
left 564
She 562
know 560
Mr 559
Wednesday 559
Friday 558
billion 557
ing 557
able 555
use 554
month 553
third 553
Thursday 551
help 549
S@@ 548
As 545
Tuesday 544
same 544
military 542
family 539
US 537
right 536
public 533
2006 532
States 532
ed 530
used 528
city 525
Bush 517
called 516
life 515
T@@ 514
3 513
long 513
've 508
according 507
top 507
too 503
information 500
i 495
came 493
Monday 492
11 489
money 485
here 483
days 482
show 482
case 480
number 480
On 478
need 478
school 478
took 478
expected 477
C@@ 476
high 476
got 475
night 475
o 474
Washington 470
whether 470
play 469
run 469
Sunday 468
place 468
s 468
won 466
20 464
reported 463
come 462
'm 461
To 459
ago 459
5 458
quarter 456
P@@ 453
later 451
might 451
early 450
men 447
AP 445
killed 445
China 444
support 444
A@@ 443
lead 442
added 441
several 440
12 438
At 438
led 438
few 437
little 437
political 437
security 437
never 436
7 435
put 435
Saturday 433
campaign 433
each 433
least 432
You 430
es 430
y 428
less 427
past 426
best 424
With 421
m 418
court 417
power 417
4 416
point 414
15 413
September 413
in@@ 413
win 413
health 412
until 412
South 411
& 409
war 408
statement 407
When 405
ers 404
without 404
among 400
share 398
six 395
World 393
companies 393
lot 392
recent 392
G@@ 389
B@@ 388
better 388
chief 388
National 387
R@@ 387
Sept 386
went 386
away 384
points 384
today 383
line 381
making 381
6 379
y@@ 375
already 373
http 373
son 373
director 372
half 372
local 372
system 372
change 371
house 371
major 371
really 371
record 371
news 370
didn 369
every 369
spokesman 369
women 368
America 367
does 367
hit 367
party 367
deal 366
law 366
members 366
service 366
House 365
N@@ 365
Of 363
University 363
trying 362
John 361
announced 361
something 360
start 360
based 359
big 359
give 358
financial 356
.com 355
site 355
October 352
far 351
E@@ 349
M@@ 349
held 349
D@@ 348
earlier 348
9 347
One 347
games 347
again 346
c@@ 346
sales 346
www.@@ 344
North 343
asked 343
become 343
call 342
saying 342
... 341
By 341
results 341
All 340
known 340
6@@ 339
L@@ 339
£ 339
area 337
believe 337
head 337
program 336
Clinton 335
25 334
W@@ 334
ate 334
oil 334
p@@ 333
services 333
late 330
prices 330
Press 329
general 329
enough 328
State 327
ated 327
often 327
things 327
Minister 325
look 325
8 324
al 324
international 324
national 324
After 323
Iran 323
across 323
field 322
industry 322
50 321
British 321
car 321
find 321
issue 321
5@@ 320
office 320
H@@ 319
am 319
meeting 319
working 319
side 318
plans 317
future 316
death 315
interest 315
seen 315
o@@ 314
er 312
fire 312
return 310
water 310
likely 309
16 308
Company 308
Department 308
countries 308
federal 308
real 308
include 307
leader 307
18 306
I@@ 306
age 306
leading 306
His 305
along 305
7@@ 304
decision 303
near 303
City 302
What 302
growth 302
cut 301
increase 301
series 301
taken 301
14 300
students 300
Iraqi 299
b@@ 299
final 299
K@@ 298
study 298
lost 297
plan 297
small 297
2005 296
9@@ 296
began 296
others 296
keep 295
4@@ 294
O@@ 294
once 294
though 294
great 293
official 293
free 292
times 292
private 291
! 290
al@@ 290
conference 290
England 289
So 288
face 288
having 288
important 288
move 288
players 288
David 287
ation 287
available 286
weeks 286
current 284
old 284
Some 283
West 283
always 283
died 283
executive 283
40 282
rate 282
While 281
job 281
whose 281
care 280
ended 280
products 280
visit 280
17 279
8@@ 279
price 279
F@@ 278
attack 278
close 278
leaders 278
income 277
Re@@ 276
cost 276
minutes 276
ted 276
within 276
yet 276
e@@ 275
Pakistan 274
t@@ 274
troops 274
13 273
nearly 273
name 272
nuclear 272
taking 272
100 271
November 271
Police 271
young 271
behind 270
control 270
loss 270
3@@ 269
credit 269
d@@ 269
hours 269
problems 269
thing 269
2008 268
due 268
thought 268
must 267
done 266
August 265
charges 264
forces 264
released 264
'll 263
V@@ 263
open 263
goal 262
pay 262
seven 262
using 262
full 261
given 260
nation 260
average 259
book 259
ch@@ 259
w@@ 259
2004 258
Michael 258
development 258
k@@ 258
O 257
ar 257
different 257
economic 257
en@@ 257
period 257
clear 256
global 256
tax 256
'@@ 255
General 255
London 255
economy 255
strong 255
Inc 254
energy 253
f@@ 253
following 253
higher 253
continue 252
doing 252
sent 252
p 251
process 251
Congress 250
groups 250
looking 250
media 250
19 249
Oct. 249
possible 249
Association 248
hard 248
music 248
rights 248
workers 248
1.@@ 247
24 247
June 247
community 247
data 247
ting 247
wanted 247
Web 246
further 245
gave 245
live 245
research 245
Court 244
k 244
technology 243
Americans 242
ar@@ 242
level 242
operations 242
outside 242
risk 242
room 242
Y@@ 241
himself 240
ly 240
started 240
woman 240
An 239
California 239
eight 239
u@@ 239
0.@@ 238
ahead 238
almost 238
About 237
European 237
No 237
air 237
authorities 237
e 237
large 237
parents 237
provide 237
December 236
building 236
capital 236
senior 236
statements 236
Ms. 235
R 235
White 235
foreign 235
rates 235
running 235
shot 235
management 234
Times 233
history 233
investment 233
person 233
release 233
town 233
why 233
coming 232
agency 231
feel 231
getting 231
yards 231
July 230
costs 230
key 230
TV 229
fell 229
Street 228
dollars 228
played 228
result 228
talks 228
ts 228
wife 228
J@@ 227
ever 227
markets 227
morning 227
presidential 227
De@@ 226
International 226
Republican 226
de 225
thousands 225
v@@ 225
San 224
evidence 224
g@@ 224
s@@ 224
try 224
Musharraf 223
food 223
land 223
21 222
involved 222
issues 222
t 222
_ 221
black 221
de@@ 221
film 221
patients 221
policy 221
Center 220
areas 220
b 220
child 220
election 220
force 220
offer 220
reports 220
These 219
ating 219
fourth 219
problem 219
stop 219
'd 218
Brown 218
Group 218
body 218
career 218
course 218
i@@ 218
production 218
minister 217
recently 217
red 217
region 217
yesterday 217
22 216
experience 216
mother 216
space 216
vote 216
Associated 215
Dr. 215
customers 215
increased 215
makes 215
manager 215
member 215
role 215
efforts 214
miles 214
n@@ 214
online 214
ro@@ 214
board 213
doesn 213
largest 213
ability 212
sh@@ 212
showed 211
id 210
kind 210
net 210
st@@ 210
administration 209
father 209
h@@ 209
Bank 208
performance 208
rose 208
Con@@ 207
Europe 207
comes 207
compared 207
e-@@ 207
position 207
turned 207
County 206
Democratic 206
However 206
agreed 206
order 206
received 206
sure 206
News 205
action 205
became 205
sold 205
ations 204
dis@@ 204
needed 204
turn 204
video 204
Israel 203
anything 203
bank 203
chance 203
gas 203
interview 203
j@@ 203
hope 202
playing 202
shares 202
special 202
over@@ 201
states 201
together 201
East 200
Obama 200
homes 200
human 200
cause 199
drug 199
es@@ 199
failed 199
heart 199
legal 199
nothing 199
pressure 199
Internet 198
an@@ 198
forward 198
rather 198
31 196
Democrats 196
arrested 196
0 195
23 195
France 195
allowed 195
fact 195
helped 195
on@@ 195
di@@ 194
firm 194
phone 194
project 194
question 194
story 194
January 193
am@@ 193
biggest 193
co@@ 193
Prime 192
bill 192
difficult 192
event 192
fight 192
match 191
needs 191
paid 191
potential 191
white 191
appeared 190
cash 190
race 190
summer 190
total 190
im@@ 189
latest 189
victory 189
ley 188
related 188
serious 188
S 187
attacks 187
ic 187
le@@ 187
lower 187
officer 187
opposition 187
range 187
front 186
hand 186
m@@ 186
stay 186
wrote 186
French 185
U@@ 185
agreement 185
included 185
medical 185
r@@ 185
26 184
staff 184
Now 183
UPI 183
at@@ 183
bring 183
cases 183
th@@ 183
u 183
Jones 182
Russia 182
charged 182
however 182
impact 182
pass 182
television 182
tried 182
2003 181
ac@@ 181
accused 181
con@@ 181
defense 181
let 181
nine 181
ton 181
investigation 180
main 180
safety 180
shows 180
Z@@ 179
als 179
ball 179
h 179
peace 179
rest 179
soldiers 179
28 178
Two 178
ant 178
d 178
housing 178
ist 178
leave 178
low 178
Giuliani 177
coach 177
conditions 177
contract 177
meet 177
newspaper 177
saw 177
single 177
spent 177
Chinese 176
assets 176
friends 176
hospital 176
pre@@ 176
press 176
remain 176
trade 176
trial 176
Council 175
Paul 175
Senate 175
allow 175
growing 175
ie 175
questions 175
similar 175
situation 175
soon 175
wants 175
worked 175
People 174
fall 174
personal 174
player 174
probably 174
schools 174
.@@ 173
calls 173
network 173
or@@ 173
29 172
as@@ 172
continued 172
dead 172
husband 172
spending 172
themselves 172
Afghanistan 171
Baghdad 171
center 171
especially 171
fighting 171
immediately 171
le 171
talk 171
violence 171
Al@@ 170
League 170
May 170
ds 170
product 170
scheduled 170
se@@ 170
27 169
E 169
Florida 169
Nov. 169
Security 169
cents 169
common 169
described 169
list 169
met 169
student 169
treatment 169
Cup 168
UK 168
bad 168
believed 168
either 168
families 168
road 168
weekend 168
worth 168
Britain 167
Chicago 167
India 167
More 167
brought 167
cancer 167
couple 167
employees 167
lives 167
officers 167
teams 167
wasn 167
90 166
Health 166
Korea 166
Not 166
comment 166
ding 166
ground 166
view 166
0@@ 165
Bhutto 165
chairman 165
despite 165
property 165
love 164
read 164
scored 164
term 164
Many 163
l@@ 163
tell 163
Ar@@ 162
George 162
Le@@ 162
border 162
date 162
operating 162
reporters 162
short 162
someone 162
stock 162
training 162
value 162
Al 161
Is 161
access 161
message 161
revenue 161
rise 161
runs 161
Last 160
Mc@@ 160
Texas 160
certain 160
ch 160
disease 160
ine 160
kids 160
levels 160
quickly 160
significant 160
station 160
th 160
toward 160
a@@ 159
decided 159
demand 159
idea 159
previous 159
ways 159
45 158
C 158
bit 158
cent 158
judge 158
planned 158
prison 158
weapons 158
James 157
Mo@@ 157
My 157
Red 157
ates 157
charge 157
debate 157
star 157
60 156
In@@ 156
Other 156
Our 156
] 156
addition 156
effort 156
el@@ 156
ings 156
knew 156
[ 155
candidates 155
hold 155
raised 155
500 154
changes 154
feet 154
investors 154
longer 154
means 154
offered 154
Federal 153
Los 153
Party 153
ad 153
candidate 153
class 153
emergency 153
ent 153
fully 153
ia 153
inside 153
living 153
named 153
numbers 153
particularly 153
2,@@ 152
70 152
From 152
Sh@@ 152
amount 152
buy 152
includes 152
it@@ 152
killing 152
ons 152
ous 152
success 152
April 151
Co@@ 151
Union 151
article 151
break 151
forced 151
giving 151
stage 151
z@@ 151
Boston 150
Israeli 150
caused 150
education 150
hour 150
moved 150
quality 150
returned 150
round 150
rule 150
test 150
Africa 149
base 149
der 149
girl 149
opening 149
programs 149
reach 149
First 148
Smith 148
T 148
attorney 148
central 148
elections 148
form 148
light 148
remains 148
200 147
80 147
March 147
Thomas 147
filed 147
ies 147
is@@ 147
kept 147
murder 147
ri@@ 147
sell 147
step 147
whole 147
1,@@ 146
2.@@ 146
35 146
Angeles 146
ab@@ 146
expect 146
te@@ 146
ty 146
Mexico 145
attention 145
football 145
organization 145
ra@@ 145
x 145
Even 144
Iowa 144
Park 144
Robert 144
Scotland 144
ad@@ 144
although 144
annual 144
concerns 144
considered 144
earnings 144
example 144
g 144
review 144
Edwards 143
Johnson 143
Most 143
No. 143
happened 143
missing 143
opened 143
prime 143
strike 143
winning 143
yard 143
Japan 142
Post 142
al-@@ 142
ans 142
army 142
er@@ 142
felt 142
protect 142
ran 142
sale 142
D 141
beat 141
itself 141
mortgage 141
moving 141
seems 141
starting 141
terms 141
works 141
Her 140
Thompson 140
fans 140
friend 140
sites 140
build 139
contributed 139
issued 139
matter 139
search 139
straight 139
travel 139
em@@ 138
qu@@ 138
response 138
3.@@ 137
adding 137
drive 137
everything 137
independent 137
jobs 137
mis@@ 137
movie 137
reached 137
rules 137
serve 137
Financial 136
ey 136
incident 136
progress 136
residents 136
sc@@ 136
se 136
ti@@ 136
BBC 135
How 135
Mar@@ 135
Since 135
anyone 135
bo@@ 135
computer 135
dollar 135
everyone 135
lawyer 135
loans 135
looked 135
opportunity 135
2-@@ 134
2000 134
Ch@@ 134
Commission 134
do@@ 134
ling 134
spoke 134
y-@@ 134
75 133
L 133
Research 133
War 133
additional 133
afternoon 133
built 133
club 133
committee 133
complete 133
currently 133
debt 133
effect 133
mo@@ 133
p.@@ 133
practice 133
sex 133
w 133
wrong 133
x@@ 133
Carolina 132
Christmas 132
cannot 132
crime 132
declined 132
funds 132
isn 132
northern 132
provided 132
reduce 132
sign 132
store 132
popular 131
voters 131
words 131
Army 130
Chief 130
Romney 130
competition 130
events 130
non-@@ 130
scene 130
union 130
Car@@ 129
P 129
Secretary 129
Williams 129
ag@@ 129
be@@ 129
create 129
dropped 129
et 129
heard 129
hundreds 129
om@@ 129
social 129
2002 128
Bill 128
Government 128
actually 128
claims 128
environmental 128
huge 128
il@@ 128
mission 128
ordered 128
spend 128
stand 128
um 128
victims 128
Sen. 127
Total 127
act 127
ary 127
figures 127
gone 127
guilty 127
natural 127
spokeswoman 127
systems 127
trading 127
trip 127
18@@ 126
4.@@ 126
Myanmar 126
Ro@@ 126
appeal 126
car@@ 126
commercial 126
criminal 126
hearing 126
losing 126
op@@ 126
signed 126
sometimes 126
= 125
U.N. 125
ally 125
drugs 125
ic@@ 125
insurance 125
parties 125
ps 125
reason 125
title 125
3,@@ 124
Justice 124
N 124
NEW 124
Richard 124
School 124
Service 124
bomb 124
consumer 124
daughter 124
estate 124
ex@@ 124
focus 124
followed 124
fund 124
hotel 124
li@@ 124
majority 124
primary 124
records 124
takes 124
2@@ 123
Bo@@ 123
above 123
address 123
born 123
co-@@ 123
college 123
crisis 123
goes 123
quite 123
risks 123
seeking 123
strategy 123
10@@ 122
Committee 122
Supreme 122
activities 122
ap@@ 122
businesses 122
details 122
el 122
injuries 122
limited 122
measures 122
per@@ 122
published 122
si@@ 122
1@@ 121
2001 121
Mike 121
Paris 121
St@@ 121
ard 121
broke 121
c 121
closed 121
construction 121
division 121
experts 121
pe@@ 121
tions 121
1-@@ 120
aid 120
department 120
ian 120
injured 120
ity 120
l 120
leadership 120
pro@@ 120
size 120
ve 120
wide 120
CNN 119
Corporation 119
Republicans 119
Reuters 119
St. 119
figure 119
illegal 119
sense 119
threat 119
According 118
Another 118
Office 118
Three 118
a.@@ 118
blood 118
double 118
driving 118
estimated 118
losses 118
row 118
software 118
vice 118
33 117
Also 117
English 117
Russian 117
bid 117
condition 117
contact 117
crash 117
decades 117
en 117
equipment 117
fuel 117
lo@@ 117
politics 117
profit 117
receive 117
t-@@ 117
Central 116
Th@@ 116
Turkey 116
activity 116
bed 116
couldn 116
easy 116
happen 116
identified 116
ks 116
league 116
partner 116
po@@ 116
speech 116
talking 116
traffic 116
whom 116
.. 115
1,000 115
Be@@ 115
District 115
En@@ 115
Institute 115
Mark 115
Palestinian 115
Simpson 115
banks 115
concerned 115
equity 115
et@@ 115
king 115
leaving 115
letter 115
mean 115
out@@ 115
parts 115
raise 115
ready 115
seem 115
served 115
ship 115
shooting 115
southern 115
sub@@ 115
understand 115
written 115
32 114
African 114
February 114
Inc. 114
King 114
appear 114
card 114
challenge 114
claimed 114
consumers 114
damage 114
ism 114
passed 114
ruling 114
34 113
Craig 113
Middle 113
analysts 113
boy 113
confirmed 113
ded 113
improve 113
safe 113
Although 112
Day 112
art 112
designed 112
est 112
finished 112
forward-looking 112
ho@@ 112
instead 112
ish 112
owned 112
poor 112
rising 112
track 112
During 111
Then 111
battle 111
cars 111
host 111
par@@ 111
population 111
regional 111
relationship 111
selling 111
sp@@ 111
to@@ 111
v 111
watch 111
Australia 110
Ltd 110
attempt 110
begin 110
created 110
declared 110
hands 110
injury 110
mind 110
prepared 110
projects 110
province 110
source 110
17@@ 109
Exchange 109
Microsoft 109
Wall 109
Western 109
anti-@@ 109
choice 109
claim 109
cover 109
deaths 109
develop 109
ensure 109
north 109
offers 109
street 109
suffered 109
ter 109
warned 109
Blackwater 108
YORK 108
ator 108
entire 108
ones 108
planning 108
positive 108
produced 108
r 108
ry 108
true 108
ves 108
Scottish 107
Their 107
Those 107
approach 107
critical 107
operation 107
prevent 107
required 107
taxes 107
throughout 107
tough 107
worldwide 107
wouldn 107
B 106
Germany 106
Its 106
arrest 106
books 106
denied 106
else 106
ha@@ 106
moment 106
mostly 106
n 106
os 106
provides 106
self-@@ 106
unit 106
42 105
An@@ 105
M 105
Per@@ 105
Pre@@ 105
X@@ 105
Yankees 105
ads 105
concern 105
fun 105
join 105
material 105
ner 105
post 105
powerful 105
pretty 105
standing 105
successful 105
table 105
various 105
8-@@ 104
Chris 104
Di@@ 104
German 104
Rice 104
Tom 104
agencies 104
caught 104
environment 104
exchange 104
faces 104
ger 104
gets 104
ice 104
lack 104
laws 104
owner 104
owners 104
paper 104
researchers 104
simply 104
speak 104
storm 104
struck 104
te 104
ur@@ 104
website 104
Board 103
Both 103
ars 103
ban 103
beginning 103
benefit 103
cell 103
civil 103
consider 103
hits 103
holding 103
hurt 103
ors 103
overall 103
present 103
south 103
suicide 103
trust 103
twice 103
users 103
15@@ 102
3-@@ 102
5-@@ 102
54 102
Prince 102
Pro@@ 102
Rights 102
SOURCE 102
ask 102
corporate 102
drop 102
ec@@ 102
happy 102
intelligence 102
inter@@ 102
ists 102
joined 102
minute 102
providing 102
style 102
surgery 102
Air 101
Nations 101
ages 101
av@@ 101
benefits 101
developing 101
doctors 101
factors 101
go@@ 101
governor 101
he@@ 101
holiday 101
lawyers 101
lines 101
looks 101
mark 101
no@@ 101
plays 101
professor 101
relations 101
sides 101
under@@ 101
urged 101
z 101
16@@ 100
Sp@@ 100
Still 100
answer 100
ck 100
da 100
discuss 100
flight 100
focused 100
foot 100
ge 100
heavy 100
in-@@ 100
launch 100
launched 100
offering 100
perhaps 100
produce 100
save 100
stopped 100
stores 100
survey 100
ul@@ 100
vehicles 100
war@@ 100
65 99
Cleveland 99
College 99
Har@@ 99
McCain 99
audience 99
avoid 99
carry 99
daily 99
hopes 99
jury 99
largely 99
measure 99
original 99
plant 99
resources 99
44 98
55 98
Bay 98
Ex@@ 98
Indian 98
Islamic 98
Net 98
Today 98
Virginia 98
beyond 98
fear 98
fine 98
greater 98
gun 98
highest 98
increasing 98
ing@@ 98
innings 98
mobile 98
qna 98
setting 98
status 98
ter@@ 98
thinking 98
traditional 98
39 97
AN@@ 97
Beijing 97
Quarter 97
authority 97
certainly 97
cities 97
completed 97
domestic 97
f 97
remained 97
responsible 97
suggested 97
usually 97
46 96
Act 96
Asia 96
Man@@ 96
Rock 96
alone 96
appears 96
cuts 96
dy 96
ed@@ 96
goals 96
les 96
man@@ 96
marketing 96
me@@ 96
middle 96
missed 96
movement 96
regular 96
secretary 96
seemed 96
treated 96
voice 96
Foreign 95
Martin 95
WASHINGTON 95
active 95
changed 95
d-@@ 95
gu@@ 95
millions 95
mon@@ 95
negotiations 95
previously 95
religious 95
target 95
ters 95
winner 95
Arizona 94
Aug. 94
CEO 94
Northern 94
Tony 94
church 94
climate 94
facing 94
finance 94
noted 94
one-@@ 94
vehicle 94
version 94
-based 93
48 93
Bar@@ 93
Canada 93
Defense 93
Gordon 93
Q@@ 93
Turkish 93
Under 93
ance 93
carried 93
coalition 93
decline 93
effective 93
extra 93
fellow 93
hear 93
industrial 93
language 93
militants 93
model 93
ol@@ 93
refused 93
sports 93
thescotsman.scotsman.com 93
warning 93
4-@@ 92
Energy 92
Joe 92
Philadelphia 92
Services 92
advertising 92
doubt 92
fired 92
ful 92
ins 92
legislation 92
ms 92
ne@@ 92
poll 92
res 92
seeing 92
supporters 92
tests 92
weather 92
worst 92
7-@@ 91
7.@@ 91
Italian 91
Life 91
Meanwhile 91
Ministry 91
Open 91
Royal 91
and-@@ 91
bought 91
ce 91
conservative 91
design 91
expenses 91
firms 91
for@@ 91
kill 91
respect 91
sa@@ 91
steps 91
subject 91
suspects 91
ties 91
41 90
F 90
J. 90
Said 90
cast 90
comments 90
continues 90
developed 90
door 90
expectations 90
funding 90
gain 90
haven 90
increasingly 90
index 90
influence 90
items 90
loan 90
older 90
professional 90
streets 90
.org 89
Business 89
Hill 89
Hillary 89
Hospital 89
II 89
Ryan 89
UN 89
Y 89
driver 89
faced 89
fifth 89
fiscal 89
ingly 89
joint 89
spot 89
tion 89
touchdown 89
word 89
writers 89
36 88
53 88
Am@@ 88
For@@ 88
Francisco 88
Italy 88
Lo@@ 88
Scott 88
Steve 88
William 88
accounts 88
actual 88
amid 88
author 88
baby 88
below 88
crude 88
gold 88
helping 88
places 88
sector 88
signs 88
telling 88
university 88
uses 88
Iranian 87
Japanese 87
Sox 87
aircraft 87
armed 87
bodies 87
budget 87
connection 87
crowd 87
gives 87
high-@@ 87
highly 87
necessary 87
organizations 87
ph@@ 87
protests 87
pulled 87
radio 87
remember 87
shop 87
shots 87
sought 87
standards 87
testing 87
-year-old 86
85 86
Despite 86
Google 86
Hampshire 86
High 86
Peter 86
Year 86
account 86
affected 86
ani 86
believes 86
committed 86
communities 86
council 86
draw 86
finally 86
ge@@ 86
grow 86
hot 86
ler 86
meetings 86
nearby 86
rival 86
scientists 86
serving 86
solutions 86
sort 86
terrorism 86
weight 86
writer 86
writing 86
300 85
Cor@@ 85
Giants 85
acting 85
ats 85
bar 85
bus 85
check 85
coverage 85
culture 85
deep 85
directly 85
ets 85
floor 85
follow 85
green 85
grew 85
guy 85
lose 85
options 85
patient 85
piece 85
posted 85
seconds 85
seek 85
sound 85
speed 85
train 85
ver@@ 85
walk 85
37 84
47 84
@ 84
Ab@@ 84
Agency 84
Capital 84
Colorado 84
Ohio 84
Par@@ 84
Sarkozy 84
Time 84
Un@@ 84
a-@@ 84
airport 84
approximately 84
arrived 84
ay 84
bl@@ 84
boost 84
buildings 84
carrying 84
content 84
failure 84
jail 84
keeping 84
panel 84
particular 84
presence 84
rebels 84
retired 84
upon 84
52 83
Anderson 83
Fed 83
Jersey 83
Just 83
Over 83
Sa@@ 83
and@@ 83
aren 83
arm 83
basis 83
bin 83
carbon 83
changing 83
dangerous 83
decade 83
der@@ 83
elected 83
ess 83
evening 83
expense 83
facility 83
learn 83
occurred 83
profits 83
proposed 83
rich 83
spread 83
ut@@ 83
via 83
wall 83
wearing 83
10-@@ 82
38 82
Darfur 82
Earlier 82
Gen. 82
Home 82
Ms 82
Muslim 82
Taliban 82
Will 82
actions 82
approved 82
box 82
clearly 82
den 82
difference 82
e-mail 82
earned 82
ent@@ 82
features 82
ics 82
paying 82
picture 82
policies 82
recalled 82
responsibility 82
seat 82
send 82
shown 82
tour 82
two-@@ 82
type 82
west 82
95 81
Dis@@ 81
EU 81
Frank 81
Hall 81
Putin 81
X 81
asking 81
bringing 81
ched 81
civilian 81
collection 81
confidence 81
continuing 81
convicted 81
decide 81
des 81
expressed 81
houses 81
individual 81
note 81
park 81
passes 81
protection 81
protest 81
reasons 81
ruled 81
score 81
wood 81
ys 81
6.@@ 80
Charles 80
Com@@ 80
Series 80
ah 80
announcement 80
backed 80
brand 80
calling 80
character 80
ci@@ 80
crew 80
du@@ 80
fresh 80
id@@ 80
ill 80
involving 80
normal 80
on-@@ 80
pick 80
plane 80
pounds 80
remaining 80
sanctions 80
tic 80
us@@ 80
willing 80
4,@@ 79
Ad@@ 79
Ma@@ 79
Ne@@ 79
Officer 79
Sha@@ 79
admitted 79
album 79
ana 79
buying 79
deals 79
deputy 79
dozen 79
estimates 79
existing 79
facilities 79
fast 79
ion 79
larger 79
magazine 79
page 79
seats 79
studies 79
teacher 79
up@@ 79
watching 79
worse 79
A. 78
Arab 78
Christian 78
Don 78
Du@@ 78
El@@ 78
Judge 78
Lee 78
Medical 78
Michigan 78
advantage 78
analyst 78
attacked 78
broken 78
citizens 78
determined 78
district 78
documents 78
driven 78
ending 78
established 78
eyes 78
handed 78
ite 78
ke 78
knows 78
maker 78
mar@@ 78
ness 78
sexual 78
ster 78
suspect 78
telephone 78
ten 78
zone 78
00 77
43 77
5,@@ 77
ABC 77
Among 77
Before 77
Cal@@ 77
Davis 77
Ford 77
Information 77
Island 77
NFL 77
affect 77
conducted 77
delivery 77
discovered 77
eye 77
fly 77
generation 77
limit 77
names 77
ou@@ 77
pain 77
promised 77
proposal 77
push 77
rec@@ 77
rejected 77
secure 77
specific 77
units 77
19@@ 76
Atlanta 76
Conference 76
God 76
H 76
Jim 76
Petraeus 76
Po@@ 76
Public 76
RE@@ 76
Ri@@ 76
Securities 76
UN@@ 76
Why 76
aimed 76
allegations 76
clients 76
closing 76
com@@ 76
finding 76
investigators 76
island 76
marriage 76
meant 76
myself 76
onto 76
penalty 76
reporting 76
request 76
screen 76
showing 76
starts 76
terrorist 76
waiting 76
1999 75
3,000 75
Black 75
Executive 75
Fox 75
Howard 75
Korean 75
Man 75
Manhattan 75
Mon@@ 75
Senator 75
Wales 75
Yet 75
accident 75
alleged 75
appearance 75
broadcast 75
brother 75
bs 75
cl@@ 75
complex 75
conflict 75
core 75
digital 75
direct 75
finish 75
ged 75
giant 75
hoping 75
immigration 75
kick 75
mid-@@ 75
non@@ 75
placed 75
retail 75
separate 75
three-@@ 75
van 75
5,000 74
Afghan 74
Dec. 74
Georgia 74
W. 74
ators 74
attend 74
band 74
barrel 74
clinical 74
deliver 74
doctor 74
down@@ 74
era 74
exercise 74
findings 74
girls 74
guard 74
guys 74
im 74
increases 74
inflation 74
learned 74
link 74
mayor 74
prosecutors 74
rare 74
sitting 74
slow 74
supply 74
trouble 74
unique 74
ver 74
younger 74
49 73
99 73
Asian 73
Because 73
Brian 73
C. 73
CBS 73
Do@@ 73
Green 73
Like 73
Me@@ 73
PRNewswire-FirstCall 73
Se@@ 73
agent 73
animals 73
ants 73
attended 73
bar@@ 73
bottom 73
centre 73
century 73
champion 73
commander 73
creating 73
effects 73
entered 73
gh@@ 73
ir 73
oc@@ 73
ously 73
pl@@ 73
regime 73
s-@@ 73
sea 73
senator 73
simple 73
suspended 73
tied 73
unlikely 73
wait 73
worried 73
13,@@ 72
14@@ 72
Columbia 72
Copyright 72
Detroit 72
Dubai 72
Gaza 72
Ho@@ 72
Instead 72
La@@ 72
Mer@@ 72
allowing 72
arms 72
camp 72
crimes 72
easily 72
east 72
eb@@ 72
ents 72
eventually 72
expensive 72
female 72
fit 72
headed 72
ical 72
improved 72
interests 72
introduced 72
ise 72
linked 72
mass 72
nature 72
partners 72
polls 72
reading 72
recorded 72
relatively 72
represents 72
require 72
rivals 72
securities 72
sk@@ 72
stood 72
sts 72
vi@@ 72
2,000 71
51 71
Administration 71
Andrew 71
Corp. 71
G 71
Gu@@ 71
Jackson 71
Kurdish 71
SE@@ 71
So@@ 71
Society 71
Such 71
Sudan 71
agents 71
ative 71
balance 71
cur@@ 71
democracy 71
drivers 71
explain 71
films 71
gay 71
herself 71
immigrants 71
justice 71
lawmakers 71
ment 71
perfect 71
plants 71
ra 71
session 71
shopping 71
so@@ 71
suit 71
tournament 71
wins 71
* 70
56 70
Ahmadinejad 70
Col@@ 70
Diego 70
Four 70
Hollywood 70
Im@@ 70
Qu@@ 70
Su@@ 70
Sunni 70
ak@@ 70
allows 70
applications 70
berg 70
bu@@ 70
commitment 70
critics 70
die 70
dog 70
ep@@ 70
ered 70
except 70
favorite 70
ff 70
hasn 70
ished 70
ker 70
lived 70
ma 70
mental 70
nations 70
option 70
passengers 70
politicians 70
resolution 70
respond 70
supported 70
teachers 70
ve@@ 70
5.@@ 69
6-@@ 69
69 69
9-@@ 69
Co 69
Go@@ 69
Lewis 69
Maryland 69
Only 69
Southern 69
U 69
Writer 69
accept 69
block 69
bridge 69
county 69
degree 69
ders 69
emissions 69
expert 69
fears 69
ging 69
hair 69
intended 69
lin@@ 69
nor 69
pair 69
possibility 69
possibly 69
raising 69
secret 69
sentence 69
sing 69
sit 69
standard 69
threw 69
ure 69
votes 69
voting 69
walking 69
yer 69
8,@@ 68
Daniel 68
Huckabee 68
Iraqis 68
Management 68
Mu@@ 68
Reserved 68
Second 68
Ste@@ 68
TM 68
Vegas 68
acquisition 68
add 68
alcohol 68
award 68
aware 68
birth 68
championship 68
commission 68
conduct 68
criticism 68
dec@@ 68
den@@ 68
edge 68
enforcement 68
guards 68
ina 68
managed 68
massive 68
mile 68
parliament 68
picked 68
presented 68
reduced 68
revenues 68
ses 68
smaller 68
sw@@ 68
ta@@ 68
terror 68
threatened 68
tra@@ 68
violent 68
ya 68
24@@ 67
Abu 67
Be 67
Big 67
CO@@ 67
Former 67
K 67
Republic 67
Sir 67
abuse 67
all-@@ 67
apparently 67
aw@@ 67
challenges 67
colleagues 67
contracts 67
decisions 67
dismissed 67
er-@@ 67
ering 67
fair 67
friendly 67
images 67
initial 67
lies 67
mine 67
ministers 67
ology 67
outs 67
payments 67
purchase 67
quarterback 67
rally 67
re-@@ 67
restaurant 67
singer 67
speaking 67
tie 67
zed 67
© 67
Attorney 66
D-@@ 66
Force 66
Oil 66
Syria 66
adults 66
advanced 66
apartment 66
civilians 66
competitive 66
completely 66
confident 66
direction 66
ens 66
governments 66
il 66
ile 66
interested 66
junta 66
ked 66
knee 66
modern 66
ong 66
positions 66
scale 66
severe 66
slightly 66
sources 66
towards 66
tree 66
um@@ 66
unusual 66
victim 66
ze 66
0-@@ 65
59 65
Bel@@ 65
Chairman 65
Fire 65
Kar@@ 65
Las 65
Media 65
Staff 65
agree 65
boys 65
campus 65
contest 65
covered 65
cra@@ 65
custody 65
customer 65
di 65
dozens 65
executives 65
famous 65
filled 65
grand 65
healthy 65
identify 65
meaning 65
passing 65
physical 65
q 65
reality 65
ring 65
rock 65
seventh 65
shared 65
strategic 65
weak 65
winds 65
witnesses 65
wounded 65
write 65
100,000 64
1995 64
400 64
71 64
800 64
Ali 64
Australian 64
Dar@@ 64
E. 64
Each 64
Eastern 64
Hamas 64
IN@@ 64
Jordan 64
Miami 64
Museum 64
Or 64
Reserve 64
Saudi 64
Spanish 64
Stephen 64
Wilson 64
ably 64
actor 64
ade 64
allegedly 64
becomes 64
ber@@ 64
bigger 64
cells 64
ck@@ 64
clean 64
ence 64
entertainment 64
feeling 64
goods 64
ier 64
immediate 64
location 64
married 64
minor 64
pictures 64
pitch 64
pre-@@ 64
science 64
sixth 64
sleep 64
society 64
structure 64
tics 64
toys 64
visitors 64
western 64
Apple 63
Blair 63
Daily 63
Far@@ 63
He@@ 63
Here 63
Illinois 63
Ko@@ 63
Minnesota 63
Mrs. 63
Pentagon 63
Peterson 63
Report 63
River 63
Taylor 63
Third 63
Treasury 63
Vietnam 63
accepted 63
aries 63
associated 63
basic 63
chances 63
closely 63
distribution 63
eat 63
explained 63
fees 63
happens 63
ir@@ 63
lawsuit 63
moves 63
movies 63
multiple 63
pleaded 63
replaced 63
schedule 63
sets 63
supplies 63
surprise 63
tickets 63
truck 63
waste 63
+ 62
1998 62
94 62
Bu@@ 62
Children 62
Democrat 62
Gar@@ 62
Hong 62
Louis 62
NBC 62
Nasdaq 62
Rodriguez 62
acknowledged 62
anti@@ 62
assault 62
ati@@ 62
ble 62
brain 62
charity 62
coast 62
count 62
counts 62
ell 62
fe@@ 62
fewer 62
fi@@ 62
flights 62
forecast 62
image 62
indicated 62
institutions 62
investments 62
iz@@ 62
ments 62
ongoing 62
opportunities 62
prior 62
prove 62
q@@ 62
que 62
repeatedly 62
revealed 62
rooms 62
ru@@ 62
ste@@ 62
strength 62
suspected 62
ville 62
walked 62
warming 62
6,@@ 61
DNA 61
Development 61
Kevin 61
McC@@ 61
Moscow 61
Road 61
Seattle 61
Several 61
Though 61
US@@ 61
War@@ 61
anniversary 61
argued 61
assistant 61
cold 61
considering 61
cr@@ 61
da@@ 61
dark 61
defeat 61
drinking 61
ford 61
gained 61
individuals 61
listed 61
ned 61
opponents 61
pending 61
programme 61
publicly 61
putting 61
removed 61
sm@@ 61
songs 61
sons 61
stations 61
su@@ 61
well-@@ 61
wind 61
20@@ 60
7,@@ 60
74 60
AR@@ 60
Atlantic 60
Bro@@ 60
Director 60
Games 60
Gov. 60
Henry 60
Houston 60
Lake 60
M. 60
Massachusetts 60
Mayor 60
Or@@ 60
ST@@ 60
Shiite 60
Tehran 60
Tennessee 60
Torre 60
Tri@@ 60
Up 60
Warner 60
Was 60
affairs 60
aged 60
air@@ 60
au@@ 60
ay@@ 60
banking 60
breast 60
camera 60
choose 60
collapse 60
combined 60
concert 60
contractors 60
des@@ 60
detained 60
dogs 60
exactly 60
expand 60
experienced 60
generally 60
ig@@ 60
ik@@ 60
ines 60
iti@@ 60
ities 60
judges 60
lin 60
lots 60
margin 60
mortgages 60
novel 60
please 60
pri@@ 60
remarks 60
sal@@ 60
suggests 60
unable 60
venture 60
voted 60
• 60
2009 59
57 59
68 59
Alex 59
Are 59
Au@@ 59
Global 59
Manchester 59
Miller 59
Mohammed 59
Olmert 59
PRNewswire 59
Social 59
Spears 59
Trade 59
Valley 59
W 59
advance 59
back@@ 59
begins 59
controlled 59
corruption 59
device 59
drove 59
end@@ 59
expansion 59
grade 59
gro@@ 59
har@@ 59
helps 59
holds 59
ka 59
knowledge 59
la@@ 59
located 59
manufacturing 59
nomination 59
offensive 59
offices 59
ore 59
phones 59
reflect 59
scoring 59
shift 59
spring 59
stocks 59
studio 59
stuff 59
targets 59
throw 59
tr@@ 59
vast 59
views 59
visiting 59
widely 59
wing 59
10,000 58
250 58
Ben 58
Club 58
GOP 58
Indians 58
Irish 58
La 58
Mor@@ 58
Sports 58
ak 58
alive 58
announce 58
breaking 58
capacity 58
causing 58
chain 58
combat 58
combination 58
cooperation 58
display 58
electricity 58
elsewhere 58
em 58
extended 58
extremely 58
fashion 58
heat 58
heavily 58
ideas 58
matches 58
maybe 58
mouth 58
nationwide 58
none 58
prisoners 58
reaching 58
rescue 58
sat 58
stands 58
suffering 58
suggest 58
summit 58
tested 58
to-@@ 58
tor@@ 58
tri@@ 58
we@@ 58
20,000 57
58 57
72 57
77 57
80@@ 57
Authorities 57
Calif 57
Canadian 57
Dan 57
Division 57
ER 57
Gates 57
Gulf 57
Ireland 57
Let 57
Lord 57
ME@@ 57
Matt 57
Mets 57
Network 57
Pacific 57
R. 57
Radio 57
a.m. 57
attempted 57
becoming 57
cre@@ 57
defensive 57
devices 57
discussed 57
enter 57
ery 57
estimate 57
falling 57
gathered 57
headquarters 57
heads 57
ino 57
internal 57
involvement 57
kin 57
manage 57
models 57
mu@@ 57
outstanding 57
photos 57
plea 57
practices 57
prompted 57
quoted 57
registered 57
sa 57
seized 57
sending 57
sion 57
so-called 57
stars 57
testimony 57
uncertainties 57
veterans 57
vision 57
150 56
1997 56
20-@@ 56
50@@ 56
AT@@ 56
Brazil 56
Carter 56
Church 56
Clark 56
Dow 56
Foundation 56
Game 56
Hu@@ 56
Inter@@ 56
Jeff 56
Jose 56
Kong 56
Patriots 56
Rep. 56
Six 56
Soviet 56
Spain 56
We@@ 56
absolutely 56
aggressive 56
al-Qaida 56
alternative 56
ash 56
cards 56
communications 56
criticized 56
eastern 56
eating 56
ev@@ 56
flow 56
founder 56
gains 56
inning 56
jumped 56
labor 56
long-@@ 56
marked 56
ob@@ 56
plastic 56
pro-@@ 56
questioned 56
regarding 56
roads 56
scientific 56
seasons 56
shortly 56
significantly 56
solution 56
sport 56
subprime 56
supposed 56
ta 56
ten@@ 56
tight 56
tur@@ 56
ying 56
07 55
1994 55
Abbas 55
Alan 55
Ber@@ 55
Bob 55
Do 55
Good 55
Income 55
Kansas 55
Kennedy 55
Law 55
Min@@ 55
Young 55
aging 55
ath@@ 55
auction 55
bound 55
bre@@ 55
command 55
complaints 55
danger 55
debut 55
delivered 55
determine 55
dinner 55
els 55
ely 55
ends 55
failing 55
fallen 55
farm 55
flying 55
grown 55
ically 55
ing-@@ 55
inv@@ 55
leaves 55
leg 55
long-term 55
maintain 55
managers 55
miss 55
operates 55
owns 55
p.m. 55
path 55
performed 55
primarily 55
prize 55
promise 55
pushed 55
rain 55
recommended 55
recovery 55
sen 55
shareholders 55
surge 55
talked 55
trend 55
ving 55
.cfm 54
10,@@ 54
12@@ 54
37@@ 54
48@@ 54
97 54
AL 54
Chavez 54
Civil 54
Every 54
Food 54
Great 54
Li@@ 54
Major 54
Mal@@ 54
Once 54
Parliament 54
Pennsylvania 54
Queen 54
Technology 54
Who 54
accounting 54
alized 54
approval 54
ast 54
ater 54
attempts 54
blue 54
bombing 54
ca 54
captain 54
citing 54
contained 54
currency 54
diplomatic 54
dominated 54
easier 54
euro 54
euros 54
expects 54
fin@@ 54
fraud 54
hand@@ 54
liabilities 54
ma@@ 54
matters 54
museum 54
ney 54
orders 54
partnership 54
percentage 54
perform 54
platform 54
promote 54
reform 54
responded 54
sed 54
sharp 54
split 54
st 54
stake 54
stated 54
streak 54
talent 54
technical 54
technologies 54
tens 54
terrorists 54
trained 54
trans@@ 54
truth 54
turns 54
worker 54
1991 53
68@@ 53
Baltimore 53
Deputy 53
Earth 53
Fred 53
Grand 53
IT 53
Jack 53
Kim 53
Officials 53
Orleans 53
Out 53
Pakistani 53
Q 53
Santa 53
Special 53
Stewart 53
Te@@ 53
Your 53
achieve 53
acts 53
all@@ 53
artists 53
bi@@ 53
captured 53
circumstances 53
convinced 53
courts 53
dies 53
duty 53
enjoy 53
firefighters 53
glass 53
independence 53
ine@@ 53
initially 53
neither 53
notes 53
otherwise 53
overseas 53
reputation 53
res@@ 53
retirement 53
ro 53
sen@@ 53
sentenced 53
settlement 53
sister 53
square 53
sting 53
struggle 53
tering 53
territory 53
tre@@ 53
unless 53
ur 53
wild 53
winter 53
00@@ 52
13@@ 52
1990s 52
39@@ 52
61 52
AM@@ 52
Catholic 52
Elizabeth 52
Five 52
Has 52
ING 52
Journal 52
Kyi 52
Montgomery 52
Morgan 52
Nevada 52
New@@ 52
Old 52
Rangers 52
Thanksgiving 52
Ver@@ 52
Well 52
Which 52
activists 52
ai 52
artist 52
begun 52
cable 52
ce@@ 52
ches 52
co 52
computers 52
differ 52
dly 52
drawn 52
dream 52
effectively 52
employee 52
ff@@ 52
fish 52
formed 52
founded 52
gra@@ 52
greatest 52
half-@@ 52
ham 52
hired 52
hitting 52
hoped 52
investigating 52
ky 52
leads 52
limits 52
medicine 52
minority 52
na 52
ne 52
networks 52
nice 52
numerous 52
offense 52
opinion 52
opposed 52
permission 52
plus 52
pool 52
pping 52
principal 52
producer 52
proposals 52
sel@@ 52
sharing 52
ski 52
skills 52
trees 52
tu@@ 52
village 52
visited 52
zing 52
25@@ 51
36@@ 51
Ac@@ 51
Authority 51
Best 51
Dallas 51
Jewish 51
Jo@@ 51
Little 51
Merrill 51
NASA 51
Olympic 51
USA 51
af@@ 51
analysis 51
appointed 51
az@@ 51
blast 51
bur@@ 51
can@@ 51
cap@@ 51
cited 51
cks 51
claiming 51
client 51
color 51
corner 51
crucial 51
editor 51
favor 51
feature 51
fl@@ 51
fo@@ 51
freedom 51
inc@@ 51
links 51
makers 51
parent 51
photo 51
protesters 51
quit 51
recognized 51
regulations 51
relationships 51
replace 51
river 51
roughly 51
second-@@ 51
sl@@ 51
stories 51
supporting 51
sur@@ 51
tive 51
tro@@ 51
troop 51
turning 51
tw@@ 51
ved 51
viewers 51
watched 51
wealth 51
08 50
1,0@@ 50
1.5 50
11.@@ 50
49@@ 50
64 50
66 50
67 50
73 50
96 50
AL@@ 50
Analysts 50
Argentina 50
Award 50
D. 50
Family 50
Interest 50
Labor 50
Laden 50
Music 50
No@@ 50
Notes 50
Sal@@ 50
System 50
Thailand 50
V 50
acy 50
apart 50
application 50
assistance 50
ast@@ 50
ban@@ 50
behavior 50
bills 50
brief 50
cameras 50
causes 50
centers 50
comfortable 50
concluded 50
draft 50
drew 50
emerged 50
gi@@ 50
guns 50
her@@ 50
impossible 50
ised 50
male 50
med 50
memory 50
negative 50
neighborhood 50
o-@@ 50
oo@@ 50
operate 50
parliamentary 50
portfolio 50
producers 50
proved 50
re 50
resort 50
sky 50
strongly 50
tackle 50
tape 50
walks 50
wear 50
welcome 50
worry 50
yed 50
4,000 49
45@@ 49
9,@@ 49
Bell 49
Bor@@ 49
Chrysler 49
FBI 49
Investment 49
Jason 49
Miss 49
Moore 49
Navy 49
Pal@@ 49
Pe@@ 49
Program 49
Qaeda 49
Rudy 49
Sub@@ 49
To@@ 49
Vice 49
airline 49
ale 49
ality 49
animal 49
appropriate 49
au 49
awarded 49
busy 49
cat@@ 49
ces 49
chose 49
compensation 49
cutting 49
destroyed 49
directed 49
dress 49
everybody 49
gap 49
gen@@ 49
ges 49
gl@@ 49
handle 49
hole 49
hospitals 49
imposed 49
interviews 49
letters 49
mention 49
ory 49
pace 49
pack 49
payment 49
personnel 49
potentially 49
pped 49
predicted 49
remote 49
restaurants 49
struggled 49
successfully 49
treat 49
tru@@ 49
typically 49
ultimately 49
uted 49
values 49
wi@@ 49
window 49
wireless 49
writes 49
yn@@ 49
14-@@ 48
1980s 48
1996 48
30@@ 48
62 48
AM 48
Academy 48
Alexander 48
C.@@ 48
Channel 48
Citigroup 48
Fin@@ 48
Hamilton 48
Joseph 48
Kelly 48
Ki@@ 48
L. 48
Olympics 48
Show 48
Sony 48
Stock 48
Swiss 48
Tu@@ 48
WAM 48
ace 48
afford 48
ah@@ 48
allies 48
apply 48
ash@@ 48
bag 48
beating 48
blamed 48
boss 48
bri@@ 48
campaigns 48
catch 48
ceremony 48
clo@@ 48
clothes 48
cor@@ 48
demands 48
dispute 48
est@@ 48
faith 48
farmers 48
fires 48
gar@@ 48
grounds 48
ill@@ 48
instance 48
license 48
low-@@ 48
managing 48
messages 48
missile 48
monks 48
obviously 48
officially 48
pieces 48
planes 48
pleased 48
plenty 48
pound 48
provider 48
pur@@ 48
quick 48
rated 48
referring 48
relatives 48
remove 48
representing 48
restrictions 48
section 48
seriously 48
solid 48
struggling 48
super@@ 48
threats 48
transport 48
understanding 48
upset 48
variety 48
veteran 48
wh@@ 48
wish 48
------------- 47
88 47
9.@@ 47
Barack 47
Can 47
Cross 47
Edinburgh 47
Human 47
Hussein 47
IS@@ 47
Kenya 47
Labour 47
Mac@@ 47
N.@@ 47
Science 47
Si@@ 47
Tour 47
UAE 47
Utah 47
Wil@@ 47
agenda 47
atic 47
capable 47
chemical 47
compete 47
connected 47
cross 47
discussion 47
drama 47
es-@@ 47
follows 47
fought 47
gathering 47
heading 47
insisted 47
insurgents 47
lie 47
machine 47
materially 47
materials 47
of-@@ 47
ov 47
package 47
poverty 47
programming 47
ranked 47
reduction 47
regulatory 47
relief 47
requirements 47
rural 47
scores 47
selection 47
shut 47
skin 47
song 47
stayed 47
theater 47
ticket 47
tools 47
unions 47
04 46
12,@@ 46
12-@@ 46
1990 46
38@@ 46
600 46
76 46
Avenue 46
Br@@ 46
Bur@@ 46
DE@@ 46
Eric 46
Fe@@ 46
Ger@@ 46
Harry 46
Later 46
Mary 46
Mukasey 46
N.Y. 46
Premier 46
S. 46
Sheikh 46
Sur@@ 46
Toronto 46
West@@ 46
abroad 46
ali@@ 46
ano 46
ational 46
att@@ 46
bing 46
bling 46
br@@ 46
channel 46
char@@ 46
complained 46
dedicated 46
defending 46
developments 46
dry 46
ek 46
ell@@ 46
explosion 46
facts 46
fighters 46
five-@@ 46
gr@@ 46
guide 46
ils 46
improvement 46
iting 46
ition 46
killings 46
lucky 46
map 46
mer 46
mid@@ 46
mph 46
obtain 46
obtained 46
off-@@ 46
offset 46
opposite 46
participants 46
post@@ 46
powers 46
provision 46
pushing 46
raid 46
requires 46
ries 46
settled 46
shape 46
sounds 46
speculation 46
squad 46
stone 46
stream 46
suspension 46
thrown 46
tomorrow 46
tor 46
touchdowns 46
traded 46
vital 46
volunteers 46
whatever 46
witness 46
ws 46
yield 46
01 45
11-@@ 45
78 45
Affairs 45
Annual 45
Arabia 45
Assembly 45
Ba@@ 45
Bowl 45
Cha@@ 45
Da@@ 45
Dr 45
Fla 45
Ha@@ 45
Long 45
Nor@@ 45
Operating 45
PKK 45
Pittsburgh 45
Safety 45
Suu 45
Tim 45
are@@ 45
argue 45
ass@@ 45
balls 45
baseball 45
birds 45
borrowers 45
chosen 45
closer 45
code 45
consecutive 45
controversial 45
dance 45
differences 45
discussions 45
ease 45
electronic 45
first-@@ 45
fore@@ 45
gift 45
harder 45
historical 45
killer 45
land@@ 45
learning 45
legs 45
lenders 45
locations 45
mail 45
newspapers 45
pe 45
port 45
producing 45
rebel 45
reducing 45
rel@@ 45
ride 45
searching 45
sees 45
sho@@ 45
soldier 45
species 45
spoken 45
stressed 45
tly 45
touch 45
troubled 45
trucks 45
veto 45
wa@@ 45
win@@ 45
withdrawal 45
-S@@ 44
87 44
Andy 44
Campbell 44
Del@@ 44
Dick 44
Fo@@ 44
Form 44
Goldman 44
Interior 44
Jan. 44
Ku@@ 44
Latin 44
Lebanon 44
Lynch 44
Muslims 44
Pen@@ 44
Pet@@ 44
Power 44
Rec@@ 44
Richardson 44
SEC 44
Sch@@ 44
Standard 44
ach 44
acquired 44
adult 44
advice 44
aff@@ 44
ards 44
ark@@ 44
attract 44
behalf 44
ber 44
bond 44
broad 44
bul@@ 44
consequences 44
controls 44
creative 44
damaged 44
defeated 44
disaster 44
drink 44
electric 44
elements 44
employers 44
equivalent 44
fer@@ 44
hall 44
hum@@ 44
hunt 44
importance 44
incidents 44
initiative 44
interesting 44
izing 44
mainly 44
min@@ 44
moral 44
ninth 44
nonprofit 44
opponent 44
papers 44
parking 44
playoff 44
prominent 44
promises 44
reaction 44
religion 44
returning 44
savings 44
shock 44
smoking 44
sn@@ 44
stress 44
surprised 44
task 44
temporary 44
th-@@ 44
third-@@ 44
ue 44
ven@@ 44
widespread 44
,000 43
09 43
1st 43
46@@ 43
63 43
79 43
Airport 43
Alabama 43
Ambassador 43
Anthony 43
At@@ 43
Barry 43
Chelsea 43
Corp 43
Dec@@ 43
Dutch 43
Indonesia 43
Katrina 43
Khan 43
Local 43
Oregon 43
Palestinians 43
Phil 43
Private 43
TH@@ 43
Without 43
Yahoo 43
achieved 43
anonymity 43
asset 43
assist 43
atory 43
attorneys 43
beautiful 43
blocked 43
boat 43
bury 43
cking 43
coup 43
deadly 43
dealing 43
definitely 43
ee 43
entirely 43
ese 43
establish 43
expanding 43
factor 43
four-@@ 43
ft 43
futures 43
gre@@ 43
hardly 43
ians 43
ick 43
ie@@ 43
iling 43
index.cfm 43
ized 43
lay 43
luxury 43
mat@@ 43
mer@@ 43
mix 43
musical 43
neighbors 43
no-@@ 43
ourselves 43
photographs 43
probe 43
prosecutor 43
receiving 43
represented 43
somebody 43
stolen 43
striking 43
targeted 43
testified 43
text 43
ths 43
tribal 43
turmoil 43
urban 43
youth 43
0,@@ 42
15-@@ 42
30-@@ 42
58@@ 42
86 42
92 42
A.@@ 42
AD@@ 42
AFP 42
Airlines 42
Awards 42
Between 42
Burma 42
Can@@ 42
Carlos 42
Coast 42
Consumer 42
D.C. 42
Egypt 42
Fund 42
Governor 42
H. 42
Holdings 42
Ke@@ 42
My@@ 42
NYSE 42
ON 42
Project 42
Ron 42
Sc@@ 42
Sea 42
Simon 42
Tech 42
Wayne 42
Week 42
Would 42
abortion 42
accusations 42
aces 42
ach@@ 42
ame 42
an-@@ 42
answers 42
ately 42
brings 42
challenging 42
cultural 42
dramatic 42
efficiency 42
ethnic 42
exhibition 42
fac@@ 42
fled 42
handling 42
ious 42
journalists 42
ki 42
lifted 42
lights 42
lu@@ 42
marks 42
micro@@ 42
ownership 42
pointed 42
ran@@ 42
recession 42
regions 42
robbery 42
roll 42
stepped 42
sun 42
throwing 42
transportation 42
truly 42
weren 42
wine 42
200@@ 41
40@@ 41
700 41
8.@@ 41
90@@ 41
Ban 41
Bonds 41
Bre@@ 41
Broadway 41
Brooklyn 41
Bruce 41
Bureau 41
CA@@ 41
CH@@ 41
Che@@ 41
Cro@@ 41
Cuba 41
GM 41
Golden 41
Gore 41
Gra@@ 41
IR@@ 41
LOS 41
Larry 41
Mississippi 41
Nation 41
Nick 41
Pa@@ 41
Reid 41
SP@@ 41
Space 41
Square 41
adopted 41
adviser 41
aim 41
alliance 41
ang 41
ara 41
atmosphere 41
backing 41
blame 41
boo@@ 41
breaks 41
category 41
chair 41
cher 41
ching 41
complaint 41
constitution 41
contrast 41
dating 41
defence 41
demanding 41
detailed 41
eighth 41
enemy 41
error 41
excited 41
exports 41
faster 41
fat 41
festival 41
fields 41
file 41
finds 41
for-@@ 41
gs 41
harm 41
helicopters 41
hotels 41
improving 41
inger 41
ites 41
judgment 41
lar@@ 41
lessons 41
likes 41
mistakes 41
ner@@ 41
notice 41
ns 41
ological 41
originally 41
pop 41
por@@ 41
properly 41
purpose 41
rebounds 41
rent 41
replacement 41
represent 41
rookie 41
satellite 41
sions 41
slump 41
stable 41
sued 41
swe@@ 41
sweet 41
teen 41
tells 41
tors 41
tracks 41
transition 41
tries 41
vers 41
volume 41
warm 41
windows 41
--- 40
0,000 40
11,@@ 40
12.@@ 40
1988 40
88@@ 40
AS@@ 40
AT 40
Abdullah 40
Allen 40
Any 40
Asked 40
CIA 40
Cameron 40
Care 40
Cash 40
Collins 40
Cr@@ 40
Dhabi 40
EL@@ 40
Glasgow 40
Gold 40
Guard 40
Love 40
Marine 40
Meeting 40
Others 40
Ram@@ 40
Real 40
Rockies 40
Shanghai 40
Sharif 40
Stanley 40
Star 40
Whit@@ 40
Women 40
Yo@@ 40
adds 40
aides 40
ake 40
ambassador 40
amounts 40
ant@@ 40
approached 40
athletes 40
bars 40
ble@@ 40
blocks 40
bombs 40
cap 40
childhood 40
clubs 40
col@@ 40
complicated 40
contains 40
daughters 40
deficit 40
document 40
earn 40
encourage 40
engineering 40
ently 40
formal 40
fr@@ 40
gifts 40
guests 40
hire 40
inches 40
inf@@ 40
infection 40
ini 40
internet 40
ium 40
journalist 40
lic@@ 40
lineup 40
loo@@ 40
lunch 40
merger 40
motion 40
ning 40
noting 40
obvious 40
oned 40
os@@ 40
pa@@ 40
pm 40
possession 40
post-@@ 40
reasonable 40
residential 40
stance 40
survived 40
targeting 40
trials 40
types 40
un 40
update 40
updated 40
usual 40
videos 40
virtually 40
walls 40
work@@ 40
-to-@@ 39
000-@@ 39
13-@@ 39
1992 39
50,000 39
70@@ 39
Alaska 39
Alliance 39
Ann 39
Anne 39
Bal@@ 39
Benazir 39
Diana 39
Economic 39
Entertainment 39
FDA 39
Fatah 39
Forest 39
GMT 39
Gen@@ 39
Gre@@ 39
HIV 39
Han@@ 39
Jr 39
Ju@@ 39
Lu@@ 39
MO@@ 39
Men@@ 39
Mitchell 39
Pl@@ 39
Roberts 39
Sean 39
Shares 39
Sri 39
Systems 39
Tigers 39
Trust 39
Turner 39
Va 39
ack 39
actress 39
ades 39
alongside 39
arrests 39
backs 39
bags 39
characters 39
cked 39
comprehensive 39
concrete 39
crackdown 39
creation 39
defend 39
delays 39
depression 39
diabetes 39
diluted 39
diplomats 39
discovery 39
doors 39
doubled 39
dri@@ 39
earning 39
emotional 39
extreme 39
false 39
feels 39
ffs 39
fil@@ 39
funded 39
ger@@ 39
hi@@ 39
homer 39
iPhone 39
ily 39
infrastructure 39
innovative 39
involve 39
ish@@ 39
ize 39
joining 39
la 39
label 39
lat@@ 39
liberal 39
meanwhile 39
monitoring 39
monthly 39
moon 39
nobody 39
ologists 39
opens 39
ops 39
outlook 39
ow 39
paint 39
permanent 39
preparing 39
prof@@ 39
quarters 39
recovered 39
repeated 39
resigned 39
ships 39
sive 39
six-@@ 39
spirit 39
stability 39
sted 39
stick 39
substantial 39
surface 39
tonight 39
user 39
ward 39
winners 39
yourself 39
1989 38
2-0 38
20th 38
27@@ 38
Adam 38
Arkansas 38
Art 38
As@@ 38
Average 38
B. 38
Bl@@ 38
Bra@@ 38
Buffalo 38
Cre@@ 38
Cur@@ 38
Dan@@ 38
EN@@ 38
Early 38
H.@@ 38
HD 38
Ham@@ 38
Have 38
Investors 38
LE@@ 38
Land@@ 38
Light 38
Mitt 38
NATO 38
NBA 38
Next 38
OK 38
OR@@ 38
Owen 38
Patrick 38
Relations 38
Sales 38
Senior 38
Sol@@ 38
Stadium 38
Steven 38
Sun 38
Terry 38
Us 38
Vi@@ 38
Wal-Mart 38
Workers 38
YouTube 38
ang@@ 38
argument 38
ari 38
aside 38
ass 38
bail 38
bases 38
bedroom 38
bench 38
broader 38
brothers 38
comedy 38
congressional 38
conspiracy 38
cro@@ 38
dated 38
degrees 38
democratic 38
dent 38
distance 38
e-mails 38
ear@@ 38
elled 38
escape 38
essential 38
familiar 38
forcing 38
forms 38
foundation 38
gasoline 38
gross 38
guest 38
happening 38
healthcare 38
honor 38
humans 38
ink 38
inspired 38
investigations 38
invited 38
io 38
keeps 38
lending 38
length 38
met@@ 38
minimum 38
mistake 38
ola 38
oning 38
pat@@ 38
phase 38
pilot 38
proof 38
rating 38
regularly 38
representatives 38
route 38
sad 38
scheme 38
somewhat 38
subsidiary 38
teens 38
thanks 38
therapy 38
toll 38
und@@ 38
unprecedented 38
ush@@ 38
virus 38
wave 38
weekly 38
wonderful 38
yes 38
05 37
2012 37
98 37
AND 37
Ahmed 37
Bloomberg 37
Brady 37
Cabinet 37
Castro 37
Cl@@ 37
Country 37
DVD 37
Disney 37
Farm 37
Free 37
Harris 37
Harvard 37
Her@@ 37
Je@@ 37
Jon 37
Jonathan 37
Live 37
Mrs 37
Murray 37
Nobel 37
Phoenix 37
Red@@ 37
Redskins 37
Singapore 37
TE@@ 37
THE 37
Top 37
Toyota 37
Trans@@ 37
Van 37
Vick 37
Where 37
aims 37
anger 37
anywhere 37
association 37
awards 37
awareness 37
background 37
banned 37
basketball 37
burn 37
buyers 37
collected 37
desire 37
dge 37
diet 37
directors 37
engaged 37
episode 37
exile 37
exposure 37
extent 37
extremists 37
fare 37
feed 37
financing 37
fire@@ 37
flo@@ 37
guidelines 37
ha 37
halftime 37
handful 37
hedge 37
hidden 37
historic 37
holes 37
humanitarian 37
innocent 37
integrated 37
j 37
k-@@ 37
kidnapping 37
lift 37
locked 37
manufacturers 37
men@@ 37
ministry 37
multi@@ 37
necessarily 37
obligation 37
odds 37
ow@@ 37
pages 37
pen@@ 37
pension 37
pet 37
playoffs 37
pregnant 37
presidency 37
priority 37
proud 37
pursue 37
qualify 37
ratings 37
referred 37
reporter 37
retailers 37
returns 37
selected 37
sensitive 37
serves 37
settle 37
shoulder 37
sick 37
smoke 37
soft 37
staying 37
stronger 37
titles 37
tons 37
tool 37
utility 37
vic@@ 37
vo@@ 37
vowed 37
weapon 37
wedding 37
03 36
1-0 36
13.@@ 36
17,@@ 36
200,000 36
23@@ 36
60@@ 36
82 36
84 36
ANGELES 36
Aaron 36
Beach 36
Bi@@ 36
Bon@@ 36
CE@@ 36
Comp@@ 36
Connecticut 36
Control 36
Don@@ 36
Fl@@ 36
Following 36
Football 36
Gary 36
Greg 36
Hispanic 36
Hurricane 36
IC@@ 36
Ian 36
J 36
Jennifer 36
Kentucky 36
LONDON 36
Lar@@ 36
Lin@@ 36
Liverpool 36
Louisiana 36
Mail 36
Mass 36
McCann 36
Men 36
NO@@ 36
Op@@ 36
Oscar 36
Out@@ 36
Philip 36
Ra@@ 36
Robinson 36
Roger 36
St 36
Stra@@ 36
Sweden 36
Television 36
Yes 36
academic 36
airlines 36
ama 36
ane 36
anybody 36
ap 36
approve 36
barrels 36
beaten 36
birthday 36
bomber 36
brands 36
bro@@ 36
classes 36
coffee 36
cop@@ 36
corn 36
cul@@ 36
cy 36
decrease 36
del@@ 36
delay 36
disappointed 36
documentary 36
efficient 36
eligible 36
elite 36
emerging 36
encouraged 36
engine 36
ens@@ 36
envoy 36
ette 36
fan 36
fatal 36
flew 36
generated 36
granted 36
halt 36
hosted 36
hu@@ 36
identity 36
interim 36
ire 36
kitchen 36
ko 36
licenses 36
lifestyle 36
listen 36
lists 36
machines 36
meat 36
metal 36
militant 36
milk 36
mountain 36
ol 36
ologist 36
ony 36
overnight 36
participate 36
pose 36
professionals 36
pull 36
realized 36
ren@@ 36
restore 36
resulted 36
ri 36
scientist 36
sco@@ 36
sis 36
sli@@ 36
slipped 36
sol@@ 36
solar 36
stretch 36
strikes 36
studied 36
symptoms 36
tennis 36
the@@ 36
thinks 36
towns 36
ured 36
wake 36
web 36
wor@@ 36
wound 36
za 36
.gov 35
15,@@ 35
2.5 35
2010 35
< 35
BE@@ 35
Beckett 35
Biden 35
Bri@@ 35
Cap@@ 35
Crocker 35
Denver 35
Gen 35
IT@@ 35
Islam 35
Jets 35
LLC 35
MB@@ 35
Madeleine 35
Manning 35
Mat@@ 35
Maybe 35
Mel@@ 35
Members 35
Plan 35
Pol@@ 35
Pri@@ 35
Prize 35
Professor 35
RI@@ 35
Rodham 35
Sab@@ 35
Sar@@ 35
Thomson 35
ankle 35
annually 35
anticipated 35
associate 35
aver@@ 35
bla@@ 35
blog 35
capture 35
celebrate 35
che@@ 35
cin@@ 35
cleared 35
communication 35
correct 35
crashed 35
crowded 35
crowds 35
defended 35
detention 35
dialogue 35
dle 35
enable 35
enjoyed 35
excellent 35
exposed 35
extend 35
fail 35
featured 35
flat 35
function 35
fundamental 35
funny 35
gotten 35
hunting 35
ih@@ 35
infections 35
informed 35
invest 35
investing 35
kicked 35
lock 35
loved 35
master 35
maximum 35
mor@@ 35
native 35
og@@ 35
opener 35
organized 35
overcome 35
peak 35
pledged 35
portion 35
praised 35
privacy 35
profile 35
properties 35
puts 35
qualified 35
recalls 35
reconciliation 35
reference 35
reportedly 35
segment 35
sessions 35
shouldn 35
spots 35
statistics 35
sto@@ 35
stroke 35
tar@@ 35
tend 35
tim@@ 35
tiny 35
transfer 35
uncertainty 35
understood 35
ung 35
va 35
verdict 35
viewed 35
vis@@ 35
water@@ 35
waters 35
wholesale 35
yn 35
1,500 34
14,@@ 34
17-@@ 34
18-@@ 34
1970s 34
2-1 34
21-@@ 34
900 34
AIDS 34
Arts 34
Community 34
Cowboys 34
Donald 34
ER@@ 34
Federer 34
Gi@@ 34
Go 34
Hotel 34
Indiana 34
LO@@ 34
Lawrence 34
Malaysia 34
Market 34
Mid@@ 34
Mil@@ 34
Missouri 34
Moss 34
Mur@@ 34
NHS 34
ON@@ 34
Oklahoma 34
Sheriff 34
Sk@@ 34
Transportation 34
Were 34
acc@@ 34
ain 34
alism 34
amazing 34
ar-@@ 34
arranged 34
arrive 34
asi@@ 34
assembly 34
breakfast 34
buses 34
carries 34
cheap 34
classic 34
comp@@ 34
conservatives 34
consumption 34
contributions 34
conviction 34
deadline 34
defendants 34
delegates 34
dr@@ 34
educational 34
eh@@ 34
ess@@ 34
everywhere 34
extensive 34
extraordinary 34
falls 34
fill 34
flag 34
fleet 34
franchise 34
frequently 34
full-@@ 34
generate 34
golf 34
hadn 34
holders 34
ich 34
igh@@ 34
illness 34
inn@@ 34
ist@@ 34
itation 34
jet 34
jo@@ 34
journey 34
keeper 34
knowing 34
lender 34
low@@ 34
maintained 34
minus 34
moderate 34
moments 34
movements 34
ny 34
ot@@ 34
penalties 34
pp@@ 34
prepare 34
pressing 34
proven 34
racing 34
rail 34
recognize 34
respectively 34
routine 34
rugby 34
rushing 34
saving 34
sight 34
solve 34
suffer 34
survive 34
teaching 34
tensions 34
trains 34
transaction 34
travelers 34
traveling 34
treaty 34
trips 34
ts@@ 34
unclear 34
universal 34
universities 34
vulnerable 34
wider 34
--@@ 33
1,7@@ 33
16-@@ 33
26@@ 33
3-0 33
AC@@ 33
Al-@@ 33
Anbar 33
Ap@@ 33
Bin 33
Britney 33
Bryant 33
Cancer 33
Championship 33
Co. 33
Dennis 33
Drug 33
Facebook 33
GAAP 33
Get 33
Grant 33
Leader 33
Matthew 33
NE@@ 33
Online 33
Pa 33
Perhaps 33
Poland 33
Portugal 33
Pur@@ 33
R-@@ 33
RO@@ 33
Revenue 33
Scotsman 33
Ser@@ 33
Seven 33
She@@ 33
Somalia 33
Sydney 33
Tar@@ 33
Team 33
Tra@@ 33
Tur@@ 33
Water 33
Wisconsin 33
Woods 33
Wor@@ 33
absence 33
acted 33
actors 33
ada 33
anyway 33
apparent 33
arts 33
attending 33
audio 33
backup 33
badly 33
boats 33
break@@ 33
bright 33
cal@@ 33
ced 33
celebrity 33
champions 33
cker 33
clash 33
cli@@ 33
coal 33
collapsed 33
comparable 33
competing 33
completion 33
condemned 33
confirm 33
contain 33
cool 33
delegation 33
deny 33
diseases 33
economists 33
ed-@@ 33
empty 33
ent-@@ 33
ett 33
exc@@ 33
exist 33
fed 33
fee 33
forum 33
guess 33
hom@@ 33
homers 33
hoo@@ 33
hor@@ 33
ial 33
iled 33
iness 33
insists 33
invasion 33
knocked 33
lab 33
liked 33
longtime 33
medi@@ 33
mentioned 33
modest 33
multi-@@ 33
newly 33
off@@ 33
om 33
op 33
oring 33
packed 33
passenger 33
peaceful 33
pipeline 33
planet 33
pr@@ 33
preliminary 33
presentation 33
pricing 33
processing 33
promising 33
prosecution 33
racial 33
ranging 33
rapidly 33
receiver 33
resign 33
rocket 33
roles 33
rounds 33
saved 33
sentences 33
singing 33
slowly 33
starter 33
stra@@ 33
supports 33
surprising 33
tall 33
tangible 33
tension 33
theme 33
theory 33
therefore 33
top-@@ 33
ual 33
upcoming 33
ut 33
vel@@ 33
wars 33
wealthy 33
wonder 33
yo@@ 33
1,5@@ 32
24,@@ 32
30,000 32
Austria 32
Ban@@ 32
Basra 32
Black@@ 32
Case 32
Centers 32
Charlie 32
De 32
Delta 32
Discovery 32
Drew 32
Festival 32
Given 32
Idaho 32
Ill 32
Immigration 32
Lebanese 32
Liberal 32
Lisa 32
Manager 32
Natural 32
Netherlands 32
Night 32
Ocean 32
Parker 32
Partners 32
Peace 32
Profile 32
Prosecutors 32
Reagan 32
Rose 32
Russell 32
Sho@@ 32
Station 32
Super@@ 32
Tokyo 32
Tr@@ 32
Ty@@ 32
Verizon 32
Warren 32
Watch 32
Zealand 32
abandoned 32
aboard 32
acres 32
advocates 32
ase 32
assessment 32
assists 32
ba 32
blow 32
bone 32
burning 32
challenged 32
cho@@ 32
coaches 32
commit 32
connect 32
contractor 32
contribute 32
covers 32
declaration 32
delivering 32
detail 32
detainees 32
disappointing 32
elderly 32
entry 32
equally 32
essentially 32
ethanol 32
extension 32
fairly 32
featuring 32
firing 32
forth 32
ga 32
hosts 32
hurricane 32
hy@@ 32
ib@@ 32
ight 32
ined 32
influential 32
initiatives 32
intend 32
investigate 32
ita 32
itions 32
lets 32
lined 32
march 32
mate 32
neck 32
networking 32
new@@ 32
ot 32
outbreak 32
performances 32
performing 32
personally 32
politician 32
preserve 32
procedure 32
protecting 32
provincial 32
ranks 32
realize 32
recognition 32
recover 32
reflected 32
reserve 32
roadside 32
rush 32
school@@ 32
shed 32
shelter 32
shoot 32
star@@ 32
steady 32
stein 32
ster@@ 32
storage 32
stri@@ 32
succeed 32
surrounding 32
swimming 32
ther@@ 32
touched 32
toy 32
tradition 32
unknown 32
valuable 32
van@@ 32
virtual 32
vs. 32
ye@@ 32
zes 32
-T@@ 31
-up 31
02 31
120 31
16,@@ 31
44@@ 31
89 31
91 31
Amazon 31
Az@@ 31
Back 31
Based 31
Bridge 31
Building 31
Centre 31
Champions 31
Change 31
Cincinnati 31
Colombia 31
Commissioner 31
Condoleezza 31
Cop@@ 31
Delaware 31
Ed@@ 31
Edward 31
Everyone 31
Field 31
Gal@@ 31
Gonzales 31
I.@@ 31
III 31
Looking 31
MTV 31
Mah@@ 31
May@@ 31
Medicine 31
Mount 31
Much 31
Neil 31
Ob@@ 31
Organization 31
Pavarotti 31
Products 31
Qatar 31
Rather 31
Reg@@ 31
Review 31
Rock@@ 31
Stri@@ 31
Through 31
Until 31
Venezuela 31
advocate 31
agreements 31
appeals 31
appreciate 31
arguing 31
aring 31
aro@@ 31
ath 31
attracted 31
attractive 31
bas@@ 31
beach 31
bonds 31
boom 31
burned 31
commissioner 31
consultant 31
convention 31
conversation 31
denies 31
deposits 31
disappeared 31
drinks 31
eggs 31
en-@@ 31
encouraging 31
escaped 31
exit 31
fighter 31
fix 31
frame 31
freeze 31
gambling 31
gate 31
girlfriend 31
governing 31
graduate 31
industries 31
ishing 31
ive 31
jurors 31
km 31
lam@@ 31
lands 31
launching 31
lowest 31
merely 31
mining 31
monitor 31
normally 31
oldest 31
ome 31
opinions 31
or-@@ 31
output 31
pal@@ 31
partly 31
pay@@ 31
plate 31
plot 31
pointing 31
posed 31
postseason 31
print 31
proceeds 31
purchased 31
questioning 31
quiet 31
rape 31
recall 31
recommendations 31
register 31
reserves 31
riding 31
righ@@ 31
roo@@ 31
rou@@ 31
scandal 31
screening 31
signing 31
spreading 31
str@@ 31
suspicion 31
tered 31
thin 31
ton@@ 31
trail 31
transactions 31
tropical 31
ub@@ 31
ular 31
ups 31
urs 31
useful 31
wings 31
wounds 31
1-3 30
14.@@ 30
15.@@ 30
34@@ 30
35@@ 30
43@@ 30
47@@ 30
55@@ 30
81 30
83 30
All@@ 30
Blue 30
Ca@@ 30
Cas@@ 30
Commerce 30
Directors 30
Duke 30
Eagles 30
Education 30
Gil@@ 30
Had 30
Harrison 30
Hsu 30
Jerry 30
Justin 30
Knicks 30
Kosovo 30
Legal 30
Maria 30
Mexican 30
Motor 30
Nelson 30
Oracle 30
Part 30
Pat@@ 30
Ph@@ 30
Place 30
Quote 30
Reform 30
Rem@@ 30
Right 30
SA 30
Saddam 30
Sam 30
San@@ 30
Take 30
Talks 30
Ter@@ 30
Thir@@ 30
Thousands 30
Town 30
Travel 30
Wi@@ 30
Winfrey 30
acked 30
affordable 30
ain@@ 30
angry 30
artificial 30
astronauts 30
ation@@ 30
audiences 30
authorized 30
bearing 30
bit@@ 30
bitter 30
boards 30
bon@@ 30
book@@ 30
bra@@ 30
briefly 30
camps 30
casino 30
checks 30
counter@@ 30
crews 30
cruise 30
cu@@ 30
deeply 30
def@@ 30
departure 30
deployed 30
destruction 30
divorce 30
downtown 30
drives 30
edition 30
electronics 30
ella 30
emphasis 30
equ@@ 30
equal 30
ern@@ 30
examination 30
exciting 30
filings 30
forget 30
hal@@ 30
hat 30
hiring 30
hon@@ 30
ids 30
ied 30
immune 30
imp@@ 30
indication 30
intellectual 30
intense 30
intent 30
introduction 30
jump 30
kers 30
kes 30
leg@@ 30
lis 30
mainstream 30
margins 30
method 30
minded 30
minds 30
ming 30
mounted 30
neighbor 30
neighborhoods 30
neighboring 30
northwest 30
occur 30
ocean 30
operated 30
operational 30
operator 30
organic 30
painting 30
pan@@ 30
periods 30
pitched 30
pressed 30
proceedings 30
regard 30
relating 30
resident 30
retailer 30
rolling 30
sha@@ 30
shuttle 30
sign@@ 30
single-@@ 30
specialist 30
specifically 30
stadium 30
sters 30
strain 30
successor 30
sufficient 30
surrounded 30
torn 30
torture 30
trends 30
tt 30
two-thirds 30
uranium 30
vaccine 30
vegetables 30
vessel 30
zer 30
-and-@@ 29
10.@@ 29
19.@@ 29
1960s 29
28,@@ 29
28@@ 29
3-1 29
500,000 29
6,000 29
A-@@ 29
Adams 29
Antonio 29
Bab@@ 29
CI@@ 29
Call 29
Cardinals 29
Cat@@ 29
Celtic 29
Chad 29
Char@@ 29
Coach 29
Corps 29
Crown 29
Days 29
Evans 29
Fernando 29
Fi@@ 29
Ge@@ 29
Gor@@ 29
Gr@@ 29
Graham 29
Hal@@ 29
Having 29
Hawaii 29
Hu 29
Islamabad 29
Jerusalem 29
Jr. 29
Ka@@ 29
Lau@@ 29
Lt. 29
MA 29
Mich 29
Milan 29
Nearly 29
Nicolas 29
PM 29
Penn 29
Portuguese 29
Protection 29
Roy 29
Speaking 29
Super 29
TD 29
TO@@ 29
Taiwan 29
Tampa 29
Technologies 29
Tel@@ 29
Theater 29
Ukraine 29
Under@@ 29
Unfortunately 29
Updated 29
Virgin 29
Wa@@ 29
Wal@@ 29
Wright 29
ac 29
ado 29
agricultural 29
alization 29
ann@@ 29
appearances 29
barely 29
bear 29
beer 29
bird 29
but@@ 29
by-@@ 29
casualties 29
cat 29
cats 29
celebrated 29
celebrities 29
cent@@ 29
che 29
chronic 29
classified 29
clothing 29
collect 29
consulting 29
cour@@ 29
craft 29
cri@@ 29
cs 29
database 29
del 29
demanded 29
describes 29
designer 29
distributed 29
divided 29
dra@@ 29
dying 29
ect 29
employed 29
engage 29
ening 29
eting 29
fied 29
finishing 29
flames 29
fli@@ 29
focusing 29
forest 29
freed 29
gen 29
grabbed 29
grant 29
hanging 29
head@@ 29
helicopter 29
highlighted 29
horse 29
hybrid 29
ili@@ 29
inquiry 29
interviewed 29
investor 29
keen 29
keys 29
kid 29
laboratory 29
lasted 29
lawsuits 29
lim@@ 29
lying 29
mann 29
medicines 29
mul@@ 29
nominee 29
observers 29
offenders 29
participating 29
predict 29
premium 29
prospect 29
pulling 29
rallied 29
readers 29
refugees 29
reg@@ 29
relative 29
replacing 29
resignation 29
resulting 29
rushed 29
s.com 29
scenes 29
senators 29
shops 29
signal 29
solo 29
strengthen 29
sul@@ 29
sustained 29
tech 29
teenagers 29
timing 29
treatments 29
typical 29
unemployment 29
uring 29
visits 29
worries 29
ye 29
yen 29
1,4@@ 28
1.2 28
1.4 28
27,@@ 28
29@@ 28
3,0@@ 28
78@@ 28
8,000 28
Aff@@ 28
Against 28
Annapolis 28
Area 28
Ay@@ 28
Campaign 28
Communications 28
Congressional 28
Cy@@ 28
ET 28
Euro 28
Francis 28
Fu@@ 28
G. 28
Gambari 28
Gro@@ 28
Hi@@ 28
Hughes 28
Investigators 28
Is@@ 28
Lan@@ 28
Lanka 28
MP@@ 28
Mad@@ 28
Maine 28
Mi@@ 28
Oh 28
P.@@ 28
Political 28
Pra@@ 28
R.@@ 28
Ray 28
S.@@ 28
SI@@ 28
See 28
Shar@@ 28
Sher@@ 28
Shi@@ 28
Syrian 28
Ten 28
Top@@ 28
Tre@@ 28
Walter 28
Win 28
ab 28
accompanied 28
aching 28
acquisitions 28
ai@@ 28
aide 28
aker 28
aking 28
al-Maliki 28
amortization 28
anymore 28
applied 28
argues 28
auto 28
ayed 28
bab@@ 28
basically 28
bel 28
belief 28
billions 28
buried 28
cas@@ 28
channels 28
climbing 28
closest 28
comfort 28
competitors 28
compromise 28
conclusion 28
consent 28
controversy 28
covering 28
dates 28
demonstrations 28
describe 28
destination 28
dic@@ 28
donations 28
drought 28
earth 28
employment 28
endangered 28
ened 28
entrance 28
ert 28
external 28
formally 28
fre@@ 28
hat@@ 28
hitter 28
homeless 28
immigrant 28
impose 28
impressed 28
impressive 28
lifting 28
maintenance 28
mixed 28
mut@@ 28
nervous 28
objects 28
od@@ 28
outcome 28
ov@@ 28
painted 28
pink 28
politically 28
popularity 28
practical 28
principles 28
projected 28
promoting 28
protected 28
reforms 28
requests 28
resolve 28
rest@@ 28
robust 28
rup@@ 28
select 28
shocked 28
silver 28
slide 28
sor@@ 28
sponsored 28
striker 28
stuck 28
subsequent 28
sum@@ 28
sy@@ 28
symbol 28
syn@@ 28
tank 28
tears 28
theft 28
tier 28
tired 28
tourism 28
ud@@ 28
valued 28
wire 28
wise 28
yellow 28
ys@@ 28
1,9@@ 27
14th 27
1986 27
2,0@@ 27
20.@@ 27
23,@@ 27
25,000 27
40-@@ 27
6-2 27
Acc@@ 27
Amy 27
Anna 27
Arthur 27
Assistant 27
BA 27
BA@@ 27
Boo@@ 27
CD 27
Chancellor 27
Christopher 27
Click 27
Colts 27
Cook 27
Cubs 27
D.@@ 27
Denmark 27
Dra@@ 27
Ellen 27
Forces 27
Fourth 27
Hel@@ 27
Keith 27
Kel@@ 27
Ker@@ 27
Kerry 27
Kids 27
MS 27
Mahmoud 27
Mak@@ 27
McDonald 27
Me 27
Mountain 27
Nothing 27
Orange 27
Over@@ 27
PRNewswire-USNewswire 27
Parents 27
Por@@ 27
RBI 27
Reed 27
Resources 27
SAN 27
Sen@@ 27
Ti@@ 27
Tor@@ 27
Vatican 27
Vladimir 27
Win@@ 27
Wy@@ 27
adjusted 27
afraid 27
ambitious 27
amp@@ 27
ams 27
ances 27
astronaut 27
at-@@ 27
attitude 27
bet 27
borders 27
brilliant 27
brook 27
cel@@ 27
citizenship 27
clinic 27
clock 27
collaboration 27
colleges 27
colon@@ 27
compound 27
containing 27
contribution 27
convoy 27
counsel 27
counting 27
credibility 27
crossing 27
crunch 27
decreased 27
defender 27
dia 27
dian 27
diesel 27
disorder 27
disp@@ 27
downs 27
drawing 27
dro@@ 27
dropping 27
eager 27
eg@@ 27
ei@@ 27
enables 27
endorsed 27
ene 27
enormous 27
entering 27
ero@@ 27
ex-@@ 27
examine 27
exclusive 27
existence 27
expanded 27
experiences 27
export 27
fair@@ 27
fate 27
ffed 27
fishing 27
five-year 27
foot-@@ 27
fortune 27
fy 27
gather 27
guarantees 27
hate 27
ima 27
improvements 27
inch 27
interception 27
interrogation 27
introduce 27
invested 27
ito 27
laid 27
landscape 27
le-@@ 27
mal@@ 27
manner 27
menu 27
midnight 27
my@@ 27
oral 27
pain@@ 27
ping 27
play@@ 27
pledge 27
posts 27
powered 27
preventing 27
pro 27
pro-democracy 27
proper 27
providers 27
punishment 27
quarterly 27
rac@@ 27
regulators 27
rely 27
residence 27
restructuring 27
retain 27
retire 27
reverse 27
road@@ 27
sharply 27
sheriff 27
shootings 27
short-term 27
situations 27
slight 27
smile 27
soci@@ 27
southeast 27
sparked 27
spotted 27
stem 27
stic 27
strained 27
strange 27
strategies 27
submitted 27
suggesting 27
sy 27
teenage 27
tel@@ 27
temperature 27
third-quarter 27
thousand 27
tion-@@ 27
tle 27
tougher 27
tower 27
traveled 27
triggered 27
troubles 27
ura 27
urge 27
vin@@ 27
wal@@ 27
wanting 27
warnings 27
warrant 27
-B@@ 26
1.3 26
12,000 26
130 26
1984 26
22,@@ 26
22@@ 26
50-@@ 26
54@@ 26
7,000 26
93 26
AC 26
Airways 26
Ash@@ 26
Aung 26
Bad@@ 26
Blake 26
Brad 26
Brothers 26
Cam@@ 26
Capitol 26
Capt. 26
Constitution 26
Countrywide 26
Cuban 26
Dave 26
Den@@ 26
Djokovic 26
Dodd 26
Dur@@ 26
E.@@ 26
Earnings 26
Ehud 26
Electric 26
Er@@ 26
Film 26
Forum 26
Fre@@ 26
Gran@@ 26
Hol@@ 26
I. 26
Industry 26
Intelligence 26
Jesus 26
Josh 26
Kal@@ 26
Land 26
Lev@@ 26
Look 26
Lower 26
MS@@ 26
Met 26
Mobile 26
Moon 26
Murphy 26
NL 26
Nigeria 26
None 26
O.J. 26
P. 26
PR 26
Phase 26
Phillies 26
Says 26
Sometimes 26
Source 26
Stuart 26
T.@@ 26
Thai 26
U.S.-@@ 26
UR@@ 26
Universal 26
VI@@ 26
Vis@@ 26
accessible 26
accord 26
adap@@ 26
addressed 26
adequate 26
adoption 26
ail 26
apping 26
appointment 26
arm@@ 26
array 26
asse@@ 26
assume 26
avoided 26
baseman 26
baum 26
beneath 26
big-@@ 26
briefing 26
brown 26
burden 26
buyer 26
carrier 26
carriers 26
checked 26
chers 26
circle 26
ck-@@ 26
closure 26
comparison 26
consensus 26
constant 26
cooking 26
counter 26
dale 26
debris 26
dem@@ 26
deployment 26
desert 26
diverse 26
dramatically 26
ds@@ 26
dust 26
economist 26
ected 26
ees 26
ement 26
ences 26
entitled 26
expecting 26
feelings 26
filing 26
flu 26
free-@@ 26
garden 26
gig@@ 26
greenhouse 26
guidance 26
handled 26
hel@@ 26
hero 26
honored 26
household 26
hundred 26
ideal 26
iles 26
ille 26
ills 26
indicate 26
interactive 26
ions 26
istic 26
ited 26
item 26
ization 26
jets 26
legacy 26
les@@ 26
listening 26
manufacturer 26
mel@@ 26
mes@@ 26
militia 26
nights 26
northeast 26
offerings 26
ous@@ 26
patrol 26
pitcher 26
pollution 26
procedures 26
productive 26
races 26
raises 26
reception 26
regulation 26
replied 26
ric 26
right-@@ 26
risky 26
rolled 26
sacrifice 26
seed 26
sheet 26
shifts 26
show@@ 26
silence 26
snap 26
somewhere 26
speaker 26
spra@@ 26
stat@@ 26
steel 26
string 26
suddenly 26
sugar 26
sustainable 26
taught 26
techniques 26
tender 26
thank 26
tips 26
totally 26
unlike 26
unveiled 26
ute 26
vali@@ 26
ven 26
violation 26
vor 26
willingness 26
1980 25
24-@@ 25
300,000 25
AN 25
AU@@ 25
Abe 25
Action 25
Agriculture 25
Air@@ 25
Att@@ 25
BAN@@ 25
BO@@ 25
Bangladesh 25
Bills 25
CA 25
CHICAGO 25
Casey 25
Cheney 25
Direc@@ 25
Environmental 25
FC 25
Fal@@ 25
Ferguson 25
Finance 25
Fisher 25
Fletcher 25
Fore@@ 25
Fortune 25
Fossett 25
Foster 25
Further 25
Green@@ 25
Gri@@ 25
Healthcare 25
Heart 25
Hum@@ 25
Hundreds 25
Hunter 25
Hur@@ 25
Insurance 25
Ir@@ 25
Key 25
Khal@@ 25
L.@@ 25
Lakers 25
Lane 25
Line 25
M.@@ 25
MP 25
Marines 25
Mau@@ 25
Milwaukee 25
N.J. 25
NT 25
Newcastle 25
Pan@@ 25
Pervez 25
Phillips 25
Price 25
Researchers 25
Revolution 25
Sau@@ 25
Switzerland 25
VA 25
Way 25
Wel@@ 25
Wells 25
Welsh 25
Wh@@ 25
Wood@@ 25
Yangon 25
abo@@ 25
acceptable 25
accurate 25
affair 25
aki 25
al-Qaeda 25
anned 25
ases 25
assassination 25
assess 25
atomic 25
attacking 25
automatically 25
bat@@ 25
battery 25
beans 25
black@@ 25
bor@@ 25
boxes 25
calm 25
cer@@ 25
chemicals 25
cleaning 25
coaching 25
cocaine 25
com 25
commonly 25
concept 25
conf@@ 25
consistent 25
consistently 25
consolidated 25
contemporary 25
context 25
conventional 25
convince 25
cope 25
crops 25
decent 25
delayed 25
demonstrators 25
difficulties 25
dioxide 25
discrimination 25
ear 25
electrical 25
elling 25
emerge 25
eri@@ 25
execution 25
exists 25
expenditures 25
explore 25
fan@@ 25
fast-@@ 25
fixed 25
fol@@ 25
form@@ 25
funeral 25
fur@@ 25
gallon 25
gged 25
guarantee 25
ham@@ 25
harsh 25
hearings 25
high-profile 25
highway 25
homeowners 25
households 25
i-@@ 25
implemented 25
incur@@ 25
indeed 25
ington 25
innovation 25
inquest 25
ins@@ 25
inspection 25
institution 25
involves 25
ison 25
itors 25
je@@ 25
ken 25
kins 25
kn@@ 25
kno@@ 25
latter 25
law@@ 25
loaded 25
lows 25
master@@ 25
meal 25
meals 25
mil@@ 25
missions 25
mom 25
mood 25
ni@@ 25
noticed 25
ona 25
operators 25
ordinary 25
ounce 25
painful 25
patent 25
payable 25
physicians 25
pper 25
premier 25
produces 25
promoted 25
provisions 25
pun@@ 25
pupils 25
purchases 25
quet 25
raw 25
re-election 25
recording 25
recovering 25
reluctant 25
rep@@ 25
replay 25
resistance 25
ron 25
roots 25
rum@@ 25
sells 25
shore 25
sle@@ 25
smart 25
snow@@ 25
soaring 25
squ@@ 25
surveillance 25
tal 25
teenager 25
thro@@ 25
tourists 25
tracking 25
tran@@ 25
transferred 25
two-run 25
tz 25
uts 25
villages 25
violations 25
vs 25
waited 25
xes 25
1,3@@ 24
1-1 24
18,@@ 24
19,@@ 24
1983 24
2-year-old 24
25.@@ 24
67@@ 24
AF@@ 24
Additional 24
Angels 24
Armed 24
Baker 24
Boeing 24
Book 24
Brandon 24
Chi@@ 24
Child 24
Circuit 24
Clemens 24
Colbert 24
Columbus 24
Congo 24
Contact 24
Czech 24
Deb@@ 24
Des@@ 24
Dou@@ 24
Duncan 24
Emergency 24
End 24
Everything 24
F. 24
Fr@@ 24
Fran@@ 24
Franklin 24
Freedom 24
Friends 24
Fukuda 24
Garden 24
Gol@@ 24
IN 24
Kate 24
Kenneth 24
Killed 24
Kno@@ 24
Lam@@ 24
Lou@@ 24
Ly@@ 24
MPs 24
Mand@@ 24
Military 24
Million 24
Mohammad 24
Mul@@ 24
Nashville 24
Nicole 24
Note 24
Omar 24
PC 24
Policy 24
Polish 24
Poor 24
Pu@@ 24
Rick 24
Roman 24
Ru@@ 24
Saf@@ 24
Sgt. 24
Southeast 24
Spector 24
Spitzer 24
Susan 24
Ta@@ 24
Tru@@ 24
UAW 24
Ur@@ 24
Venezuelan 24
Video 24
View 24
Vo@@ 24
Vol@@ 24
Wang 24
Whether 24
Woman 24
Yu@@ 24
achievement 24
achievements 24
acknowledge 24
addressing 24
advocacy 24
af 24
age@@ 24
alling 24
announcing 24
apped 24
aspects 24
ato 24
aus@@ 24
availability 24
babies 24
bat 24
bel@@ 24
beliefs 24
bets 24
bike 24
bombings 24
bottle 24
branch 24
burst 24
canceled 24
cautioned 24
chapter 24
choices 24
cing 24
click 24
colleague 24
complications 24
conducting 24
conservation 24
contacted 24
contender 24
conver@@ 24
copy 24
crazy 24
criteria 24
crossed 24
cru@@ 24
ct 24
dancing 24
dangers 24
dirty 24
dividend 24
divisions 24
don@@ 24
dreams 24
dressed 24
e.com 24
economies 24
eling 24
ello 24
employs 24
enemies 24
engineer 24
enhance 24
enn@@ 24
ented 24
ere 24
evacuated 24
excess 24
executed 24
expertise 24
explains 24
exploded 24
fame 24
fares 24
fast@@ 24
fence 24
finals 24
flexibility 24
foods 24
fro@@ 24
fruit 24
ft@@ 24
hol@@ 24
honest 24
ich@@ 24
ick@@ 24
inmates 24
inner 24
interior 24
intervention 24
itu@@ 24
ke@@ 24
lessly 24
lied 24
load 24
m-@@ 24
maintains 24
matching 24
mb@@ 24
medication 24
membership 24
mit@@ 24
momentum 24
mond 24
noon 24
occupied 24
olo@@ 24
optimistic 24
organisation 24
ought 24
pel 24
pets 24
pil@@ 24
premiere 24
pressures 24
provinces 24
pt 24
purposes 24
ques 24
red@@ 24
ree 24
reflecting 24
regarded 24
reiterated 24
representative 24
rescued 24
resume 24
safely 24
satisfied 24
sentencing 24
shirt 24
sible 24
singles 24
snow 24
sponsors 24
sport@@ 24
ste 24
stops 24
subscribers 24
subsidiaries 24
suburban 24
takeover 24
tea 24
teeth 24
temperatures 24
temporarily 24
terrible 24
thoughts 24
tom@@ 24
tone 24
tragic 24
treating 24
tribute 24
trusted 24
underground 24
val 24
vet@@ 24
viewing 24
violating 24
wan@@ 24
weakness 24
wheel 24
whis@@ 24
wildlife 24
yan 24
yl 24
yp@@ 24
ze@@ 24
zero 24
zz@@ 24
1.8 23
110 23
125 23
15,000 23
2,6@@ 23
25,@@ 23
2nd 23
6-3 23
75@@ 23
AI@@ 23
Abdul@@ 23
Almost 23
Bat@@ 23
Beckham 23
Belgium 23
Bernanke 23
Birmingham 23
Bobby 23
Border 23
Bow@@ 23
C-@@ 23
Call@@ 23
Camp 23
Caribbean 23
Chase 23
Cou@@ 23
Countries 23
Culture 23
Current 23
Davies 23
Dean 23
Develop@@ 23
Disease 23
Douglas 23
Dr@@ 23
El 23
Em@@ 23
Emirates 23
Express 23
Fair 23
Federation 23
GA 23
GB 23
GE 23
Haw@@ 23
Head 23
Index 23
Jane 23
Jews 23
Kuwait 23
LA 23
Limited 23
Lopez 23
Marc 23
Marie 23
McLaren 23
Nine 23
Nobody 23
OPEC 23
Officers 23
On@@ 23
Operation 23
PC@@ 23
Packers 23
Palm 23
Philippines 23
Pope 23
Prevention 23
Prices 23
Provi@@ 23
Reports 23
Rio 23
Rob@@ 23
Saakashvili 23
Sat@@ 23
Share 23
Shel@@ 23
Sm@@ 23
Speaker 23
Stone 23
Stop 23
Study 23
Sudanese 23
Sun@@ 23
Todd 23
Var@@ 23
Work 23
Writers 23
accusing 23
administrative 23
advised 23
affects 23
ager 23
alised 23
alist 23
anc@@ 23
ander 23
anticipate 23
apology 23
appealed 23
arrival 23
arriving 23
assumptions 23
attendance 23
aviation 23
ays 23
bacteria 23
battling 23
beauty 23
behaviour 23
benchmark 23
blo@@ 23
bloc 23
bonus 23
bottles 23
breathing 23
brush 23
business@@ 23
cab@@ 23
categories 23
cen@@ 23
ch-@@ 23
charging 23
cheaper 23
chip 23
chy 23
clashes 23
climb 23
column 23
compelling 23
completing 23
components 23
connections 23
considerable 23
contacts 23
courses 23
cousin 23
cycle 23
day@@ 23
dead@@ 23
declare 23
defined 23
designated 23
designs 23
desk 23
desperate 23
devastating 23
developer 23
disappearance 23
displayed 23
dist@@ 23
doping 23
download 23
dubbed 23
ena 23
engines 23
enterprise 23
essing 23
establishment 23
eth@@ 23
eve 23
exact 23
explanation 23
explo@@ 23
explosives 23
ez 23
factory 23
fantastic 23
felony 23
finger 23
flooding 23
forensic 23
fron@@ 23
fuels 23
genetic 23
gers 23
gn@@ 23
grants 23
grass 23
grave 23
gun@@ 23
han@@ 23
hard-@@ 23
heating 23
highlight 23
hur@@ 23
ica 23
ici@@ 23
illi@@ 23
implement 23
incentives 23
indicted 23
intends 23
inventories 23
ises 23
itt 23
jailed 23
journal 23
knife 23
landed 23
lesson 23
lethal 23
lig@@ 23
litigation 23
longest 23
loose 23
loyal 23
luck 23
martial 23
matched 23
meets 23
memorial 23
methods 23
mines 23
narrow 23
nu@@ 23
pa 23
packages 23
pepper 23
permits 23
pres@@ 23
prevented 23
principle 23
productivity 23
pursuit 23
ranking 23
rap@@ 23
remarkable 23
rental 23
restraint 23
rey 23
ris@@ 23
risen 23
rough 23
san@@ 23
schemes 23
scrutiny 23
sectarian 23
set@@ 23
shelters 23
shoppers 23
sin@@ 23
sized 23
slowdown 23
smooth 23
sophisticated 23
stand@@ 23
stor@@ 23
sty@@ 23
substance 23
suits 23
swept 23
tables 23
tactics 23
tal@@ 23
tan@@ 23
taste 23
teammates 23
the-@@ 23
threatening 23
thus 23
tic@@ 23
tourist 23
trac@@ 23
tta 23
unacceptable 23
unexpected 23
unfair 23
uniform 23
versus 23
vin 23
ware 23
wick 23
10-K 22
11th 22
16.@@ 22
2,5@@ 22
2.4 22
26-@@ 22
28-@@ 22
3,9@@ 22
6-4 22
63@@ 22
77@@ 22
Ali@@ 22
Alonso 22
Av@@ 22
BC 22
BP 22
Barclays 22
Berlin 22
Bet@@ 22
Blan@@ 22
Broad@@ 22
Carl 22
Charlotte 22
Col. 22
Commonwealth 22
Conservative 22
Costa 22
Critics 22
DI@@ 22
Dame 22
Death 22
Defence 22
Dev@@ 22
Dodgers 22
Down 22
EST 22
Erdogan 22
Eve 22
Experts 22
FG 22
FI@@ 22
FT@@ 22
Fac@@ 22
Finally 22
Fort 22
Gay 22
Gener@@ 22
Gmt 22
Gray 22
Greenspan 22
Highway 22
Hilton 22
Homeland 22
Housing 22
IBM 22
INC 22
Independent 22
Intel 22
Islamist 22
K. 22
Karachi 22
LL@@ 22
MM@@ 22
Madrid 22
Mark@@ 22
Marshall 22
Martinez 22
Mas@@ 22
Max 22
McG@@ 22
MySpace 22
Non-@@ 22
OF 22
Ol@@ 22
Osama 22
Oxford 22
Pelosi 22
Potter 22
Princess 22
Randolph 22
Rel@@ 22
Sand@@ 22
Silver 22
Solutions 22
Son@@ 22
Stern 22
Students 22
Ted 22
Test 22
Tiger 22
Unlike 22
Watson 22
Wireless 22
Yale 22
Years 22
You@@ 22
actively 22
aded 22
ading 22
adventure 22
ail@@ 22
aka 22
ala 22
alert 22
ales 22
alize 22
aming 22
ancient 22
anna 22
ared 22
arrangements 22
ased 22
atri@@ 22
attempting 22
author@@ 22
barred 22
bol@@ 22
breakthrough 22
broker 22
brutal 22
ce-@@ 22
ceiling 22
celebrating 22
cell@@ 22
certified 22
chaos 22
churches 22
classroom 22
comeback 22
commanders 22
compliance 22
conc@@ 22
constitutional 22
consultation 22
corporations 22
couples 22
dar@@ 22
declining 22
definition 22
delighted 22
der-@@ 22
destinations 22
discussing 22
dish 22
disputed 22
dominant 22
dy@@ 22
eBay 22
ecting 22
editorial 22
eliminate 22
embassy 22
encounter 22
eng@@ 22
err@@ 22
establishing 22
ethics 22
evaluation 22
exp@@ 22
fa@@ 22
fication 22
fiction 22
files 22
fir@@ 22
flu@@ 22
footage 22
fundraising 22
furniture 22
gang 22
government-@@ 22
grams 22
hall@@ 22
hang 22
hearts 22
hike 22
home@@ 22
house@@ 22
if@@ 22
ignored 22
illing 22
impression 22
infected 22
inging 22
intangible 22
ip@@ 22
isolated 22
itis 22
lake 22
lanes 22
lease 22
liability 22
lifetime 22
lovely 22
ls 22
nar@@ 22
negotiate 22
nine-@@ 22
obligations 22
ole 22
oms 22
ong@@ 22
opera 22
ose 22
outlets 22
parade 22
parks 22
personality 22
persuade 22
pin 22
pin@@ 22
ples 22
ports 22
praise 22
profitable 22
psychological 22
publishing 22
rant 22
ray 22
read@@ 22
recep@@ 22
red-@@ 22
reflects 22
refugee 22
regardless 22
releasing 22
renewed 22
repair 22
requested 22
requiring 22
ress 22
rested 22
restored 22
revised 22
revolution 22
routes 22
s. 22
salary 22
samples 22
sand 22
secured 22
ser@@ 22
shelves 22
shy 22
significance 22
slammed 22
sty 22
suggestion 22
sun@@ 22
supermarket 22
tag 22
ter-@@ 22
ti 22
tiger 22
tire 22
triple 22
tunnel 22
tured 22
tying 22
tz@@ 22
uncertain 22
uncovered 22
unity 22
unt 22
ush 22
vaccines 22
valid 22
ve-@@ 22
victories 22
visible 22
volunteer 22
welcomed 22
well-known 22
wer 22
worn 22
wounding 22
1,6@@ 21
10-Q 21
11@@ 21
12th 21
140 21
1993 21
212 21
25-@@ 21
3-2 21
4,0@@ 21
5,6@@ 21
60,000 21
8,9@@ 21
85@@ 21
Ag@@ 21
Ak@@ 21
Amortization 21
Arsenal 21
Aviation 21
BAGHDAD 21
Being 21
Belichick 21
Benjamin 21
Bil@@ 21
Bond 21
Boy 21
Braves 21
Byrd 21
Cape 21
Car 21
Century 21
Coalition 21
Cooper 21
Credit 21
Criminal 21
Data 21
Deferred 21
Der@@ 21
Dominican 21
Doug 21
ED 21
Ellis 21
Environment 21
Ethiopia 21
Exp@@ 21
Fame 21
Fashion 21
Few 21
Filed 21
GM@@ 21
Gam@@ 21
Goo@@ 21
Guantanamo 21
HI@@ 21
Halloween 21
Honda 21
Hor@@ 21
ID 21
IS 21
IV@@ 21
Jamie 21
Jay@@ 21
Jimmy 21
Ken@@ 21
Lak@@ 21
Luis 21
Mag@@ 21
Magic 21
Meet 21
Months 21
Mortgage 21
Mus@@ 21
N.C. 21
Nancy 21
Neither 21
Ni@@ 21
Official 21
Orlando 21
Peru 21
Ph.D. 21
Pr@@ 21
Pres@@ 21
Pun@@ 21
Ran@@ 21
Randy 21
Records 21
Results 21
Ret@@ 21
SA@@ 21
Schwarzenegger 21
Sciences 21
Shin@@ 21
Sierra 21
Stein 21
Stevens 21
Storm 21
Swedish 21
Tan@@ 21
Tax 21
Test@@ 21
Tim@@ 21
Tower 21
U.@@ 21
U.S.-led 21
Very 21
Wallace 21
Webb 21
Yemen 21
accidents 21
ache 21
aches 21
ad-@@ 21
adjustments 21
ags 21
airports 21
akes 21
aling 21
ancy 21
answered 21
anxiety 21
app@@ 21
architecture 21
ard@@ 21
articles 21
attributed 21
audi@@ 21
authors 21
avi@@ 21
balances 21
ball@@ 21
barriers 21
belt 21
bly 21
borough 21
bounced 21
brokers 21
bud@@ 21
bunch 21
cal 21
carefully 21
centuries 21
cep@@ 21
chart 21
charter 21
chat 21
cher@@ 21
chester 21
cle@@ 21
collabor@@ 21
conscious 21
consideration 21
convenient 21
correspondent 21
cream 21
creates 21
crushed 21
dealt 21
default 21
deliberately 21
demonstration 21
dependent 21
dered 21
describing 21
destroy 21
developers 21
devoted 21
diplomacy 21
disab@@ 21
disabled 21
disputes 21
districts 21
dog@@ 21
donate 21
donors 21
dor@@ 21
economics 21
educated 21
ek@@ 21
electoral 21
element 21
emp@@ 21
endorsement 21
ential 21
ept 21
experiment 21
expire 21
express 21
extremism 21
factories 21
fal@@ 21
favorable 21
favour 21
feared 21
fierce 21
fingers 21
foul 21
full-time 21
gear 21
gender 21
gle 21
golden 21
grab 21
ground@@ 21
han 21
headlines 21
heart@@ 21
height 21
hi 21
hide 21
hiding 21
hood 21
hr@@ 21
hung 21
ide@@ 21
ier@@ 21
illegally 21
imagine 21
instant 21
instructions 21
int 21
integration 21
itz@@ 21
ji 21
joy 21
jumping 21
junior 21
kinds 21
kov@@ 21
landing 21
lane 21
legally 21
licensing 21
lining 21
lobby 21
mall 21
marched 21
marijuana 21
mature 21
memo 21
meters 21
mi@@ 21
missiles 21
mo 21
mothers 21
mou@@ 21
n-@@ 21
nurse 21
nurses 21
oma 21
openly 21
oper@@ 21
oppose 21
ort 21
ough 21
outdoor 21
paintings 21
participation 21
passion 21
ped 21
perspective 21
petrol 21
photograph 21
plo@@ 21
pornography 21
printed 21
probation 21
projections 21
promotion 21
quake 21
radi@@ 21
ratio 21
regulated 21
relevant 21
reliance 21
repeat 21
respected 21
reveal 21
reviewed 21
riders 21
ring@@ 21
ron@@ 21
roof 21
screens 21
sec@@ 21
seeks 21
seemingly 21
sequ@@ 21
seven-@@ 21
shoes 21
short-@@ 21
sie 21
signals 21
sky@@ 21
stakes 21
stamp 21
steering 21
stomach 21
stranded 21
studying 21
substantially 21
sudden 21
super-@@ 21
surprisingly 21
surveyed 21
survivors 21
suspend 21
suspicious 21
tail@@ 21
tanks 21
thick 21
tin 21
tin@@ 21
titled 21
tively 21
top@@ 21
topic 21
transit 21
trapped 21
tremendous 21
tures 21
und 21
undermine 21
ures 21
utes 21
venue 21
vo 21
vol@@ 21
voluntary 21
voter 21
wa 21
wage 21
warrants 21
withdraw 21
wore 21
year-old 21
yl@@ 21
zation 21
zo@@ 21
.co.uk 20
06 20
1,8@@ 20
1- 20
10-year 20
10th 20
17.@@ 20
17th 20
1970 20
1987 20
199@@ 20
19th 20
2.6 20
20s 20
350 20
360 20
4-3 20
76@@ 20
AA 20
Aberdeen 20
Age 20
Ah@@ 20
Announces 20
Austin 20
BEIJING 20
Bailey 20
Baseball 20
Bear 20
Bennett 20
Brun@@ 20
CD@@ 20
CR@@ 20
Card 20
Class 20
Classic 20
Cle@@ 20
Climate 20
Cohen 20
Coll@@ 20
Commercial 20
Communist 20
Companies 20
Construction 20
Cooperation 20
Corporate 20
DA 20
DC 20
Dead 20
Des 20
Detective 20
Did 20
Diluted 20
Dor@@ 20
East@@ 20
Equity 20
Everett 20
Everybody 20
FA 20
FedEx 20
Fer@@ 20
Fiscal 20
Fol@@ 20
Foods 20
GE@@ 20
Greece 20
Hezbollah 20
How@@ 20
I-@@ 20
Indeed 20
Investor 20
Islands 20
J.@@ 20
Jay 20
Jesse 20
Juan 20
Julie 20
Kid 20
Kingdom 20
Kurdistan 20
Kurds 20
LIN@@ 20
Libya 20
Lincoln 20
Loss 20
Mac 20
Masters 20
Member 20
Memorial 20
Memphis 20
Met@@ 20
Mideast 20
Morning 20
Morris 20
Myers 20
Nebraska 20
Neigh@@ 20
Nokia 20
Nuclear 20
Number 20
Ottawa 20
PPP 20
PR@@ 20
Padres 20
Page 20
Palace 20
Pap@@ 20
Pictures 20
Pin@@ 20
Point 20
Power@@ 20
Pris@@ 20
Province 20
Pyongyang 20
Read 20
Res@@ 20
Retail 20
Return 20
Rivera 20
Sachs 20
Sanchez 20
Scientists 20
Seoul 20
Small 20
Student 20
Support 20
Survi@@ 20
The@@ 20
Together 20
Tom@@ 20
Tory 20
Tribune 20
Use 20
Using 20
Village 20
Walker 20
Walters 20
Wat@@ 20
Wild 20
Windows 20
Wood 20
Worldwide 20
activist 20
adi@@ 20
admit 20
adopt 20
adverse 20
advisers 20
aggressively 20
ago@@ 20
ails 20
al-Sadr 20
alarm 20
amed 20
appearing 20
ashed 20
assured 20
awaiting 20
awful 20
aying 20
bal 20
battles 20
ben@@ 20
berry 20
bio@@ 20
blacks 20
blaze 20
blogs 20
boyfriend 20
broadband 20
burg 20
businessman 20
butter 20
careful 20
caution 20
championships 20
chi 20
chips 20
cia 20
circum@@ 20
climbed 20
collision 20
compare 20
complain 20
component 20
confrontation 20
confused 20
considers 20
contenders 20
converted 20
counted 20
credits 20
criminals 20
ction 20
cut@@ 20
dat@@ 20
declines 20
deemed 20
defendant 20
dering 20
devastated 20
diplomat 20
direc@@ 20
directions 20
disclosed 20
doc@@ 20
downturn 20
dre@@ 20
drug-@@ 20
eck 20
eless 20
embrace 20
ender 20
enko 20
enrolled 20
episodes 20
errors 20
erupted 20
ethical 20
examined 20
exchanges 20
excuse 20
expired 20
explaining 20
expression 20
fails 20
farming 20
fault 20
fe 20
fel@@ 20
fla@@ 20
floating 20
flood 20
focuses 20
front-@@ 20
fying 20
gam@@ 20
gases 20
gene 20
genocide 20
gging 20
ghs 20
heated 20
home-@@ 20
honors 20
hypo@@ 20
ification 20
ignore 20
ila 20
illa 20
ining 20
inspector 20
installed 20
insurgent 20
iron 20
isation 20
islands 20
ite@@ 20
joins 20
kl@@ 20
labels 20
lan 20
lan@@ 20
landmark 20
languages 20
lay@@ 20
lers 20
letting 20
lic 20
loc@@ 20
loves 20
lung 20
ly@@ 20
marine 20
marketplace 20
measured 20
mere 20
militias 20
miners 20
mit 20
motivated 20
mountains 20
murders 20
mystery 20
na@@ 20
notified 20
notion 20
offshore 20
ols 20
one-day 20
ori@@ 20
ou 20
ours 20
overs 20
participated 20
passage 20
patterns 20
petition 20
pick@@ 20
picking 20
pilots 20
pitching 20
pivotal 20
planted 20
portrait 20
ppy 20
presents 20
proprietary 20
prospects 20
qualifying 20
quest 20
raced 20
ram@@ 20
rank 20
rat@@ 20
recommend 20
references 20
referendum 20
refusing 20
regret 20
rell 20
remembered 20
resolved 20
reversed 20
ripped 20
rit@@ 20
rolls 20
rs 20
runway 20
scenario 20
sealed 20
sectors 20
self 20
sexually 20
shifting 20
ship@@ 20
shire 20
short@@ 20
sil@@ 20
simul@@ 20
sizes 20
slides 20
slo@@ 20
soil 20
spar@@ 20
staged 20
steadily 20
steep 20
stopping 20
stunning 20
subsidies 20
suppliers 20
tale 20
talented 20
tap@@ 20
taxi 20
televised 20
tened 20
thir@@ 20
throws 20
tissue 20
tolerance 20
tonnes 20
ture 20
ulate 20
ulation 20
umb@@ 20
universe 20
val@@ 20
vel 20
vely 20
vest 20
visual 20
void 20
volatility 20
wary 20
weaken 20
wel@@ 20
welfare 20
wers 20
wheat 20
white-@@ 20
wn 20
woods 20
y.com 20
'Neal 19
00-@@ 19
08@@ 19
1-year-old 19
19-@@ 19
1974 19
2,8@@ 19
23-year-old 19
4.8 19
5,0@@ 19
59@@ 19
Aid 19
Amsterdam 19
Ankara 19
App@@ 19
Barbara 19
Besides 19
Brazilian 19
Bristol 19
Brown@@ 19
Buck@@ 19
Buddhist 19
CE 19
Challenge 19
Chil@@ 19
Christians 19
Clo@@ 19
Cold 19
Consumers 19
Crime 19
DA@@ 19
DO@@ 19
DR@@ 19
DVDs 19
Dam@@ 19
Die@@ 19
Direct 19
Disc@@ 19
Dixon 19
Dolphins 19
Dom@@ 19
E-@@ 19
EBITDA 19
Ear@@ 19
Earth@@ 19
Empire 19
Enterprise 19
Eri@@ 19
FOR@@ 19
Favre 19
Feb. 19
Fri@@ 19
Fro@@ 19
Ful@@ 19
Future 19
Ga@@ 19
Gas@@ 19
Greater 19
Heathrow 19
Help 19
Hin@@ 19
Hindu 19
Hon@@ 19
IM@@ 19
ITY 19
Institution 19
Iranians 19
Israelis 19
Jean 19
Jeffs 19
Jena 19
Jer@@ 19
Karen 19
Kazakhstan 19
Ken 19
Khalifa 19
Kills 19
Kim@@ 19
Kremlin 19
Kyoto 19
Le 19
Lead 19
Li 19
Liberty 19
Lilly 19
MSNBC.com 19
Maj. 19
Maliki 19
Marbury 19
McClaren 19
Mercantile 19
Mills 19
Montreal 19
NA 19
NY@@ 19
Never 19
O. 19
Off@@ 19
Ok@@ 19
Order 19
Os@@ 19
PGA 19
Pac@@ 19
Pat 19
Plan@@ 19
Portland 19
Powell 19
Rat@@ 19
Region 19
Rescue 19
Rob 19
Rome 19
SAP 19
SE 19
Salt 19
Samuel 19
Sarah 19
Serbia 19
Side 19
Singh 19
Soon 19
Spe@@ 19
Steelers 19
Steinbrenner 19
Superior 19
TA 19
TC 19
TO 19
Tab@@ 19
Victoria 19
Vie@@ 19
Voters 19
Within 19
a-based 19
ables 19
ack@@ 19
acquire 19
acre 19
admits 19
affecting 19
ag 19
ali 19
alike 19
all-time 19
alled 19
alties 19
amp 19
angle 19
antly 19
ao 19
appealing 19
arch@@ 19
ari@@ 19
ashing 19
aters 19
bers 19
blew 19
blind 19
blown 19
boundaries 19
bour@@ 19
bowl 19
breach 19
briefed 19
cabinet 19
calendar 19
cattle 19
caucus 19
chairs 19
chef 19
chocolate 19
choosing 19
cian 19
cies 19
coastal 19
collecting 19
collective 19
collectors 19
committing 19
commodities 19
conclusions 19
confi@@ 19
conversion 19
copies 19
councils 19
credited 19
cricket 19
cross-@@ 19
de-@@ 19
dealer 19
deeper 19
dental 19
depends 19
dou@@ 19
doubles 19
drill 19
drunk 19
dynamic 19
ef 19
ef@@ 19
eight-@@ 19
elli 19
engineers 19
enhanced 19
equipped 19
eur 19
exploring 19
faction 19
fined 19
fines 19
fitness 19
floods 19
flowers 19
folks 19
foreclosure 19
foreclosures 19
forever 19
fourth-@@ 19
frequent 19
friendship 19
fts 19
gaming 19
ge-@@ 19
glad 19
grateful 19
gray 19
gunman 19
gy 19
headline 19
homeland 19
iTunes 19
il-@@ 19
immunity 19
inevitable 19
insist 19
institutional 19
integrity 19
intensive 19
investigated 19
irs 19
itz 19
ju@@ 19
judiciary 19
kan@@ 19
kil@@ 19
ko@@ 19
lady 19
lap@@ 19
laugh 19
left-@@ 19
library 19
liquid 19
listing 19
lowed 19
lowered 19
maneu@@ 19
mates 19
medium 19
memories 19
mes 19
midst 19
mon 19
negotiating 19
nik 19
noise 19
nose 19
nursing 19
object 19
occasions 19
ok@@ 19
oner 19
orbit 19
over-@@ 19
owed 19
pact 19
pays 19
perceived 19
perfectly 19
ph 19
pit 19
plain 19
pol@@ 19
polling 19
posting 19
prefer 19
preferred 19
pregnancy 19
prestigious 19
proceed 19
prolonged 19
pronounced 19
prosperity 19
pu@@ 19
pump 19
pursuing 19
rallies 19
rapid 19
rarely 19
receives 19
reductions 19
refinery 19
refusal 19
rehabilitation 19
remind 19
requirement 19
resource 19
rid 19
rounded 19
routinely 19
salaries 19
sample 19
scared 19
scra@@ 19
script 19
sect 19
sends 19
shall 19
shaped 19
shareholder 19
sheets 19
shipped 19
sided 19
sleeping 19
smo@@ 19
soccer 19
sole 19
som@@ 19
somehow 19
son@@ 19
sorry 19
sounded 19
spaces 19
spare 19
spe@@ 19
speaks 19
specialists 19
sporting 19
stages 19
stays 19
stemming 19
stockholders 19
ston 19
stre@@ 19
strip 19
subway 19
sum 19
supplier 19
swing 19
tab@@ 19
tends 19
tenure 19
testify 19
tically 19
timely 19
tion@@ 19
tobacco 19
two-year 19
ty@@ 19
unidentified 19
vable 19
vanished 19
vent@@ 19
vic 19
violate 19
voc@@ 19
watchdog 19
wed 19
witnessed 19
wrapped 19
zi@@ 19
zy 19
# 18
0-1 18
106 18
19-year-old 18
1976 18
2.2 18
2.7 18
22-@@ 18
250,000 18
260 18
27-@@ 18
30,@@ 18
38-@@ 18
3rd 18
4,5@@ 18
40,000 18
5,7@@ 18
5,9@@ 18
5.5 18
650 18
84@@ 18
AE@@ 18
AP@@ 18
AS 18
Access 18
Al-Qaeda 18
Anti@@ 18
Arnold 18
B.@@ 18
Bad 18
Bangkok 18
Banks 18
Baptist 18
Bears 18
Bell@@ 18
Bes@@ 18
Blo@@ 18
Blues 18
Burmese 18
Butler 18
CC 18
CC@@ 18
CO2 18
Cabrera 18
Chiefs 18
Cli@@ 18
Close 18
Cole 18
Common 18
Consolidated 18
Could 18
Crawford 18
Currently 18
Curtis 18
Dana 18
Danny 18
Date 18
Davenport 18
Davydenko 18
Democracy 18
Digital 18
Doctors 18
Does 18
ES 18
Ed 18
Electronics 18
Ethiopian 18
FEMA 18
FOXNews.com 18
Fel@@ 18
Fitzgerald 18
Gas 18
Georgetown 18
Gold@@ 18
Got@@ 18
Guild 18
Haiti 18
Has@@ 18
Hay@@ 18
Hen@@ 18
Hills 18
History 18
Hopkins 18
IP 18
Ibrahim 18
Il@@ 18
Indianapolis 18
Inf@@ 18
Insight 18
Ja@@ 18
Jeffrey 18
Jeremy 18
Johnny 18
Joint 18
Karzai 18
Kor@@ 18
Kro@@ 18
Ky@@ 18
Lag@@ 18
Laura 18
Lions 18
Litigation 18
Lost 18
Luci@@ 18
MI@@ 18
Mack@@ 18
Main 18
Mason 18
McCartney 18
Medicaid 18
Medicare 18
Mo 18
Mohamed 18
Motors 18
N.F.L. 18
NHL 18
Networks 18
Nu@@ 18
Ow@@ 18
PBS 18
Past 18
Perry 18
Pete 18
Pla@@ 18
Please 18
Quinn 18
Rain@@ 18
Ramadan 18
Regional 18
Reporting 18
Robertson 18
Sam@@ 18
Schools 18
Sco@@ 18
Sec@@ 18
Sel@@ 18
Shawn 18
Six@@ 18
Stat@@ 18
Summit 18
Sunnis 18
TR@@ 18
Tel 18
Than 18
Up@@ 18
Victory 18
Wade 18
Ward 18
Web@@ 18
Whatever 18
Wildlife 18
Xbox 18
Yan@@ 18
Yesterday 18
abe 18
accordance 18
acquitted 18
admir@@ 18
advisory 18
ahan 18
alleging 18
ami 18
anchor 18
anti-S@@ 18
approaching 18
arian 18
asks 18
assigned 18
associates 18
attached 18
averaged 18
bats 18
bears 18
betting 18
bilateral 18
blin@@ 18
blu@@ 18
bo 18
borne 18
bullet 18
cade 18
calories 18
candidacy 18
caucuses 18
cc@@ 18
celebration 18
centres 18
cheese 18
clearing 18
clin@@ 18
comm@@ 18
commented 18
companion 18
concentrate 18
concentrated 18
concerning 18
confidential 18
confusion 18
consortium 18
continuous 18
cook 18
cotton 18
counterparts 18
counties 18
courage 18
courthouse 18
crack 18
cup 18
currencies 18
cy@@ 18
dam 18
damages 18
decor@@ 18
deduc@@ 18
delivers 18
deposit 18
designers 18
dev@@ 18
dig@@ 18
dining 18
disc@@ 18
discipline 18
diversity 18
double-digit 18
drops 18
duties 18
educate 18
el-@@ 18
eled 18
elle 18
embarrassing 18
embraced 18
eng 18
enrichment 18
ep 18
essi@@ 18
evangelical 18
exam 18
excluding 18
exclusively 18
exploration 18
factions 18
feeding 18
firmly 18
fishermen 18
flee 18
flexible 18
flooded 18
forecasts 18
foreigners 18
format 18
formation 18
formerly 18
formula 18
fourth-quarter 18
gaining 18
gallery 18
gan@@ 18
gangs 18
gri@@ 18
hair@@ 18
headquartered 18
hell 18
higher-@@ 18
hometown 18
hopeful 18
hormone 18
hostages 18
hostile 18
ian@@ 18
ic-@@ 18
import 18
incomes 18
ind 18
indicators 18
infant 18
intention 18
invitation 18
ising 18
ity@@ 18
ja 18
jacket 18
jazz 18
juvenile 18
kin@@ 18
legitimate 18
liber@@ 18
lo 18
lob@@ 18
loses 18
low-income 18
lucrative 18
mag@@ 18
magazines 18
maintaining 18
mandatory 18
meaningful 18
medal 18
medals 18
memorabilia 18
ment@@ 18
mi 18
mice 18
midfielder 18
midway 18
mini-@@ 18
monitored 18
motor@@ 18
mounting 18
mud 18
naked 18
navy 18
negotiated 18
negotiators 18
nominated 18
nominees 18
notably 18
nowhere 18
ons@@ 18
ood 18
optimism 18
organizers 18
overtime 18
overwhelming 18
ows 18
p-@@ 18
pants 18
part@@ 18
partnerships 18
path@@ 18
peacekeeping 18
per-@@ 18
permit 18
permitted 18
phenomenon 18
photographers 18
physically 18
physician 18
placebo 18
plates 18
ple@@ 18
poised 18
pot 18
prayers 18
precious 18
predecessor 18
predominantly 18
preseason 18
pride 18
priorities 18
privately 18
prompting 18
pub 18
quar@@ 18
quick@@ 18
radical 18
railway 18
ral 18
registration 18
reliable 18
resistant 18
respective 18
respondents 18
restricted 18
retro@@ 18
ridiculous 18
rises 18
roster 18
royal 18
run@@ 18
runners 18
sake 18
scal@@ 18
searched 18
sely 18
sexy 18
sheep 18
sheer 18
shei@@ 18
shor@@ 18
shut@@ 18
sideline 18
similarly 18
sits 18
skilled 18
slated 18
slowed 18
sorts 18
specialty 18
spotlight 18
sprin@@ 18
stabbed 18
steroids 18
sticks 18
strategist 18
strom 18
strongest 18
stu@@ 18
subjects 18
submit 18
sweep 18
symbolic 18
tan 18
teach 18
technological 18
test@@ 18
thor@@ 18
thr@@ 18
tical 18
tional 18
tip 18
tones 18
toxic 18
tracked 18
transmission 18
tribe 18
tti 18
turbulent 18
unbeaten 18
unchanged 18
unding 18
unusually 18
upgrade 18
upper 18
urging 18
utilities 18
vac@@ 18
vary 18
varying 18
veness 18
volumes 18
wash 18
waves 18
wet 18
worthy 18
youths 18
zag@@ 18
zo 18
½ 18
101 17
103 17
13th 17
15th 17
160 17
18.@@ 17
2,500 17
2,9@@ 17
2.3 17
2011 17
210 17
26,@@ 17
27.@@ 17
28.@@ 17
3,6@@ 17
3.5 17
31-@@ 17
33@@ 17
4-1 17
57@@ 17
73@@ 17
Abdul 17
Alfred 17
Andre 17
Ann@@ 17
Anti-@@ 17
Arctic 17
Auto 17
Bar 17
Barcelona 17
Base 17
Basic 17
Bernard 17
Better 17
Bird 17
Bol@@ 17
Cambridge 17
Cent@@ 17
Chertoff 17
Colin 17
Convention 17
DS 17
Dakota 17
Dist@@ 17
ERA 17
F-@@ 17
F.@@ 17
Fidel 17
Funds 17
GPS 17
Girl 17
Gl@@ 17
Gonzalez 17
Goodell 17
Ground 17
Hank 17
Hill@@ 17
Holliday 17
Holmes 17
Holy 17
Hop@@ 17
Hope 17
Hy@@ 17
IV 17
Into 17
Jacksonville 17
Jam@@ 17
John@@ 17
Julia 17
Kabul 17
Ki-moon 17
Kil@@ 17
Lady 17
Late 17
Levin 17
Louisville 17
MON@@ 17
MRSA 17
Mach@@ 17
Mae 17
Make 17
Mattel 17
McCarthy 17
McConnell 17
Med@@ 17
Metro 17
Metropolitan 17
Michelle 17
Mickelson 17
Miles 17
Millions 17
Missing 17
Moh@@ 17
Montana 17
Movement 17
Movie 17
Mun@@ 17
NS@@ 17
Na@@ 17
News@@ 17
Nielsen 17
Oakland 17
Obviously 17
Oliver 17
Overall 17
PA 17
Panthers 17
Paulson 17
Per 17
Petro@@ 17
Plus 17
Port 17
Pos@@ 17
Put 17
Raf@@ 17
Rashid 17
Rein@@ 17
Rhode 17
Roddick 17
Rogers 17
Romo 17
Ronald 17
Rudolph 17
Running 17
SUBSIDIARIES 17
Sabathia 17
Sanders 17
Schilling 17
Secret 17
Should 17
Sin@@ 17
Sky 17
Smart 17
Sor@@ 17
Stanford 17
Starbucks 17
Statement 17
Stor@@ 17
Strategic 17
Strip 17
Studies 17
Sy@@ 17
Trading 17
Tro@@ 17
Try 17
UT@@ 17
V. 17
VE@@ 17
Val@@ 17
Vill@@ 17
Visit 17
Wilkinson 17
Willie 17
Z 17
Zimbabwe 17
abol@@ 17
accepting 17
accounted 17
addresses 17
affiliate 17
agriculture 17
ains 17
alternatives 17
ambitions 17
ammunition 17
ancement 17
animated 17
appointments 17
approaches 17
ares 17
art@@ 17
asing 17
asser@@ 17
assessed 17
assumed 17
ater@@ 17
aths 17
automakers 17
aw 17
bach 17
bag@@ 17
bal@@ 17
ballot 17
barrier 17
bathroom 17
beck 17
bes 17
bes@@ 17
bidding 17
billion-dollar 17
binding 17
bishops 17
bloody 17
bombers 17
bon 17
bonuses 17
bread 17
broad@@ 17
brow@@ 17
campaigning 17
cancers 17
capped 17
cardi@@ 17
cathedral 17
cautious 17
cav@@ 17
cer 17
checking 17
clinics 17
combine 17
communist 17
compan@@ 17
contend 17
contention 17
contra@@ 17
coroner 17
cou@@ 17
coun@@ 17
courtroom 17
credentials 17
cross-border 17
dealers 17
deck 17
demonstrate 17
demonstrated 17
depth 17
determination 17
dial 17
disability 17
discount 17
distr@@ 17
draw@@ 17
dru@@ 17
ech@@ 17
ects 17
ela 17
elegant 17
eliminated 17
ells 17
eman 17
eness 17
enrollment 17
enter@@ 17
et-@@ 17
ev 17
evaluate 17
exception 17
excessive 17
explosive 17
faculty 17
favourite 17
fer 17
ffer 17
figured 17
firearms 17
flows 17
follow-up 17
foster 17
fragile 17
fresh@@ 17
front-runner 17
frustration 17
functioning 17
generous 17
gest@@ 17
gle@@ 17
globe 17
gol@@ 17
governmental 17
greatly 17
gues 17
gunfire 17
helpful 17
hip 17
holidays 17
hostage 17
ico 17
idity 17
ign@@ 17
ility 17
illo 17
immun@@ 17
implementation 17
implications 17
imposing 17
inations 17
incentive 17
influenced 17
ingham 17
inson 17
intercepted 17
internationally 17
interrupted 17
inventory 17
ion@@ 17
itor 17
jokes 17
justify 17
kicks 17
late-@@ 17
leap 17
lengthy 17
licensed 17
lighting 17
lobbying 17
lobbyists 17
locker 17
ly-@@ 17
mad 17
manslaughter 17
marsh@@ 17
may@@ 17
meantime 17
mers 17
mess 17
meter 17
mig@@ 17
minorities 17
moder@@ 17
month-old 17
motiv@@ 17
motorcycle 17
mp@@ 17
muscle 17
naturally 17
negotiator 17
nic@@ 17
north-@@ 17
obesity 17
objectives 17
obstacles 17
one-third 17
one@@ 17
open-@@ 17
opposes 17
ordin@@ 17
organize 17
origin 17
orium 17
oud 17
oversees 17
panels 17
panic 17
partial 17
pass@@ 17
perception 17
persons 17
pest@@ 17
phrase 17
pipe 17
placement 17
plat@@ 17
pled 17
poly@@ 17
pos@@ 17
pra@@ 17
precise 17
processes 17
programmes 17
prone 17
provoked 17
publication 17
pul@@ 17
qui@@ 17
reader 17
rebuilding 17
recommends 17
rein@@ 17
representation 17
researcher 17
restrict 17
retained 17
retirees 17
reveals 17
reviewing 17
reviews 17
ried 17
rode 17
rumors 17
ry@@ 17
salt 17
se-@@ 17
seal 17
sections 17
seller 17
semi-final 17
seniors 17
severely 17
sey 17
shifted 17
shipments 17
sisters 17
sley 17
slowing 17
sovereignty 17
spac@@ 17
speakers 17
spectacular 17
spill 17
spo@@ 17
sponsor 17
spray 17
squeeze 17
stall 17
starring 17
sten@@ 17
sticking 17
structures 17
studios 17
sup@@ 17
supplied 17
surfaced 17
suspicions 17
sweeping 17
switch 17
switched 17
tac@@ 17
tackling 17
tail 17
tations 17
teammate 17
technique 17
tel 17
tes 17
theaters 17
thers 17
third-party 17
thrilled 17
tide 17
tives 17
tournaments 17
traditionally 17
trailed 17
trailer 17
transformation 17
trigger 17
tt@@ 17
tted 17
turnaround 17
uk 17
una 17
ung@@ 17
unhappy 17
unpopular 17
urgency 17
uss@@ 17
ust 17
vacation 17
vague 17
var@@ 17
vers@@ 17
viable 17
villagers 17
vio 17
vir@@ 17
voy 17
wages 17
walk@@ 17
warns 17
wisdom 17
withdrawn 17
yah 17
'Donnell 16
-in 16
0-0 16
1-2 16
100-@@ 16
100@@ 16
129 16
190 16
1969 16
1982 16
1985 16
2,3@@ 16
2,7@@ 16
2.8 16
21st 16
220 16
23-@@ 16
24.@@ 16
3,7@@ 16
32@@ 16
4,8@@ 16
45-@@ 16
56@@ 16
7.5 16
87@@ 16
95@@ 16
AG 16
Adjusted 16
Again 16
Airbus 16
All-Star 16
Animal 16
Anyone 16
Asia-Pacific 16
Been 16
Big@@ 16
Bir@@ 16
Bishop 16
Borders 16
Brewers 16
Browne 16
CO 16
CS 16
Cab@@ 16
Cardiff 16
Coming 16
Command 16
Commander 16
Comple@@ 16
Conn 16
Crash 16
Cruise 16
Cu@@ 16
Damon 16
Darling 16
Darren 16
Delhi 16
Design 16
Distri@@ 16
Diyala 16
Dozens 16
Dun@@ 16
Dylan 16
ES@@ 16
Eight 16
Euro@@ 16
Excluding 16
FO@@ 16
FOX 16
Fayed 16
Felix 16
Fen@@ 16
Firefighters 16
Focus 16
Formula 16
G.@@ 16
Gaz@@ 16
Gibson 16
Greek 16
Guy 16
Harman 16
Harmon@@ 16
Hash@@ 16
Head@@ 16
Heat 16
Heights 16
Helen 16
High@@ 16
Hot 16
IC 16
Industries 16
Initiative 16
Interpol 16
Investig@@ 16
Jake 16
Jan@@ 16
Jefferson 16
Jobs 16
Keep 16
Koreans 16
LI@@ 16
LSU 16
Lafayette 16
Lama 16
Law@@ 16
Len@@ 16
Les@@ 16
Lindsay 16
Liu 16
Loans 16
Lor@@ 16
Ltd. 16
Lyon 16
M.D. 16
MA@@ 16
MVP 16
Madison 16
Majority 16
Making 16
Mars 16
Md 16
Merkel 16
Money 16
Muss@@ 16
Mutual 16
NA@@ 16
NYC 16
Nawaz 16
Nouri 16
OP@@ 16
OS 16
Offer 16
Oprah 16
Ortiz 16
Outside 16
PE@@ 16
Panama 16
Paper 16
Pas@@ 16
Pi@@ 16
Pierre 16
Pink 16
Pir@@ 16
Pitt 16
Planet 16
Play 16
Prior 16
Prison 16
Prix 16
Pro 16
Profit 16
Puerto 16
Race 16
Ramirez 16
Ren@@ 16
Representatives 16
Ridge 16
Robin 16
Rom@@ 16
Ross 16
Rouge 16
Rudd 16
Rul@@ 16
Set 16
Shah 16
Shakespeare 16
Shaun 16
Shaw 16
Sheffield 16
Sources 16
Sport 16
Sprint 16
Start 16
T-@@ 16
T. 16
Tal@@ 16
Telegraph 16
Tem@@ 16
Tommy 16
Tran@@ 16
Transport 16
Tyler 16
Tyson 16
Uganda 16
Ul@@ 16
Unit 16
Upper 16
Urban 16
Vil@@ 16
Volkswagen 16
WH@@ 16
Water@@ 16
Xinhua 16
Yankee 16
Ye@@ 16
Youth 16
abuses 16
accompanying 16
achieving 16
aftermath 16
aire 16
albums 16
alizing 16
amendment 16
apartments 16
ape 16
applying 16
arguments 16
aro 16
arrangement 16
artistic 16
asthma 16
ats@@ 16
attracting 16
aves 16
aya 16
bankruptcy 16
bans 16
bell 16
blessing 16
blocking 16
borrow 16
boycott 16
breakaway 16
bullets 16
burns 16
bushel 16
ca@@ 16
calculated 16
cam@@ 16
cement 16
cgi-bin 16
chains 16
chamber 16
character@@ 16
chicken 16
cinema 16
cleric 16
coat 16
coll@@ 16
committees 16
complexity 16
composed 16
confirmation 16
connecting 16
conserv@@ 16
constructed 16
cooperate 16
coordinator 16
copper 16
countryside 16
courtesy 16
cover@@ 16
credible 16
cry 16
dad 16
dark@@ 16
deb@@ 16
dence 16
depend 16
desc@@ 16
detectives 16
develops 16
diagnosed 16
differently 16
difficulty 16
dis 16
disciplinary 16
dit 16
dose 16
eased 16
egg 16
ele 16
emit@@ 16
employer 16
enh@@ 16
enth@@ 16
equivalents 16
erg@@ 16
evacu@@ 16
exceed 16
experiencing 16
fantasy 16
farmer 16
farms 16
fers 16
fies 16
finest 16
fixing 16
flat@@ 16
fleeing 16
fold 16
footprint 16
formidable 16
fumble 16
generating 16
gin 16
gradually 16
graduated 16
graduates 16
gunmen 16
hab@@ 16
hamstring 16
hand-@@ 16
highlights 16
highs 16
hinted 16
holy 16
horses 16
hub 16
hyper@@ 16
iPod 16
ias 16
icides 16
icon 16
identification 16
ights 16
ij@@ 16
indicating 16
indictment 16
induc@@ 16
industri@@ 16
inj@@ 16
injuring 16
inspections 16
inspiration 16
installation 16
intensified 16
investigator 16
iti 16
jan 16
ka@@ 16
kilometers 16
ks@@ 16
lab@@ 16
lacking 16
lap 16
laptop 16
lasting 16
laughed 16
layers 16
leaning 16
leftist 16
legislators 16
ligh@@ 16
liquidity 16
lit@@ 16
log@@ 16
lou@@ 16
magnetic 16
mal 16
manages 16
manip@@ 16
manual 16
mel 16
metres 16
mong 16
mosque 16
musicians 16
mutual 16
nationals 16
neglect 16
nett 16
nominating 16
non-GAAP 16
occupation 16
one-time 16
oot 16
opp@@ 16
orchestra 16
ordering 16
out-of-@@ 16
oversight 16
ox@@ 16
packaging 16
parked 16
passionate 16
passport 16
past@@ 16
pattern 16
pedi@@ 16
pensions 16
philosophy 16
pickup 16
poin@@ 16
prayer 16
presidents 16
presumably 16
priced 16
priest 16
prisoner 16
prisons 16
prnh 16
prosecuted 16
prospective 16
prostitution 16
quest@@ 16
racism 16
radar 16
ram 16
ration 16
real@@ 16
rebound 16
rebu@@ 16
refriger@@ 16
refuse 16
replic@@ 16
republic 16
resist 16
responding 16
responses 16
responsibilities 16
revealing 16
reward 16
rian 16
rice 16
rob@@ 16
romantic 16
root 16
rop@@ 16
rulers 16
sacks 16
scandals 16
scope 16
scre@@ 16
screaming 16
screened 16
second-largest 16
secur@@ 16
sentiment 16
separately 16
servers 16
setback 16
seven@@ 16
sex@@ 16
shake 16
sidelines 16
silent 16
sing@@ 16
small-@@ 16
smiling 16
spacecraft 16
span 16
spec@@ 16
speeches 16
spy 16
stal@@ 16
standoff 16
stepping 16
stones 16
stretches 16
stripped 16
sub-prime 16
surgical 16
survival 16
tap 16
tapes 16
tended 16
tense 16
throat 16
time@@ 16
topped 16
tops 16
tory 16
tours 16
tox@@ 16
traders 16
tragedy 16
transformed 16
trash 16
tribes 16
tron@@ 16
trusts 16
ulated 16
unexpectedly 16
uns 16
ury 16
uss 16
vian 16
visitor 16
voiced 16
volatile 16
weaker 16
weighing 16
whenever 16
whites 16
wholly 16
wit@@ 16
www.newscom.com 16
xis 16
yo 16
-J@@ 15
.0@@ 15
0.2 15
1.1 15
1.6 15
1.7 15
115 15
145 15
1950s 15
1968 15
21-year-old 15
23.@@ 15
230 15
36-@@ 15
4.6 15
400,000 15
5.2 15
5m 15
6,7@@ 15
6,9@@ 15
6-1 15
6.7 15
64@@ 15
7,6@@ 15
911 15
AB@@ 15
ABN 15
AR 15
ATLANTA 15
AV@@ 15
Added 15
Advoc@@ 15
Ala 15
Alberto 15
Arabic 15
Ari@@ 15
Ariz 15
Associates 15
Baby 15
Back@@ 15
Bas@@ 15
Ben@@ 15
Benedict 15
Bio@@ 15
Bou@@ 15
Brooks 15
Brussels 15
Bryan 15
But@@ 15
CONSOLIDATED 15
CR 15
Carey 15
Carlyle 15
Cell 15
Celtics 15
Chargers 15
Chile 15
Cho@@ 15
Chuck 15
Cost 15
Cru@@ 15
Cruz 15
Dalai 15
Def@@ 15
Del 15
Details 15
Diaz 15
Diplom@@ 15
Dol@@ 15
Dum@@ 15
EX@@ 15
Egyptian 15
Eid 15
Ele@@ 15
Election 15
Embassy 15
Emmy 15
Ended 15
Enforcement 15
Ep@@ 15
Estate 15
Exhib@@ 15
Explorer 15
Fairfax 15
Falcons 15
Fall 15
Federline 15
Fernandez 15
Fiel@@ 15
Final 15
Freddie 15
GH@@ 15
GS@@ 15
Gibbs 15
Gill@@ 15
Going 15
Gou@@ 15
HO@@ 15
Halo 15
Hamid 15
Haven 15
Health@@ 15
Henderson 15
Hoffman 15
Hudson 15
Hun@@ 15
IAEA 15
Indonesian 15
Investigation 15
Jo 15
Joel 15
KS 15
Kam@@ 15
Kas@@ 15
Kenny 15
Kibaki 15
Kings 15
Klein 15
Kn@@ 15
Knight 15
Kuwa@@ 15
LM 15
Leahy 15
Leone 15
Lowell 15
Made 15
Magazine 15
Maj@@ 15
Markets 15
McLe@@ 15
Merck 15
Midwest 15
Ministers 15
Minutes 15
Mis@@ 15
Mission 15
Mogadishu 15
Mou@@ 15
Nadal 15
Net@@ 15
Nevertheless 15
Nextel 15
Nic@@ 15
Norfolk 15
Nowak 15
OM@@ 15
Oc@@ 15
Patrol 15
Ped@@ 15
Pel@@ 15
Peninsula 15
Pep@@ 15
Perino 15
Pit@@ 15
Plans 15
Property 15
Qualcomm 15
Queens 15
RBIs 15
Ravens 15
Rev. 15
Reyes 15
Rig@@ 15
Rockets 15
Roh 15
Rosen@@ 15
Rou@@ 15
Run 15
S.C. 15
SC 15
SH@@ 15
SNP 15
SO@@ 15
Saint 15
Schumer 15
Sem@@ 15
Sent@@ 15
Shell 15
Sig@@ 15
Silicon 15
Simple 15
Sn@@ 15
Software 15
Son 15
Stearns 15
Sti@@ 15
Stores 15
Survey 15
Susp@@ 15
TS 15
Target 15
Thanks 15
Things 15
Think 15
Titans 15
Ton@@ 15
Toys 15
Tropical 15
U.S.@@ 15
US-@@ 15
Ug@@ 15
Violence 15
Voice 15
Walt 15
Wash 15
Webcast 15
Well@@ 15
Zoo 15
accountability 15
accuracy 15
acks 15
adv@@ 15
aga 15
agrees 15
ailing 15
aked 15
aks 15
alls 15
alo@@ 15
aman 15
ambulance 15
ank@@ 15
answering 15
applicants 15
appreci@@ 15
aps 15
arresting 15
asses 15
assuming 15
assurance 15
asts 15
ate-@@ 15
atively 15
atives 15
automotive 15
autopsy 15
az 15
ba@@ 15
back-to-back 15
bad@@ 15
ballots 15
bay 15
beaches 15
beds 15
beef 15
biological 15
bipartisan 15
bothered 15
button 15
buyout 15
by@@ 15
cage 15
capabilities 15
cash@@ 15
champagne 15
chest 15
chil@@ 15
cigarette 15
citizen 15
clu@@ 15
combat@@ 15
comic 15
commen@@ 15
commodity 15
common@@ 15
commun@@ 15
compact 15
complaining 15
concerts 15
conjunction 15
controlling 15
corrupt 15
creativity 15
cris@@ 15
crop 15
cultiv@@ 15
d-up 15
dealings 15
definitive 15
dently 15
departments 15
depressed 15
destructive 15
detect 15
diagnosis 15
diamond 15
dict 15
din@@ 15
disclosure 15
disturbing 15
dock 15
documented 15
dol@@ 15
dominate 15
dos 15
double-@@ 15
dragged 15
draws 15
dressing 15
drilling 15
dual 15
eb 15
eco-@@ 15
eff@@ 15
eigh@@ 15
embr@@ 15
empha@@ 15
enabled 15
enas 15
enberg 15
enced 15
encing 15
engagement 15
engaging 15
ense 15
ensuring 15
enterprises 15
entries 15
environmentally 15
environments 15
eries 15
essence 15
etti 15
evacuate 15
eventual 15
everyday 15
evident 15
examples 15
exams 15
exploit 15
extending 15
extremist 15
fam@@ 15
feedback 15
ferry 15
fifth-@@ 15
finalists 15
financially 15
flagship 15
flan@@ 15
flash 15
floors 15
flown 15
fossil 15
founders 15
founding 15
freely 15
frozen 15
frustrated 15
fuelled 15
functions 15
gallons 15
game-@@ 15
gan 15
genius 15
gesture 15
gh 15
gies 15
glasses 15
gli@@ 15
gling 15
glove 15
gloves 15
grades 15
gram 15
grandchildren 15
guerrillas 15
guided 15
habits 15
handcu@@ 15
handing 15
harassment 15
hardware 15
heroes 15
high-end 15
honour 15
horrible 15
hydro@@ 15
icals 15
ifying 15
ign 15
illnesses 15
implementing 15
inability 15
incredibly 15
incurred 15
independently 15
ink@@ 15
innocence 15
innov@@ 15
inspectors 15
inspire 15
instruments 15
intact 15
interference 15
intimate 15
iss@@ 15
ith 15
iv@@ 15
jani 15
judicial 15
justified 15
kidney 15
lawmaker 15
lec@@ 15
legislative 15
let@@ 15
limitations 15
loads 15
long-standing 15
loud 15
lower-@@ 15
lungs 15
magnitude 15
mandate 15
manufactured 15
mary 15
mas@@ 15
math 15
memorable 15
mentally 15
min 15
misconduct 15
mm 15
mm@@ 15
mol@@ 15
monitors 15
mons 15
mortality 15
nationalist 15
nets 15
ni 15
night@@ 15
objective 15
observed 15
odd 15
onic 15
onn@@ 15
oos 15
opposing 15
organs 15
oversee 15
oxygen 15
palace 15
pan 15
parallel 15
peer 15
persuaded 15
pharmaceutical 15
photographer 15
photography 15
pit@@ 15
plac@@ 15
pling 15
poll@@ 15
pon@@ 15
portrayed 15
power@@ 15
ppers 15
precip@@ 15
premise 15
primaries 15
private-@@ 15
proposing 15
proves 15
proving 15
publicity 15
puck 15
punch 15
pure 15
py@@ 15
queen 15
reacted 15
reactor 15
reads 15
real-life 15
rebuild 15
reckless 15
recogn@@ 15
recommendation 15
regain 15
releases 15
relies 15
relieved 15
reminded 15
renewable 15
reopened 15
reserved 15
restoration 15
retiring 15
rings 15
rivers 15
robot 15
roy 15
safer 15
sand@@ 15
saves 15
season-@@ 15
signature 15
slim 15
smell 15
smuggling 15
sometime 15
sore 15
spiritual 15
ss@@ 15
sti@@ 15
stored 15
strengthening 15
struggles 15
subsequently 15
suburbs 15
successes 15
suite 15
supporter 15
supportive 15
surely 15
sympathy 15
temp@@ 15
terrain 15
th-century 15
themes 15
threaten 15
threatens 15
three-game 15
tis 15
totaled 15
touch@@ 15
trace 15
trademarks 15
trainers 15
trick 15
trick@@ 15
trillion 15
trio 15
tune 15
turnover 15
ually 15
ud 15
ull 15
uncomfortable 15
under-@@ 15
underlying 15
unk@@ 15
unnamed 15
urgent 15
urns 15
utter 15
verse 15
versions 15
vi 15
vine 15
vocal 15
voluntarily 15
vor@@ 15
wan 15
warn 15
weakening 15
weed 15
wells 15
whales 15
withdrew 15
wooden 15
workforce 15
world-class 15
wrongdoing 15
www.c@@ 15
xed 15
yar@@ 15
year@@ 15
yers 15
yle 15
zoo 15
é 15
'Connor 14
'Malley 14
-related 14
0.6 14
105 14
14-year-old 14
16th 14
17-year-old 14
180 14
1975 14
1m 14
2.1 14
21.@@ 14
21@@ 14
22.@@ 14
25-year-old 14
29,@@ 14
36,@@ 14
4.2 14
4.4 14
4.5 14
4th 14
5-1 14
5.3 14
65@@ 14
6th 14
750 14
80s 14
ATP 14
AW@@ 14
Accounts 14
Across 14
After@@ 14
Agreement 14
Albert 14
Along 14
Angel 14
Appeals 14
Archbishop 14
Ashton 14
Attack 14
B-@@ 14
BHP 14
Bagh@@ 14
Bahrain 14
Bak@@ 14
Balance 14
Ball@@ 14
Beau@@ 14
Behind 14
Bla@@ 14
Blackburn 14
Bolton 14
Bom@@ 14
Boyd 14
Bradford 14
Brig@@ 14
Brit@@ 14
Browns 14
Bud@@ 14
Burns 14
CHI@@ 14
Carnegie 14
Castle 14
Cavaliers 14
Celeb@@ 14
Cer@@ 14
Christ 14
Clayton 14
Colle@@ 14
Core 14
Cra@@ 14
Croatia 14
Customs 14
DAT@@ 14
DE 14
Dem@@ 14
Depreciation 14
Derek 14
Deutsche 14
Dob@@ 14
Dodge 14
Dream 14
Dro@@ 14
Ds 14
EPA 14
ESPN 14
EV@@ 14
Eli 14
Equ@@ 14
Ever@@ 14
Ex-@@ 14
Exc@@ 14
FA@@ 14
Fa@@ 14
Far 14
Fields 14
Floyd 14
Fun@@ 14
GDP 14
Girls 14
Greenpeace 14
Griffin 14
Guardian 14
Gul@@ 14
Gun 14
HR 14
Harrington 14
Hart 14
Hear@@ 14
Hearts 14
Heather 14
Hernandez 14
Hil@@ 14
Hou@@ 14
IA 14
ICE 14
IE@@ 14
INCOME 14
ISLAMABAD 14
Inside 14
Jacobs 14
Jacques 14
Jordan@@ 14
Judiciary 14
Kat@@ 14
Kercher 14
L-@@ 14
LE 14
Lauren 14
Leaders 14
Leonard 14
Less 14
Lon@@ 14
Luke 14
Lund@@ 14
Macy 14
Main@@ 14
Master 14
Medal 14
Mes@@ 14
Miguel 14
Ming 14
Minneapolis 14
NEWSWEEK 14
Nichols 14
Nor 14
Norway 14
Norwegian 14
Ny@@ 14
OS@@ 14
Operations 14
Palmer 14
Park@@ 14
Parkinson 14
Pass@@ 14
Pearl 14
Photo 14
Plat@@ 14
PlayStation 14
Ple@@ 14
Princeton 14
Production 14
Pul@@ 14
Purchase 14
Quarterly 14
Rad@@ 14
Rams 14
Rawalpindi 14
Reading 14
Recei@@ 14
Residents 14
Rich 14
Rich@@ 14
Rico 14
Rooney 14
Ros@@ 14
Rus@@ 14
SW@@ 14
Safe 14
Sainsbury 14
Scar@@ 14
See@@ 14
Serena 14
Sharon 14
Short 14
Sil@@ 14
Sing@@ 14
South@@ 14
Spo@@ 14
Sul@@ 14
Sullivan 14
Sw@@ 14
T-shirt 14
T-shirts 14
Taser 14
Tele@@ 14
Terr@@ 14
Tesco 14
Ther@@ 14
Thre@@ 14
Tories 14
Traffic 14
Training 14
Travis 14
Treas@@ 14
VILLE 14
Vancouver 14
Vermont 14
Veterans 14
Wembley 14
Wii 14
Willis 14
Wolf 14
Woo@@ 14
Zone 14
a.com 14
abandon 14
abe@@ 14
abilities 14
abused 14
academy 14
acceptance 14
accidental 14
accidentally 14
accommodate 14
accommodations 14
accomplished 14
aced 14
acies 14
acking 14
acknowledges 14
add@@ 14
ade@@ 14
administrator 14
affiliated 14
aggregate 14
ailed 14
alle 14
alle@@ 14
alleges 14
altogether 14
anda 14
apologized 14
appetite 14
applause 14
apple 14
appropriately 14
architect 14
arra@@ 14
as-@@ 14
ason 14
ate@@ 14
atically 14
attackers 14
ature 14
autism 14
avoiding 14
ax 14
ax@@ 14
batted 14
bed@@ 14
beings 14
beloved 14
benefited 14
berger 14
bits 14
blazes 14
blowing 14
bones 14
boot 14
bott@@ 14
boun@@ 14
bour 14
brave 14
breath 14
bridges 14
bulk 14
cake 14
call@@ 14
camp@@ 14
cast@@ 14
casualty 14
cave 14
chancellor 14
charities 14
chasing 14
cholesterol 14
cious 14
class@@ 14
clips 14
co-founder 14
colored 14
comparing 14
conferences 14
congestion 14
congress 14
constitute 14
corporation 14
costly 14
cruci@@ 14
crying 14
curb 14
cyclone 14
dam@@ 14
dan@@ 14
dd@@ 14
debated 14
debates 14
deciding 14
decorated 14
delinqu@@ 14
democr@@ 14
denounced 14
depending 14
desperately 14
dest 14
detected 14
detective 14
disabilities 14
disastrous 14
disclose 14
discontinued 14
dishes 14
dispar@@ 14
disrupt 14
distribute 14
diving 14
dom@@ 14
dugout 14
dumped 14
dusty 14
ean 14
elec@@ 14
elev@@ 14
elly 14
email 14
embedded 14
emi 14
encies 14
erous 14
erup@@ 14
es.com 14
evi@@ 14
evil 14
examiner 14
excluded 14
exhibit 14
expectation 14
experimental 14
experiments 14
expose 14
eyed 14
fake 14
feat 14
fic@@ 14
fiery 14
finances 14
first-round 14
fits 14
fra@@ 14
francs 14
freshman 14
fu@@ 14
fueled 14
fun@@ 14
generals 14
generations 14
genuine 14
gg@@ 14
ght 14
goal@@ 14
goers 14
gos 14
gran@@ 14
grandson 14
grey 14
grip 14
guaranteed 14
guitar 14
hailed 14
hammer 14
hard@@ 14
heels 14
herein 14
highest-@@ 14
hill 14
hob@@ 14
homered 14
horse@@ 14
hosting 14
humor 14
icky 14
ify 14
ilis 14
iller 14
imported 14
imports 14
inappropriate 14
inci@@ 14
incredible 14
ingredient 14
ingredients 14
inmate 14
inn 14
insider 14
instructed 14
intelligent 14
interaction 14
interceptions 14
introducing 14
invented 14
irrit@@ 14
isha 14
ishers 14
ishes 14
iss 14
ital 14
ite-@@ 14
ix 14
ja@@ 14
judged 14
kid@@ 14
kit 14
kles 14
l-@@ 14
labor@@ 14
lac@@ 14
lately 14
leisure 14
ler@@ 14
linebacker 14
lion 14
literally 14
literature 14
liver 14
log 14
lon@@ 14
lord 14
lottery 14
loving 14
magic 14
man-@@ 14
mark@@ 14
marking 14
marriages 14
milestone 14
mim@@ 14
misleading 14
mode 14
mus@@ 14
mysterious 14
notices 14
nutrition 14
obsessed 14
obsession 14
occasion 14
occasional 14
occup@@ 14
occupancy 14
oll@@ 14
oners 14
oni 14
orange 14
ord@@ 14
oriented 14
oul@@ 14
ouse 14
ousted 14
outreach 14
par 14
parole 14
pedestrian 14
performers 14
phic 14
pir@@ 14
pork 14
poured 14
pray 14
predictions 14
premises 14
prescription 14
presenting 14
pressive 14
procession 14
professors 14
promotional 14
protein 14
publish 14
publisher 14
quie@@ 14
rab@@ 14
raft 14
rage 14
rah 14
raids 14
ranges 14
rankings 14
rapper 14
rats 14
rays 14
react 14
reasonably 14
recalling 14
receivers 14
reconstruction 14
recruited 14
ref@@ 14
rehab 14
reject 14
rel 14
removal 14
ren 14
resolutions 14
retreat 14
rever@@ 14
revolutionary 14
rhetoric 14
rie 14
rig@@ 14
right-hander 14
rin 14
rison 14
rockets 14
rotation 14
rubber 14
runner 14
sack 14
sank 14
sauce 14
savvy 14
scan 14
scattered 14
scen@@ 14
secondary 14
sel 14
sellers 14
separation 14
she@@ 14
shel@@ 14
shipment 14
shouted 14
showdown 14
sies 14
sigh@@ 14
signaled 14
sink 14
skeptical 14
slot 14
smashed 14
snapped 14
socially 14
speeding 14
sprained 14
sson 14
standings 14
starters 14
stealing 14
stormed 14
strict 14
summary 14
supposedly 14
syndic@@ 14
tains 14
tear 14
tenants 14
tening 14
tery 14
tit@@ 14
toilet 14
transplant 14
tsunami 14
tun@@ 14
turing 14
ty-@@ 14
ues 14
ultimate 14
ump@@ 14
undercover 14
undergoing 14
ushes 14
uting 14
vacc@@ 14
vaccinated 14
vered 14
vering 14
vessels 14
viol@@ 14
violated 14
viruses 14
vis 14
vit@@ 14
voic@@ 14
volunteered 14
wat@@ 14
webcast 14
weighed 14
well@@ 14
whe@@ 14
withdrawals 14
wives 14
wo@@ 14
would-be 14
wr@@ 14
wreck 14
write-downs 14
wrong@@ 14
yu@@ 14
zones 14
é@@ 14
,@@ 13
-F@@ 13
1,200 13
1,300 13
136 13
157 13
18-year-old 13
18th 13
1972 13
1977 13
1979 13
240 13
28-year-old 13
3-pointer 13
3.7 13
30pm 13
34-year-old 13
5.1 13
53@@ 13
60-@@ 13
9,000 13
9,8@@ 13
94@@ 13
97@@ 13
AID 13
AOL 13
Additionally 13
Afghans 13
Alzheimer 13
Am 13
Angela 13
Anglican 13
Anto@@ 13
Appalach@@ 13
Are@@ 13
Armstrong 13
Around 13
Assets 13
Available 13
BMW 13
BR@@ 13
Bancorp 13
Barrett 13
Bern@@ 13
Beverly 13
Billi@@ 13
Blacks 13
Books 13
Bour@@ 13
Boys 13
Brent 13
Broadcasting 13
Bru@@ 13
Bruno 13
CNN.com 13
CP@@ 13
Californ@@ 13
Cash@@ 13
Cast@@ 13
Chamber 13
Chemical 13
Citi 13
Clinical 13
Coleman 13
Colombian 13
Come 13
Comedy 13
Commons 13
Conservation 13
Conservatives 13
Cri@@ 13
Cul@@ 13
Cunningham 13
DF 13
Danish 13
Det@@ 13
Doc@@ 13
Down@@ 13
Dunn 13
Economy 13
Employees 13
Enterprises 13
Es@@ 13
Europeans 13
Eventually 13
FL@@ 13
Fair@@ 13
Falls 13
Fannie 13
Fish 13
Fisher@@ 13
Fle@@ 13
Friend@@ 13
GA@@ 13
Gallery 13
Gan@@ 13
Garcia 13
Gate 13
Gene@@ 13
Goodwill 13
Guev@@ 13
Gun@@ 13
HS@@ 13
Hab@@ 13
Hand@@ 13
Hassan 13
Hayes 13
Henin 13
Herald 13
Hiro@@ 13
Holiday 13
Hugo 13
Hut@@ 13
ITV 13
Internal 13
Jamaica 13
Jan 13
Jessica 13
Jet 13
Kent 13
Kir@@ 13
Kouchner 13
Kra@@ 13
L.A. 13
LDP 13
Latino 13
Launch 13
Lawyers 13
Led 13
Lehman 13
Lem@@ 13
Levy 13
Liberation 13
Link 13
Lloyd 13
Loo@@ 13
Low 13
Lucas 13
M-@@ 13
MAR@@ 13
MC 13
ME 13
Mahdi 13
Manuel 13
Marcus 13
McCormack 13
McNabb 13
Meyer 13
Micro@@ 13
Mol@@ 13
Moo@@ 13
Morales 13
Morocco 13
Motor@@ 13
Mut@@ 13
NASCAR 13
Nah@@ 13
Nak@@ 13
Name 13
Nash 13
Nat@@ 13
Nazi 13
Newark 13
Nicholas 13
Nintendo 13
Noel 13
Non-GAAP 13
Norman 13
Norris 13
Off 13
Opinion 13
Opposition 13
Ore 13
Orthodox 13
PARIS 13
Paramount 13
Pick 13
Play@@ 13
Poll@@ 13
Pop@@ 13
Post-@@ 13
Premium 13
Presidential 13
Put@@ 13
Quar@@ 13
RA@@ 13
RAF 13
Racing 13
Rasmussen 13
Rate 13
Religious 13
Resort 13
Rest@@ 13
Rica 13
Roberto 13
Run@@ 13
Rush 13
Russians 13
Rutgers 13
S.A. 13
SS 13
SUV 13
Saints 13
Secretary-General 13
Senators 13
Set@@ 13
Sex 13
Shane 13
Sharpton 13
Sky@@ 13
Slam 13
Smithsonian 13
Southwest 13
Spec@@ 13
Spencer 13
Spi@@ 13
Springs 13
Squ@@ 13
Stan@@ 13
Standards 13
Star@@ 13
Starting 13
Str@@ 13
Supp@@ 13
Swe@@ 13
TS@@ 13
Tam@@ 13
Tat@@ 13
Tayyip 13
Teachers 13
Theatre 13
Tomorrow 13
Tonight 13
Too 13
Trevor 13
UBS 13
Um@@ 13
Vel@@ 13
Visitors 13
Vs 13
WHO 13
Wagner 13
Warsaw 13
Weighted 13
Westminster 13
Who@@ 13
Wi-Fi 13
Wigan 13
Wimbledon 13
Winehouse 13
Winter 13
Wo@@ 13
Wyoming 13
accuse 13
ached 13
acious 13
addiction 13
ader 13
adjacent 13
adjustment 13
ador@@ 13
agon 13
aires 13
aj@@ 13
akers 13
aled 13
alter 13
alty 13
ament 13
amer@@ 13
amm@@ 13
ander@@ 13
angered 13
angi@@ 13
anim@@ 13
ann 13
anonymous 13
ans@@ 13
approvals 13
aran 13
archae@@ 13
arly 13
arthritis 13
ashes 13
assurances 13
assure 13
aster 13
ata 13
attitudes 13
attributable 13
audit 13
autumn 13
backdrop 13
balloon 13
bands 13
bargaining 13
bath 13
battered 13
batteries 13
bb@@ 13
bbled 13
beg@@ 13
beneficial 13
billionaire 13
blasts 13
bleeding 13
blockbuster 13
bn 13
bounce 13
boundary 13
bribes 13
brokerage 13
bureau 13
campuses 13
canc@@ 13
capability 13
caps 13
cartoon 13
casting 13
catching 13
cation 13
ceasefire 13
cellphone 13
centered 13
certainty 13
chased 13
cio 13
clean@@ 13
clim@@ 13
co-author 13
coinci@@ 13
colorful 13
colors 13
commitments 13
complic@@ 13
computing 13
concealed 13
concessions 13
conclude 13
congressman 13
consultants 13
consulted 13
contaminated 13
contents 13
contests 13
continent 13
continental 13
contracted 13
convert 13
convictions 13
counseling 13
credit-@@ 13
critic 13
cross@@ 13
cubic 13
curriculum 13
custom@@ 13
cycles 13
dancer 13
ddy 13
deploy 13
deserves 13
diamonds 13
din 13
dirt 13
disarmament 13
disasters 13
disc 13
discover 13
dissent 13
dity 13
dium 13
divide 13
divorced 13
domain 13
dra 13
drafted 13
dragging 13
drunken 13
du 13
duo 13
e- 13
eable 13
earliest 13
earthquake 13
ections 13
edited 13
eful 13
elaborate 13
eland 13
eller 13
enabling 13
endured 13
enjoying 13
enters 13
entities 13
epic 13
erie 13
esp@@ 13
ested 13
eted 13
evacuation 13
evaluated 13
evolving 13
excellence 13
executions 13
explosions 13
expressing 13
faithful 13
famed 13
fastest 13
fatally 13
femin@@ 13
fights 13
filling 13
filmmaker 13
fing 13
fitting 13
flies 13
flowing 13
folk 13
followers 13
forgotten 13
fraction 13
fri@@ 13
g-@@ 13
garage 13
gates 13
gel 13
gener@@ 13
gest 13
gie 13
glu@@ 13
grandmother 13
grandparents 13
greeted 13
grounded 13
gru@@ 13
guarded 13
handgun 13
healing 13
healthier 13
hei@@ 13
heritage 13
historian 13
histories 13
hooked 13
hopefully 13
hopefuls 13
hosp@@ 13
hospit@@ 13
hospitalized 13
hun@@ 13
hunger 13
ials 13
icity 13
iconic 13
identical 13
iel 13
ig 13
ii 13
ill-@@ 13
illed 13
impacts 13
implied 13
improper 13
ination 13
inaugural 13
infl@@ 13
inge 13
inhal@@ 13
input 13
insight 13
install 13
institute 13
insurgency 13
interest-@@ 13
invasive 13
itated 13
itt@@ 13
jeans 13
jer@@ 13
jersey 13
just@@ 13
justices 13
kick@@ 13
kicking 13
kidnapped 13
kies 13
labour 13
large-scale 13
lashed 13
laying 13
leaf 13
leak 13
lement 13
lian 13
liberties 13
lier 13
ligament 13
literary 13
loading 13
lonely 13
los@@ 13
lowering 13
luggage 13
lure 13
lured 13
magn@@ 13
masks 13
meteor@@ 13
midday 13
miracle 13
mist@@ 13
module 13
mosqu@@ 13
motor 13
municipal 13
murdered 13
mush@@ 13
musician 13
narrative 13
narrowly 13
nationally 13
near-@@ 13
nightclub 13
non 13
notable 13
ny@@ 13
objected 13
objections 13
observation 13
occasionally 13
ography 13
ome@@ 13
ook 13
ots 13
outfits 13
overlooking 13
override 13
overseeing 13
owski 13
packing 13
pairs 13
paparazzi 13
partially 13
peers 13
performer 13
personalities 13
pitches 13
placing 13
pleading 13
plots 13
pocket 13
poker 13
policeman 13
pools 13
poorest 13
posing 13
postponed 13
pple 13
preparation 13
prevention 13
profitability 13
prohib@@ 13
prop 13
propose 13
publicist 13
purchasing 13
rain@@ 13
rampant 13
random 13
rebounded 13
recordings 13
recruit 13
referee 13
regul@@ 13
relation 13
reminder 13
removing 13
rescuers 13
ret@@ 13
retaliation 13
rev@@ 13
revered 13
revived 13
right-wing 13
riot 13
rist@@ 13
rivalry 13
rugged 13
run-@@ 13
ruption 13
rus 13
satisfaction 13
sau@@ 13
sburg 13
sch@@ 13
scrambled 13
sculp@@ 13
sear@@ 13
searches 13
secrecy 13
secular 13
segments 13
sert 13
servic@@ 13
shell 13
shield 13
shipping 13
shirts 13
shop@@ 13
shutout 13
siblings 13
sion@@ 13
six@@ 13
skill 13
slept 13
slice 13
slid 13
slower 13
smokers 13
sofa 13
solic@@ 13
soul@@ 13
sounding 13
squeezed 13
squir@@ 13
stabilize 13
state-@@ 13
step@@ 13
stole 13
stop@@ 13
storms 13
strengthened 13
strikeouts 13
stringent 13
stry 13
stupid 13
styles 13
substitute 13
subtle 13
successive 13
sue 13
suff@@ 13
suggestions 13
surplus 13
sustain 13
swir@@ 13
tackles 13
tag@@ 13
taped 13
tasks 13
telecommunications 13
ternal 13
terrific 13
themed 13
thermal 13
three-year 13
thriving 13
thy 13
tick@@ 13
tionally 13
tires 13
toe 13
tor-@@ 13
tossed 13
touching 13
towers 13
town@@ 13
trainer 13
transfers 13
travelling 13
tribunal 13
triumph 13
trophy 13
trunk 13
tuition 13
ullah 13
underneath 13
unfortunate 13
unfortunately 13
uniforms 13
unnecessary 13
updates 13
upheld 13
upward 13
urses 13
us-@@ 13
vals 13
vendors 13
vest@@ 13
videot@@ 13
viewer 13
visa 13
voices 13
vul@@ 13
watch@@ 13
waving 13
weekends 13
wheelchair 13
wid@@ 13
wind@@ 13
wires 13
wom@@ 13
wondered 13
wreckage 13
wrist 13
x-@@ 13
year-@@ 13
yielded 13
youngest 13
zi 13
zu@@ 13
€ 13
'S 12
------------------------------------------------------------------------- 12
-in-law 12
-of-@@ 12
0.4 12
07@@ 12
1,2@@ 12
1,400 12
102 12
113 12
13,000 12
138 12
144 12
150,000 12
1930s 12
1948 12
1964 12
1973 12
197@@ 12
2014 12
29.@@ 12
3,4@@ 12
3,5@@ 12
3.3 12
30s 12
320 12
37,@@ 12
399 12
4,6@@ 12
4.7 12
43-@@ 12
5,5@@ 12
6,0@@ 12
7-6 12
79@@ 12
80,000 12
90s 12
AAA 12
ACE 12
AK@@ 12
AST 12
Achie@@ 12
Add 12
Adrian 12
Adv@@ 12
Advanced 12
Alban@@ 12
Americas 12
Ana 12
Analysis 12
Andre@@ 12
Arena 12
Arlington 12
Atomic 12
Aut@@ 12
BI@@ 12
Battle 12
Beat 12
Beg@@ 12
Belle 12
Beng@@ 12
Berkeley 12
Berry 12
Betty 12
Bib@@ 12
Billboard 12
Billy 12
Bin@@ 12
Block 12
Blu@@ 12
Born 12
Box 12
Bran@@ 12
Bronx 12
Bros. 12
Bun@@ 12
Burke 12
Burton 12
CASH 12
CITY 12
CN@@ 12
Calderon 12
Cardi@@ 12
Carol 12
Carr 12
Carrie 12
Cau@@ 12
Charleston 12
Ches@@ 12
Chin@@ 12
Cho 12
Chávez 12
Cit@@ 12
Clarke 12
Clearly 12
Code 12
Commun@@ 12
Computer 12
Congressman 12
Contin@@ 12
Conven@@ 12
Coughlin 12
Crit@@ 12
Customers 12
DAY 12
DP 12
Damascus 12
Dat@@ 12
Deal 12
Devon 12
Diane 12
Dick@@ 12
Dig@@ 12
Disp@@ 12
Dollar 12
Doyle 12
Dublin 12
Dul@@ 12
Dy@@ 12
EDT 12
EN 12
EP@@ 12
ERS 12
Eb@@ 12
Eck@@ 12
Edition 12
Educational 12
Either 12
Elvis 12
Esp@@ 12
Evan 12
Every@@ 12
Expo 12
FRANCISCO 12
Factors 12
Fallon 12
Ferrari 12
Find 12
Forec@@ 12
Four@@ 12
Fried@@ 12
Fur@@ 12
Futures 12
Gabriel 12
Gaming 12
Garnett 12
Germans 12
Give 12
Glenn 12
Growth 12
Gul 12
Hanson 12
Happy 12
Hard 12
Harvey 12
Held 12
Hilary 12
Holocaust 12
Hom@@ 12
Hoss@@ 12
IP@@ 12
IRS 12
ITED 12
Imp@@ 12
Inspector 12
JP 12
Janet 12
Jenkins 12
Jenn@@ 12
Jintao 12
Jonny 12
Katz 12
Khamenei 12
Kidd 12
Kirchner 12
Kit@@ 12
LA@@ 12
LD 12
LS 12
Lahore 12
Lap@@ 12
Lawmakers 12
Leg@@ 12
Leicester 12
Level 12
Library 12
Lisbon 12
Living 12
Logo 12
Los@@ 12
Malcolm 12
Malibu 12
Margaret 12
Marion 12
Marketing 12
Mass@@ 12
McCanns 12
Mediterranean 12
Mellon 12
Mich@@ 12
Midlands 12
Mir@@ 12
Moines 12
Mom@@ 12
Monetary 12
Monica 12
Mormon 12
Motion 12
Munich 12
NAT@@ 12
NET 12
NEW@@ 12
NR@@ 12
Nav@@ 12
Negoti@@ 12
Northwest 12
Nov@@ 12
Nur@@ 12
Opera 12
Organiz@@ 12
Own 12
PHILADELPHIA 12
PP 12
Pam@@ 12
Patricia 12
Pedi@@ 12
Peters 12
Petroleum 12
Pharmaceuticals 12
Photogra@@ 12
Pic@@ 12
Pich@@ 12
Politics 12
Pont 12
Port@@ 12
Q. 12
Quality 12
Rab@@ 12
Rac@@ 12
Radiohead 12
Recep 12
Representative 12
Resolution 12
Revolutionary 12
Ric@@ 12
Richmond 12
Rie@@ 12
Risk 12
Rum@@ 12
Rwanda 12
S-@@ 12
STOCK@@ 12
Samar@@ 12
Sandy 12
Santana 12
Scho@@ 12
Scientific 12
Section 12
Sei@@ 12
Sid@@ 12
Sno@@ 12
Snow 12
Soccer 12
Something 12
Sopran@@ 12
Sound 12
Spurs 12
Steph@@ 12
Sto@@ 12
Stockholders 12
Strong 12
Suicide 12
Surrey 12
Sweet 12
TA@@ 12
TSA 12
Tac@@ 12
Talk 12
Tamil 12
Teb@@ 12
Tenn 12
Thaksin 12
Thor@@ 12
Tomlinson 12
Travel@@ 12
Troops 12
Trump 12
Tul@@ 12
Tus@@ 12
Unless 12
Van@@ 12
Victims 12
Vincent 12
Vinci 12
Wake 12
Washington-based 12
abortions 12
accelerate 12
accuses 12
acid 12
activ@@ 12
adequately 12
adi 12
adjust 12
adjust@@ 12
admissions 12
admitting 12
adol@@ 12
advantages 12
advent@@ 12
age-@@ 12
agreeing 12
agu@@ 12
aint 12
airs 12
alists 12
altern@@ 12
aly@@ 12
amazed 12
amended 12
amping 12
ane@@ 12
anes@@ 12
ant-@@ 12
anz@@ 12
apologize 12
applauded 12
appoint 12
appreciated 12
appreciation 12
architects 12
arena 12
arose 12
asco 12
asp@@ 12
aspect 12
ast-@@ 12
asted 12
ati 12
ation-@@ 12
auses 12
autogra@@ 12
aved 12
backers 12
baked 12
balanced 12
band@@ 12
bare 12
batting 12
belonged 12
besides 12
best-@@ 12
best-selling 12
bey 12
big@@ 12
bir@@ 12
bite 12
bloodshed 12
boasts 12
bold 12
booked 12
booming 12
boosted 12
bosses 12
bot 12
bra 12
bran@@ 12
breed 12
bronze 12
buck@@ 12
budgets 12
buff@@ 12
bund@@ 12
burial 12
buy@@ 12
cannabis 12
care@@ 12
casinos 12
catches 12
cease-fire 12
centr@@ 12
cha 12
champ 12
chant 12
charitable 12
chase 12
checkpoint 12
cheer@@ 12
cheering 12
chi@@ 12
chiefs 12
chim@@ 12
cht 12
cial 12
circuit 12
clip 12
cloth 12
clout 12
clue 12
colony 12
commands 12
commerci@@ 12
commercials 12
commissioned 12
comple@@ 12
comply 12
composer 12
composite 12
conceded 12
condo 12
consciousness 12
constantly 12
consu@@ 12
contentious 12
conve@@ 12
convey 12
convincing 12
coordinate 12
cop 12
corps 12
countless 12
cow 12
cracked 12
creatures 12
criticised 12
crown 12
crumbling 12
cult 12
dancers 12
das 12
dean 12
deferred 12
dent@@ 12
dents 12
dependence 12
description 12
deserve 12
destabili@@ 12
detonated 12
dez 12
dge@@ 12
dging 12
dip 12
dismant@@ 12
disruption 12
distinct 12
distinctive 12
divi@@ 12
dness 12
dom 12
door@@ 12
duration 12
ea 12
ech 12
echoed 12
eding 12
eini 12
elder 12
electro@@ 12
embarrassment 12
emphasize 12
emphasized 12
enacted 12
encourages 12
ency 12
enforced 12
ensemble 12
enthusiasm 12
enti@@ 12
eo 12
essly 12
etc 12
etic 12
evolved 12
ex 12
excitement 12
expectancy 12
explicit 12
expres@@ 12
ey@@ 12
eye@@ 12
far@@ 12
favors 12
fearing 12
fiel@@ 12
filmed 12
fixed-@@ 12
flat-@@ 12
flawed 12
flaws 12
foreign-@@ 12
forming 12
fortunate 12
fortunes 12
forward@@ 12
framework 12
frequency 12
ful@@ 12
fur 12
genetically 12
genre 12
gent 12
ger-@@ 12
giants 12
glow 12
goalkeeper 12
gor@@ 12
grand@@ 12
grandfather 12
gren 12
grocery 12
grows 12
gunshot 12
harbor 12
hardt 12
harmed 12
harmon@@ 12
hazard 12
hem@@ 12
hen 12
heric 12
hero@@ 12
high-tech 12
hill@@ 12
holdings 12
hook 12
hop@@ 12
horror 12
hou@@ 12
ht@@ 12
hurdles 12
icles 12
ideological 12
iest 12
ika 12
ilers 12
ilia 12
imagination 12
imaging 12
imminent 12
inct 12
indefinitely 12
indicates 12
infield 12
info 12
ing.com 12
injection 12
insisting 12
instability 12
insul@@ 12
insur@@ 12
intervene 12
intru@@ 12
invent@@ 12
invest@@ 12
iro 12
ishment 12
iso@@ 12
isolation 12
isted 12
itable 12
iter 12
itude 12
ity-@@ 12
jewelry 12
joke 12
jump@@ 12
knees 12
knock 12
labeled 12
lacks 12
lander 12
lasts 12
laughing 12
laundering 12
layer 12
lean 12
legendary 12
level@@ 12
leverage 12
liable 12
life-threatening 12
light-@@ 12
liner 12
liners 12
lington 12
linking 12
ll 12
logic 12
lon 12
lover 12
loy@@ 12
loyalty 12
mainland 12
maj@@ 12
malaria 12
mansion 12
marathon 12
margin@@ 12
mass@@ 12
measuring 12
median 12
mentation 12
merchandise 12
merits 12
metropolitan 12
midfield 12
migrants 12
mort@@ 12
mount 12
musi@@ 12
nam@@ 12
need@@ 12
neg@@ 12
neighbours 12
nickname 12
nor@@ 12
notorious 12
novel@@ 12
od 12
oes 12
offender 12
offs 12
offseason 12
ographer 12
oh@@ 12
okay 12
oked 12
old-fashioned 12
oli 12
oli@@ 12
oney 12
onga 12
oper 12
ora 12
organisations 12
ori 12
orientation 12
oun@@ 12
oured 12
out-@@ 12
outer 12
outh 12
outlined 12
overly 12
overwhelmingly 12
owitz 12
paperwork 12
paralyzed 12
part-time 12
pati@@ 12
patrols 12
payroll 12
ped@@ 12
penny 12
persi@@ 12
piano 12
pilgrims 12
plan@@ 12
planting 12
plu@@ 12
pockets 12
populations 12
portable 12
portra@@ 12
portraits 12
positively 12
pp 12
predic@@ 12
preference 12
prefers 12
privilege 12
procurement 12
propelled 12
prosecute 12
prostate 12
psych@@ 12
public@@ 12
publications 12
pulls 12
punished 12
punk 12
purse 12
pursued 12
puzz@@ 12
quantities 12
quarter-@@ 12
quietly 12
rains 12
raped 12
realised 12
rear 12
receivable 12
recruiting 12
relate 12
remainder 12
remo@@ 12
renovation 12
resolving 12
reson@@ 12
respiratory 12
resumed 12
rew@@ 12
rier 12
rigorous 12
rocks 12
ros@@ 12
run-up 12
runner-up 12
sag@@ 12
sal 12
same-sex 12
scare 12
scholars 12
scrat@@ 12
scratch 12
second-half 12
secrets 12
seeded 12
sep@@ 12
sfield 12
shallow 12
shaw 12
shook 12
shoulders 12
showcase 12
shr@@ 12
sidelined 12
silk 12
sincere 12
singled 12
sit@@ 12
six-month 12
skirt 12
slavery 12
slip 12
slogan 12
snu@@ 12
soared 12
sof@@ 12
solved 12
soul 12
soup 12
southwestern 12
specializing 12
spectrum 12
spell 12
spends 12
spike 12
spin 12
spir@@ 12
spirited 12
spite 12
spokesperson 12
spor@@ 12
st-@@ 12
stalled 12
starred 12
state-owned 12
steal 12
stly 12
stock-based 12
stock@@ 12
strains 12
structured 12
stumbled 12
stur@@ 12
supplying 12
surgeon 12
surging 12
surveys 12
surviving 12
sustainability 12
sworn 12
tainted 12
takers 12
talents 12
tary 12
tation 12
te-@@ 12
tee 12
tele@@ 12
terminal 12
tex@@ 12
text@@ 12
thick@@ 12
three-day 12
thri@@ 12
thriller 12
tial 12
tible 12
tighter 12
tiv@@ 12
tless 12
tomy 12
traced 12
trauma 12
triumph@@ 12
tter 12
tual 12
turally 12
turbulence 12
two-day 12
ul 12
ulating 12
umbrella 12
umped 12
umps 12
ums 12
unaudited 12
undertakes 12
underwent 12
uni@@ 12
unrest 12
unsuccessful 12
unting 12
uous 12
uprising 12
urer 12
urt 12
usage 12
vation 12
vent 12
verge 12
voke 12
vre 12
war-@@ 12
wards 12
washed 12
wer@@ 12
whale 12
whist@@ 12
wild-card 12
wildfires 12
wiped 12
withdrawing 12
wonders 12
wre@@ 12
yan@@ 12
yc@@ 12
yelled 12
ym@@ 12
you@@ 12
youngsters 12
zer@@ 12
ée 12
í@@ 12
0-2 11
0.02 11
0.5 11
1,600 11
119 11
12-year-old 11
124 11
128 11
132 11
15-year-old 11
1971 11
1978 11
1981 11
2.0 11
24-hour 11
25th 11
26.@@ 11
3.4 11
3.6 11
30.@@ 11
30th 11
32-@@ 11
34,@@ 11
34-@@ 11
4,4@@ 11
4,9@@ 11
450 11
49.@@ 11
500-@@ 11
50th 11
51-@@ 11
550 11
6,4@@ 11
6,5@@ 11
60,@@ 11
60s 11
7,500 11
83@@ 11
86@@ 11
89@@ 11
9,0@@ 11
9,6@@ 11
90-@@ 11
98@@ 11
ASSETS 11
AU 11
AZUZ 11
Adding 11
Af@@ 11
Africans 11
Ahead 11
Ahmad 11
Aj@@ 11
Albany 11
Algeria 11
Alternative 11
American-@@ 11
Amnesty 11
Andrea 11
Andrews 11
Apart 11
Arab@@ 11
Archives 11
Ask 11
Auth@@ 11
Ayatollah 11
BM@@ 11
BOSTON 11
BST 11
Bali 11
Ball 11
Basin 11
Belfast 11
Beltr@@ 11
Berkshire 11
Beth 11
Boll@@ 11
Bradley 11
Branson 11
Buil@@ 11
Bul@@ 11
Bulgaria 11
Bulldogs 11
Bulls 11
CAR@@ 11
CI 11
CONDENSED 11
CS@@ 11
CV@@ 11
Calls 11
Cardinal 11
Cat 11
Cel@@ 11
Chambers 11
Check 11
Christianity 11
Chronicle 11
Comcast 11
Con 11
Conc@@ 11
Confi@@ 11
Content 11
Coo@@ 11
Cour@@ 11
Crescent 11
Cros@@ 11
Cultural 11
Curry 11
DS@@ 11
Dark 11
Deli@@ 11
Democr@@ 11
Deposits 11
Derby 11
Det 11
Dog 11
Domin@@ 11
Donn@@ 11
Dre@@ 11
Dub@@ 11
Ducks 11
Durbin 11
Dut@@ 11
Economist 11
Eddie 11
Efforts 11
Elliott 11
Engineering 11
Ev@@ 11
FCC 11
FIFA 11
Fall@@ 11
Fifth 11
Fiji 11
Flight 11
Floo@@ 11
Found 11
Freeman 11
Fresh 11
G.M. 11
Gap 11
Gardner 11
Garrett 11
Gat@@ 11
Gateway 11
Gerald 11
Get@@ 11
Getting 11
Giant 11
Gingrich 11
Good@@ 11
Grace 11
Grand@@ 11
Gross 11
Guar@@ 11
HAR@@ 11
Harbor 11
Heis@@ 11
Helm@@ 11
Heritage 11
Hindu@@ 11
Hit@@ 11
Hog@@ 11
Honor 11
Hood 11
Horse 11
Hours 11
IRA 11
Impact 11
Inj@@ 11
Institutes 11
Interactive 11
Interstate 11
Islanders 11
Istanbul 11
Jackie 11
Jean-@@ 11
Kan@@ 11
Karl 11
Kathleen 11
Kay@@ 11
Kha@@ 11
Khartoum 11
Khmer 11
Kirk 11
Kol@@ 11
Kr@@ 11
LO 11
Lakes 11
Large 11
Lat@@ 11
Lav@@ 11
Leadership 11
Liberties 11
Lic@@ 11
Linda 11
Lo 11
Long@@ 11
Lucy 11
Lum@@ 11
MBA 11
Madonna 11
Managing 11
Marco 11
Mariners 11
Marks 11
Marlins 11
Mart@@ 11
Matsu@@ 11
McGra@@ 11
McK@@ 11
Megan 11
Melissa 11
Melvin 11
Metro@@ 11
Mob@@ 11
Mobil 11
Modern 11
Monroe 11
Moreover 11
Morrison 11
Move 11
Muhammad 11
Mumbai 11
Murdoch 11
N. 11
NE 11
NFC 11
Nab@@ 11
Nag@@ 11
Nar@@ 11
Nepal 11
Newton 11
Nigerian 11
Notre 11
O.@@ 11
Oak 11
Oak@@ 11
Oct 11
Ontario 11
Oper@@ 11
Overseas 11
PD 11
Patients 11
Pau@@ 11
Pay 11
Pedro 11
Pennington 11
Pharma 11
Phone 11
Pick@@ 11
Pie@@ 11
Pirates 11
Plane 11
Plant 11
Players 11
Plaza 11
Pre-@@ 11
Properties 11
QU@@ 11
Rachel 11
Rafael 11
Ramos 11
Raul 11
Ray@@ 11
Record 11
Reggie 11
Rei@@ 11
Riley 11
Rivers 11
Roma 11
Rosa 11
Rosie 11
Route 11
Rub@@ 11
Rural 11
Ruth 11
Sadr 11
Salman 11
Salv@@ 11
Samp@@ 11
Say 11
Say@@ 11
Search 11
Sears 11
Seinfeld 11
Sense 11
Serbian 11
Ship@@ 11
Show@@ 11
Singer 11
Skype 11
Sla@@ 11
Solomon 11
Springfield 11
Stacy 11
Streets 11
Style 11
Sup@@ 11
Superintendent 11
Supply 11
Sure 11
Syn@@ 11
T-Mobile 11
Tak@@ 11
Techn@@ 11
Thatcher 11
Tw@@ 11
Twenty-@@ 11
Twins 11
U-@@ 11
U. 11
VER 11
Valencia 11
Venice 11
Ventures 11
Vision 11
Weather 11
Wed@@ 11
Wis@@ 11
Wizards 11
Working 11
Yam@@ 11
Yang 11
Yao 11
Yorkers 11
Zar@@ 11
Zoe 11
abduc@@ 11
abruptly 11
absent 11
abstr@@ 11
accepts 11
accompany 11
acon 11
acute 11
administrators 11
admiration 11
admission 11
advertisements 11
after@@ 11
aggression 11
aired 11
airplane 11
albeit 11
aligned 11
ally-@@ 11
alous 11
alt 11
aman@@ 11
ambition 11
ame@@ 11
amounted 11
analyze 11
ancest@@ 11
antidepress@@ 11
apo@@ 11
applicable 11
aqu@@ 11
architectural 11
arily 11
arity 11
arti@@ 11
artillery 11
asive 11
assessing 11
assi@@ 11
assumes 11
asting 11
athers 11
athlete 11
athletic 11
ationists 11
att 11
atten@@ 11
aus 11
automatic 11
autonomous 11
aux 11
aving 11
awkward 11
baff@@ 11
ballo@@ 11
banker 11
banning 11
battled 11
berth 11
bicycle 11
bids 11
bility 11
bis 11
black-and-@@ 11
bled 11
bli@@ 11
blunt 11
bore 11
borrowing 11
bow 11
bows 11
branded 11
breeding 11
brick 11
brigade 11
broadcaster 11
broadcasts 11
burger 11
burglary 11
bypass 11
c-@@ 11
cabin 11
cafe 11
cally 11
campaigned 11
cann@@ 11
caring 11
casual 11
catcher 11
cate 11
cellphones 11
cemetery 11
cervical 11
chants 11
chap@@ 11
charm 11
charming 11
chat@@ 11
check@@ 11
cheek 11
chur@@ 11
cians 11
cigarettes 11
circles 11
circulated 11
cit@@ 11
cites 11
cky 11
clam@@ 11
clarity 11
cloud 11
coast@@ 11
coated 11
cocktail 11
collateral 11
collections 11
competent 11
compiled 11
compounds 11
conceived 11
congregation 11
constitu@@ 11
construc@@ 11
contends 11
contrary 11
controller 11
conversations 11
cooperating 11
coordination 11
copyright 11
costing 11
costumes 11
counterpart 11
cran@@ 11
cruel 11
crushing 11
ctions 11
cub@@ 11
culmin@@ 11
cure 11
curfew 11
curious 11
dairy 11
daunting 11
day-@@ 11
delicate 11
demonstrates 11
depic@@ 11
derived 11
deserved 11
dest@@ 11
dged 11
diabe@@ 11
dians 11
differenti@@ 11
digging 11
directing 11
disappointment 11
disciplined 11
disper@@ 11
displaced 11
dit@@ 11
donation 11
drag 11
dresses 11
easing 11
eco@@ 11
eder 11
edges 11
editing 11
editors 11
effectiveness 11
efficiently 11
efully 11
eira 11
eliminating 11
elo@@ 11
elt 11
embarrassed 11
emerges 11
ence-@@ 11
endorse 11
ener 11
enforce 11
enlar@@ 11
ental 11
entertaining 11
enting 11
entity 11
enty 11
eping 11
eps 11
equi@@ 11
esh@@ 11
esses 11
ests 11
etings 11
etta 11
ety 11
eu@@ 11
eway 11
examining 11
exempt 11
exotic 11
exploited 11
fain@@ 11
falsely 11
fashionable 11
fear@@ 11
feld 11
fen@@ 11
fiber 11
fielder 11
finale 11
financed 11
fireworks 11
fis@@ 11
fitted 11
flags 11
flesh 11
fluctu@@ 11
four-year 11
frag@@ 11
free@@ 11
full@@ 11
furn@@ 11
ga@@ 11
gamers 11
garlic 11
genes 11
graphic 11
green@@ 11
greet 11
grid 11
guerrilla 11
habitat 11
halfway 11
handsets 11
handsome 11
hangs 11
harmful 11
hatred 11
haunted 11
head-@@ 11
header 11
health@@ 11
hid 11
high-speed 11
hin@@ 11
hip-hop 11
historically 11
hockey 11
holder 11
hose 11
host@@ 11
ib 11
idi@@ 11
ignoring 11
illian 11
inate 11
individually 11
infants 11
ingo 11
inhib@@ 11
initi@@ 11
injunction 11
inking 11
instructor 11
intellec@@ 11
inter-@@ 11
interpreter 11
ior 11
iora 11
irate 11
irresponsible 11
issuing 11
izes 11
jah 11
jo 11
juice 11
jumper 11
jungle 11
jurisdiction 11
ker@@ 11
kickoff 11
kie 11
kov 11
laden 11
lag@@ 11
lau@@ 11
launches 11
lecture 11
li 11
liberty 11
lica 11
life@@ 11
lified 11
lightly 11
lik@@ 11
limiting 11
lman 11
lobbied 11
lobbyist 11
locally 11
locals 11
locate 11
lock@@ 11
logging 11
lone 11
mad@@ 11
malicious 11
mand@@ 11
mechanism 11
medications 11
mentality 11
metals 11
meth@@ 11
migration 11
military-@@ 11
mind-@@ 11
mini@@ 11
mission@@ 11
mob 11
modified 11
moment@@ 11
monetary 11
monster 11
mont 11
moo@@ 11
most-@@ 11
mun@@ 11
myth@@ 11
nas@@ 11
nat@@ 11
nel 11
neutral 11
newcomer 11
neys 11
nia 11
niece 11
nightmare 11
nings 11
num@@ 11
numbered 11
nur@@ 11
obscure 11
occurring 11
of@@ 11
offence 11
oman 11
omb@@ 11
onal 11
one-year 11
onte 11
ord 11
ored 11
originated 11
orn 11
orph@@ 11
ort@@ 11
osis 11
outbreaks 11
outcomes 11
outfit 11
outgoing 11
outscored 11
outsiders 11
outsourcing 11
oux 11
overhaul 11
overhead 11
overturn 11
overwhelmed 11
ovic 11
ow-@@ 11
oy@@ 11
parenting 11
partisan 11
patch 11
patches 11
peacekeepers 11
performs 11
permanently 11
persistent 11
petroleum 11
phs 11
pills 11
piracy 11
pizza 11
plain@@ 11
playground 11
pleasure 11
plum@@ 11
poisoning 11
policing 11
policymakers 11
poorly 11
portions 11
poses 11
possessions 11
poster 11
practicing 11
pre-tax 11
premier@@ 11
preserved 11
pris@@ 11
productions 11
profound 11
promotes 11
proportion 11
prote@@ 11
protective 11
protested 11
protesting 11
proudly 11
psycho@@ 11
publishers 11
put@@ 11
qualities 11
quarter-finals 11
quarterbacks 11
questionable 11
ranged 11
rati@@ 11
ratified 11
reaches 11
readily 11
realistic 11
reas@@ 11
recognise 11
recognised 11
record-@@ 11
recruitment 11
refer@@ 11
refers 11
refuge 11
regular-season 11
relaxed 11
relentless 11
reliability 11
rend@@ 11
reservations 11
reset 11
respon@@ 11
retrieve 11
reversing 11
rhythm 11
rical 11
ridden 11
rol@@ 11
romance 11
rows 11
saga 11
salmon 11
sam@@ 11
san 11
satellites 11
saturated 11
scary 11
schedules 11
scri@@ 11
scripted 11
season-ending 11
second-degree 11
seeds 11
sem@@ 11
separatist 11
sequel 11
serial 11
shi@@ 11
shocking 11
shoo@@ 11
shortstop 11
shrine 11
sibly 11
sin 11
sitcom 11
smoked 11
southeastern 11
soy@@ 11
spark 11
spear@@ 11
speci@@ 11
specializes 11
specifics 11
spilled 11
spinning 11
spouse 11
sprawling 11
spun 11
ss 11
sta 11
stairs 11
state-of-the-art 11
steer 11
sten 11
stering 11
straw 11
stret@@ 11
strings 11
strokes 11
stru@@ 11
sual 11
succeeded 11
succession 11
suffers 11
sufficiently 11
summar@@ 11
surgeons 11
swim 11
switching 11
sympathetic 11
tactical 11
tailored 11
tec 11
temper@@ 11
tendency 11
termin@@ 11
tha 11
than-expected 11
then-@@ 11
thrive 11
tices 11
til@@ 11
tness 11
topics 11
touted 11
traces 11
tracted 11
trademark 11
traffickers 11
trails 11
transcript 11
transform 11
treats 11
tricks 11
ts-@@ 11
tting 11
tunes 11
turkey 11
turnovers 11
twin 11
twist 11
ula 11
umbled 11
umping 11
unanimously 11
unconstitutional 11
undergo 11
underway 11
undisclosed 11
unsc@@ 11
unveiling 11
upe 11
ure@@ 11
utt@@ 11
vaccination 11
ventures 11
vie@@ 11
voys 11
vy 11
w-@@ 11
wal 11
warranty 11
waterboarding 11
waved 11
way@@ 11
wed@@ 11
weighted 11
well-being 11
whereas 11
woes 11
woke 11
workshop 11
worlds 11
worsening 11
worth@@ 11
year-olds 11
yon 11
Â 11
á@@ 11
'Brien 10
'Neill 10
-free 10
.-based 10
0.3 10
09@@ 10
1.9 10
107 10
114 10
116 10
123 10
13-year-old 10
137 10
16-year-old 10
165 10
171 10
1939 10
1940s 10
1941 10
1944 10
1961 10
1963 10
1965 10
1967 10
2,4@@ 10
20,@@ 10
2007-@@ 10
201 10
225 10
26-year-old 10
270 10
275 10
3-4 10
3.2 10
330 10
35,000 10
35-@@ 10
37-@@ 10
37.@@ 10
38-year-old 10
4,7@@ 10
4-2 10
5.8 10
55-@@ 10
6-0 10
600,000 10
66@@ 10
7-0 10
7.9 10
70,000 10
700,000 10
8,6@@ 10
800-@@ 10
850 10
86-@@ 10
9,9@@ 10
AB 10
Activ@@ 10
Adri@@ 10
Aires 10
All-@@ 10
Allan 10
Alle@@ 10
Amer@@ 10
Ark 10
Arm@@ 10
Armen@@ 10
Ass@@ 10
Astron@@ 10
Athens 10
Atkins 10
Attorneys 10
Audit 10
Azerbaijan 10
BS@@ 10
Barton 10
Bear@@ 10
Beatles 10
Beirut 10
Benn 10
Beyond 10
Bible 10
Buenos 10
CT 10
Cal 10
Cambodia 10
Candidates 10
Canterbury 10
Caroline 10
Castillo 10
Cec@@ 10
Cent 10
Cham@@ 10
Charts 10
Che 10
Chen 10
Chicag@@ 10
Chop@@ 10
Christine 10
Churchill 10
Cities 10
Civic 10
Clarkson 10
Clean 10
Clinic 10
Clooney 10
Conserv@@ 10
Cost@@ 10
Coun@@ 10
Counsel 10
Cox 10
Creek 10
Crisis 10
Cut 10
D-Calif 10
D-N.Y. 10
DU@@ 10
Da 10
Dear 10
Deborah 10
Dell 10
Dest@@ 10
Devils 10
Diamond 10
Dinner 10
Disaster 10
Doctor 10
Doha 10
Donovan 10
Downing 10
Driver 10
Drugs 10
Due 10
Dustin 10
E-mail 10
EQUITY 10
Edgar 10
Eff@@ 10
Elementary 10
Elsewhere 10
Eng@@ 10
Engineers 10
Eritrea 10
Ethics 10
Evening 10
Eye 10
FORD 10
FS 10
Families 10
Fast 10
Fight 10
Films 10
Fine 10
Flor@@ 10
Flyers 10
Flying 10
Foot@@ 10
Forward-looking 10
Frankfurt 10
Frederick 10
Frenchman 10
Fru@@ 10
G-@@ 10
GON 10
Galaxy 10
Gerrard 10
Gerry 10
Glen 10
Gloucester 10
Gregory 10
HAN@@ 10
Half 10
Hall@@ 10
Hamp@@ 10
Harlem 10
Hart@@ 10
Hend@@ 10
Histor@@ 10
Hits 10
Hockey 10
Hold 10
Holland 10
Hoover 10
Hopefully 10
Hous@@ 10
Hunt 10
INTER@@ 10
ION 10
IU 10
Incre@@ 10
Innovation 10
Investments 10
Iron@@ 10
Ivy 10
JO@@ 10
Jim@@ 10
Joan 10
Joey 10
Jury 10
K-@@ 10
KABUL 10
Kin@@ 10
Kirkuk 10
Known 10
Kon@@ 10
LCD 10
LES 10
LOGO 10
Lankan 10
Left 10
Leh@@ 10
Lei@@ 10
Leon@@ 10
Lexington 10
Logan 10
Loudoun 10
Lowe 10
Luc@@ 10
MD 10
MOSCOW 10
MRI 10
MSNBC 10
Male 10
Malik 10
Mall 10
Mang@@ 10
Martina 10
McNair 10
Mic@@ 10
Mill@@ 10
Millennium 10
Minist@@ 10
Mit@@ 10
Mother@@ 10
Mubarak 10
Must 10
Must@@ 10
NC@@ 10
Nap@@ 10
Nasser 10
Nationwide 10
Naval 10
Neuro@@ 10
Nev 10
Newport 10
Nik@@ 10
Nord@@ 10
North@@ 10
Northwestern 10
Novak 10
Odinga 10
Opec 10
Opportunity 10
Orioles 10
Os 10
Outlook 10
P-@@ 10
PCs 10
PO@@ 10
PP@@ 10
PRO@@ 10
Pack@@ 10
Participants 10
Pass 10
Patri@@ 10
Pay@@ 10
Penn@@ 10
Percent 10
Perez 10
Perkins 10
Petersburg 10
Pettitte 10
Pil@@ 10
Platform 10
Player 10
Porter 10
Potential 10
Prac@@ 10
Presidents 10
Proc@@ 10
Provision 10
Punjab 10
Quebec 10
Rail 10
Rand@@ 10
Randall 10
Rapids 10
Raymond 10
Real@@ 10
Recent 10
Refer@@ 10
Refu@@ 10
Regist@@ 10
Reli@@ 10
Remo@@ 10
Respon@@ 10
Rhys 10
Ricardo 10
Roch@@ 10
Ron@@ 10
Roo@@ 10
Roosevelt 10
Roth 10
Rubin 10
Rugby 10
Rules 10
Rumsfeld 10
SM@@ 10
STATEMENTS 10
Sabres 10
Sah@@ 10
Sandra 10
Scal@@ 10
Sear@@ 10
Self-@@ 10
Shadow 10
Shiites 10
Signs 10
Silver@@ 10
Silverman 10
Site 10
Slo@@ 10
Soldiers 10
Somali 10
Song 10
Spanish-@@ 10
Speech 10
Spice 10
Spokesman 10
Standing 10
Stars 10
Statements 10
Stin@@ 10
Store 10
Story 10
Strait 10
Suite 10
Sultan 10
Swan@@ 10
Swat 10
TIME 10
TON 10
TVs 10
Taking 10
Taleban 10
Tay@@ 10
Teams 10
Term 10
Terror 10
Thank 10
Thr@@ 10
Title 10
Torres 10
Tou@@ 10
Tracy 10
Trail 10
Trial 10
Troy 10
Tun@@ 10
UA@@ 10
UP@@ 10
UT 10
Ultimately 10
Un 10
Unity 10
Uribe 10
VM@@ 10
Ven@@ 10
Vernon 10
Vienna 10
Vince 10
Vir@@ 10
Wars 10
Waxman 10
Weinstein 10
Whitney 10
Windsor 10
Wing 10
Work@@ 10
Works 10
Yard 10
Zamb@@ 10
Zun@@ 10
able-@@ 10
abs 10
absurd 10
academics 10
accelerated 10
accessories 10
accountable 10
accurately 10
acing 10
ackers 10
ackle 10
advances 10
advertisers 10
advise 10
affluent 10
after-@@ 10
afterward 10
aggravated 10
ahr@@ 10
aim@@ 10
air-@@ 10
airwaves 10
ais 10
alia 10
alisation 10
allied 10
alumni 10
amb@@ 10
ambi@@ 10
ambush 10
amer 10
amine 10
ammed 10
ands 10
angel@@ 10
announces 10
any@@ 10
aped 10
apers 10
aping 10
appro@@ 10
archive 10
arest 10
arre@@ 10
arrogant 10
arson 10
arth 10
assaulted 10
assembled 10
asserted 10
atic-@@ 10
atop 10
attraction 10
aud@@ 10
aug@@ 10
aunt 10
authorization 10
auto@@ 10
automobile 10
avo@@ 10
awa 10
ayne 10
backyard 10
bankers 10
basement 10
basket 10
bath@@ 10
batter 10
batters 10
bei@@ 10
belongs 10
beneficiaries 10
benign 10
bert 10
bi 10
bidder 10
bil@@ 10
birdies 10
blames 10
blessed 10
boosting 10
booth 10
borrowings 10
bubble 10
bucket 10
bugs 10
buildup 10
bull 10
bull@@ 10
bun@@ 10
businessmen 10
buzz 10
calculation 10
caller 10
cancel 10
candy 10
capitalize 10
capturing 10
carn@@ 10
carpet 10
cartel 10
carved 10
castle 10
catalog 10
celebrations 10
certificate 10
chanting 10
characteristics 10
charred 10
cheating 10
checkpoints 10
chin 10
chin@@ 10
chopped 10
chore@@ 10
choreograph@@ 10
chorus 10
ci 10
clan 10
classical 10
classmates 10
classrooms 10
clever 10
clinch 10
clues 10
clutch 10
colonial 10
colour 10
coma 10
composition 10
compul@@ 10
conclusive 10
condemn 10
condition@@ 10
conditioning 10
confiscated 10
confron@@ 10
conserve 10
considerably 10
consul@@ 10
consumed 10
consuming 10
contrac@@ 10
contributing 10
convenience 10
converting 10
corp@@ 10
cough 10
crashes 10
crisp 10
cting 10
customary 10
danced 10
darkness 10
dawn 10
decides 10
decisive 10
declaring 10
deepening 10
defining 10
delaying 10
dell 10
dense 10
deported 10
dermat@@ 10
detailing 10
detection 10
deterioration 10
dictatorship 10
disagree 10
discovering 10
dish@@ 10
dismal 10
dismiss 10
disorders 10
displays 10
disposal 10
dissidents 10
distant 10
distress 10
doses 10
doubts 10
drum 10
dwell@@ 10
e.@@ 10
eck@@ 10
editions 10
edu 10
elders 10
electri@@ 10
ellan 10
embryos 10
emia 10
empire 10
engineered 10
enhancing 10
ensuing 10
eptive 10
esque 10
eurozone 10
evapor@@ 10
ex-husband 10
ex-wife 10
exagger@@ 10
exceeded 10
exceptional 10
expansive 10
extre@@ 10
facilit@@ 10
faded 10
famously 10
farther 10
favored 10
fever 10
fif@@ 10
filming 10
filmmakers 10
finishes 10
first-class 10
first-degree 10
first-ever 10
fle@@ 10
flour 10
flower 10
fly-@@ 10
four-game 10
freedoms 10
fronts 10
fruits 10
fted 10
fting 10
fulfilled 10
fum@@ 10
gal 10
gar 10
garbage 10
gas@@ 10
gays 10
gaz@@ 10
gel@@ 10
gem@@ 10
gently 10
ggy 10
glit@@ 10
glob@@ 10
goo@@ 10
gown 10
gravity 10
greeting 10
grenades 10
gros@@ 10
growers 10
guiding 10
gul@@ 10
gust 10
gym 10
halted 10
hardest 10
hart 10
haz@@ 10
heart-@@ 10
heavyweight 10
heightened 10
here@@ 10
high-level 10
highlighting 10
homicide 10
homosexuality 10
hungry 10
hurry 10
hygiene 10
iel@@ 10
ield 10
ielded 10
ified 10
ight@@ 10
igned 10
iler 10
illeg@@ 10
illicit 10
illon 10
imag@@ 10
impor@@ 10
importantly 10
incidence 10
incorrect 10
indul@@ 10
infamous 10
infr@@ 10
inherently 10
initiated 10
insurer 10
int@@ 10
integrate 10
intentions 10
interface 10
interpre@@ 10
inters 10
ironic 10
irony 10
itating 10
itations 10
itive 10
itter 10
iya 10
jan@@ 10
jee 10
journalism 10
jumps 10
keepers 10
ket 10
kingdom 10
kit@@ 10
knocking 10
lad@@ 10
lana 10
learnt 10
lef@@ 10
leton 10
line-up 10
lingering 10
liquor 10
listened 10
lit 10
lodge 10
logical 10
long-range 10
lop 10
lop@@ 10
lorry 10
low-cost 10
ls@@ 10
lumin@@ 10
lur@@ 10
machinery 10
majors 10
mammo@@ 10
manship 10
market@@ 10
marvel@@ 10
masters 10
mathemati@@ 10
meas@@ 10
menop@@ 10
mentor 10
merchant 10
mercy 10
mid 10
mid-1990s 10
middle-aged 10
middle-class 10
mir@@ 10
mobility 10
modernis@@ 10
monarchy 10
monkeys 10
motorists 10
mound 10
mourners 10
multimedia 10
naming 10
nasty 10
ners 10
news@@ 10
nod 10
nonsense 10
northeastern 10
not@@ 10
notic@@ 10
nut@@ 10
nutritional 10
o-based 10
oak 10
obstacle 10
occurs 10
offended 10
oh 10
old-@@ 10
ole@@ 10
olle@@ 10
olo 10
omer 10
omy 10
onian 10
onset 10
onstage 10
opping 10
organ 10
organ@@ 10
organizing 10
origin@@ 10
our@@ 10
ousness 10
outing 10
outline 10
outpost 10
outraged 10
ovation 10
overweight 10
owning 10
pac@@ 10
paramilitary 10
pasta 10
patron@@ 10
pet@@ 10
petitions 10
picks 10
piled 10
plagued 10
platforms 10
playwright 10
pledges 10
pless 10
plunge 10
plunged 10
poet 10
pole 10
polis 10
polit@@ 10
populated 10
portray 10
possibilities 10
posters 10
powder 10
powering 10
practiced 10
praying 10
prec@@ 10
premature 10
premiums 10
preparations 10
preview 10
princess 10
progressive 10
projection 10
prop@@ 10
protections 10
psychologist 10
que@@ 10
questionn@@ 10
quez 10
rack@@ 10
radic@@ 10
radioactive 10
railroad 10
rainfall 10
rano 10
rations 10
recipes 10
reck@@ 10
recommending 10
recruits 10
recycled 10
reinforced 10
rejection 10
relied 10
relieve 10
relocated 10
remedy 10
reopen 10
repurchase 10
respects 10
resting 10
rests 10
reunion 10
revelation 10
revenge 10
revive 10
rington 10
robots 10
roller 10
royalty 10
rub@@ 10
rubbish 10
salon 10
sam 10
sands 10
sang 10
satisfactory 10
sav@@ 10
scar@@ 10
scopic 10
scoreless 10
scramble 10
screen@@ 10
sculpture 10
seated 10
secre@@ 10
sell@@ 10
seminar 10
sence 10
separ@@ 10
separated 10
sequence 10
servicing 10
settlements 10
settling 10
sh 10
shaping 10
shattered 10
sher 10
shiny 10
shoe 10
shortage 10
shouting 10
shower 10
shrinking 10
shrugged 10
sibility 10
side-@@ 10
side@@ 10
simp@@ 10
simultaneously 10
ska 10
skies 10
slashing 10
sliding 10
slu@@ 10
sne@@ 10
sni@@ 10
sno@@ 10
solely 10
sou@@ 10
soundtrack 10
sour 10
southwest 10
space@@ 10
sparking 10
specially 10
speedy 10
spin@@ 10
spirits 10
sposed 10
spree 10
sq 10
staffers 10
state-run 10
stating 10
statue 10
stellation 10
stent 10
stimul@@ 10
stran@@ 10
structural 10
stuffed 10
stump 10
stylish 10
subjected 10
super 10
superintendent 10
supermarkets 10
superstar 10
suppose 10
surged 10
suring 10
surpassed 10
surrendered 10
swap 10
swi@@ 10
swift 10
tactic 10
tally 10
tanker 10
tapped 10
tarn@@ 10
tax@@ 10
tech@@ 10
techn@@ 10
tedly 10
tet 10
there@@ 10
throu@@ 10
tick 10
tightening 10
tiles 10
timetable 10
tore 10
tos 10
totaling 10
tou@@ 10
tough@@ 10
tract 10
tractors 10
travelled 10
trousers 10
trump@@ 10
tub 10
tumors 10
turf 10
turnout 10
typ@@ 10
ua 10
ubiquitous 10
ugly 10
um-@@ 10
unaware 10
unded 10
underwater 10
unds 10
ung-@@ 10
unilateral 10
uninsured 10
unlawful 10
unpredictable 10
unrelated 10
unt@@ 10
unted 10
up-@@ 10
upbeat 10
upgraded 10
urs@@ 10
usable 10
ushing 10
valu@@ 10
varieties 10
veget@@ 10
vement 10
venues 10
verb@@ 10
vice-@@ 10
vich 10
vicious 10
videotape 10
vil 10
vil@@ 10
warheads 10
washingtonpost.com 10
wast@@ 10
weakened 10
weird 10
west-@@ 10
will@@ 10
wishes 10
with@@ 10
withstand 10
wl 10
wood@@ 10
worl@@ 10
worrying 10
yelling 10
yman 10
ynn 10
zers 10
zzle 10
-K@@ 9
-P@@ 9
-fi 9
-like 9
-off 9
.net 9
0.1 9
001 9
1-4 9
1-800-@@ 9
10.5 9
111 9
118 9
135 9
151 9
155 9
159 9
164 9
17,000 9
170 9
175 9
185 9
1915 9
1945 9
1962 9
2,300 9
2-3 9
200-@@ 9
2016 9
2020 9
207 9
208 9
212-@@ 9
222 9
226 9
253 9
3.8 9
30-year 9
301 9
31.@@ 9
370 9
4-0 9
4.1 9
401 9
47-@@ 9
5.6 9
5.7 9
53-@@ 9
6.6 9
69@@ 9
7,7@@ 9
7,8@@ 9
7-5 9
70s 9
74@@ 9
8,4@@ 9
8,5@@ 9
8.5 9
800,000 9
8th 9
> 9
ABC@@ 9
AG@@ 9
AGE 9
AMD 9
ASH@@ 9
Acci@@ 9
Accountability 9
Acquisition 9
Actor 9
Advis@@ 9
African-American 9
Agent 9
Akbar 9
Ale@@ 9
Alicia 9
Alistair 9
Alo@@ 9
Already 9
Amendment 9
Amman 9
Amro 9
Angus 9
Announ@@ 9
Ans@@ 9
Arabs 9
Arafat 9
Arch@@ 9
Arn@@ 9
Assistance 9
Attacks 9
Audit@@ 9
Austrian 9
Aviv 9
Awar@@ 9
BALANCE 9
BER@@ 9
BP@@ 9
BS 9
Baden 9
Band 9
Barker 9
Bay@@ 9
Beautiful 9
Bee 9
Belgian 9
Blazers 9
Bo 9
Bog@@ 9
Boli@@ 9
Bollywood 9
Brat@@ 9
Brennan 9
Brett 9
Brid@@ 9
Brig. 9
Bring 9
Brother 9
Buchholz 9
Built 9
Buy 9
CDC 9
CIS 9
Cable 9
Caes@@ 9
Cand@@ 9
Cant@@ 9
Care@@ 9
Carpenter 9
Carroll 9
Category 9
Cell@@ 9
Chal@@ 9
Chandler 9
Changes 9
Chapel 9
Charges 9
Chaudhry 9
Chel@@ 9
Chem@@ 9
Chinese-@@ 9
Christ@@ 9
Clive 9
Co-@@ 9
Commit@@ 9
Consi@@ 9
Consoli@@ 9
Continental 9
Control@@ 9
Cow@@ 9
DENVER 9
DH@@ 9
DM@@ 9
Dab@@ 9
Dau@@ 9
Defending 9
Delegation 9
Demand 9
Desperate 9
Dha@@ 9
Dog@@ 9
Doris 9
EC@@ 9
EPS 9
Easter 9
Economics 9
Editing 9
Electri@@ 9
Eliot 9
Emily 9
Emp@@ 9
Episcopal 9
Erik 9
Ernie 9
Es 9
Especially 9
Essen@@ 9
Essex 9
Est@@ 9
Excellence 9
Exclu@@ 9
Exxon 9
FAA 9
FM 9
Fam@@ 9
Farmer 9
Farrell 9
Fay@@ 9
Felipe 9
Fenty 9
Fern@@ 9
Fif@@ 9
Figh@@ 9
Fighting 9
Fil@@ 9
Firm 9
Fitz@@ 9
Flood 9
Flowers 9
Fon@@ 9
Fox@@ 9
Franco 9
Front 9
Fuj@@ 9
Full 9
GH 9
GK@@ 9
GT 9
Ga 9
Gab@@ 9
Garry 9
Gau@@ 9
Gene 9
Generation 9
Georgian 9
Gill 9
Girardi 9
Gla@@ 9
God@@ 9
Got 9
Gy@@ 9
HBO 9
HER@@ 9
HOLDERS 9
HP 9
Hag@@ 9
Hampton 9
Hassel@@ 9
Hem@@ 9
Hey 9
Higgins 9
Hirsch 9
Ho 9
Holding 9
Honey@@ 9
Horn@@ 9
Hotels 9
Hud@@ 9
Hugh 9
Hurricanes 9
Hussain 9
I.A. 9
IMF 9
ING@@ 9
IO@@ 9
Inno@@ 9
Inspec@@ 9
Irvine 9
Issue 9
Italians 9
Ivan 9
JPMorgan 9
Jag@@ 9
Jal@@ 9
Javier 9
Jerome 9
Johns 9
Johnston 9
Joy 9
Jud@@ 9
Juli@@ 9
Kan 9
Kau@@ 9
Kay 9
Keane 9
Kend@@ 9
Kerr 9
Kessler 9
Kobe 9
Koreas 9
Kur@@ 9
Kuznetsova 9
LIABILITIES 9
Lad@@ 9
Landis 9
Laz@@ 9
Legend 9
Legion 9
Leo 9
Leslie 9
Letter 9
Lib 9
Lie@@ 9
Lights 9
Lind@@ 9
Lindsey 9
London-based 9
Long-term 9
Lorenzo 9
Luca 9
Lyn@@ 9
MAN@@ 9
MIT 9
Malaysian 9
Managers 9
Mann@@ 9
Marsh 9
Martha 9
Matthews 9
Max@@ 9
Mbeki 9
McCul@@ 9
Medi@@ 9
Meh@@ 9
Meredith 9
Midday 9
Mine 9
Minority 9
MoD 9
Molina 9
Month 9
Mother 9
Mountains 9
Mourinho 9
Moving 9
Multi-@@ 9
NC 9
NCAA 9
NP@@ 9
NW 9
NY 9
Naples 9
Native 9
Nato 9
Nature 9
Nicaragua 9
Nie@@ 9
Nigel 9
Niger 9
Nil@@ 9
Nissan 9
Northeast 9
Novo@@ 9
Numbers 9
Nutrition 9
Ochoa 9
Olivier 9
Om@@ 9
Omaha 9
Organisation 9
Ori@@ 9
PT 9
Pace 9
Pakistanis 9
Palestine 9
Pam 9
Paris@@ 9
Parish 9
Partner 9
Patriot 9
Pav@@ 9
Perfect 9
Phelps 9
Physi@@ 9
Pierce 9
Plac@@ 9
Plains 9
Pole 9
Polit@@ 9
Porsche 9
Powers 9
Premiership 9
Proceeds 9
Prodi 9
Producers 9
Prote@@ 9
Protocol 9
Py@@ 9
Q3 9
Questions 9
RBS 9
Rally 9
Ras@@ 9
Ready 9
Really 9
Recovery 9
Regarding 9
Regiment 9
Register 9
Remember 9
Reported 9
Reporter 9
Resorts 9
Richards 9
Robson 9
Rochester 9
Rocky 9
Rollins 9
Rove 9
Roy@@ 9
Rush@@ 9
SL@@ 9
Sacramento 9
Sak@@ 9
Sale 9
Salem 9
Samantha 9
Satellite 9
Saunders 9
Sax@@ 9
Sci@@ 9
Scots 9
Season 9
Sex@@ 9
Shan@@ 9
Sheets 9
Shop 9
Shot 9
Shu@@ 9
Siber@@ 9
Simmons 9
Sli@@ 9
Solution 9
Som@@ 9
Someone 9
Spac@@ 9
Spirit 9
Spre@@ 9
Stage 9
Stay 9
Steel 9
Steele 9
Stein@@ 9
Stock@@ 9
Stocks 9
Strat@@ 9
Strategy 9
Strike 9
Stu@@ 9
Stuttgart 9
Sue 9
Suffolk 9
Sugar 9
Sunderland 9
Surgery 9
Surve@@ 9
Syri@@ 9
TE 9
TI@@ 9
TOKYO 9
TOR@@ 9
Tari@@ 9
Teen 9
Tell 9
Ten@@ 9
Tex@@ 9
Therefore 9
Throughout 9
Tinto 9
Tour@@ 9
Tow@@ 9
Trojans 9
Truth 9
U.N.@@ 9
UC 9
UC@@ 9
UE 9
UNICEF 9
Unaudited 9
Uni@@ 9
Univers@@ 9
Used 9
Uzbekistan 9
VP 9
Vanderbilt 9
Vec@@ 9
Venus 9
Viacom 9
Vic@@ 9
Villa 9
Vin@@ 9
Vista 9
Vote 9
WALL@@ 9
WI@@ 9
WTO 9
Wah@@ 9
Wes 9
Western@@ 9
Whe@@ 9
Will@@ 9
Wine 9
Wins 9
Wit@@ 9
Wolf@@ 9
Wu@@ 9
Wyeth 9
Yas@@ 9
Yemeni 9
Yi 9
Yongbyon 9
York-based 9
Yorkshire 9
Zeppelin 9
abducted 9
abi 9
absolute 9
accommodation 9
accumulated 9
aci 9
acker 9
acou@@ 9
acqu@@ 9
acquiring 9
act@@ 9
addy 9
adier 9
administered 9
admired 9
adul@@ 9
advers@@ 9
ady 9
ae 9
ael 9
affe 9
agan 9
agon@@ 9
ahs 9
aiming 9
airstrikes 9
al-S@@ 9
alarming 9
alcohol@@ 9
alcoholic 9
alers 9
alog@@ 9
aluminum 9
aly 9
am-@@ 9
amassed 9
amaz@@ 9
amenities 9
aments 9
amnesty 9
amped 9
analyses 9
anche 9
ando 9
angled 9
anne 9
announcements 9
ano@@ 9
antine 9
anxious 9
apparel 9
arch 9
aria 9
arise 9
arrivals 9
arrives 9
artery 9
asis 9
assass@@ 9
assignment 9
associations 9
athletics 9
attracts 9
ault 9
automaker 9
ave 9
awake 9
bacon 9
banner 9
bargain 9
barri@@ 9
battlefield 9
bees 9
behave 9
belie@@ 9
believing 9
belly 9
belonging 9
belongings 9
bent 9
beverage 9
billed 9
billion-@@ 9
biology 9
births 9
bis@@ 9
blan@@ 9
blend 9
blogger 9
blood@@ 9
blow@@ 9
blue-@@ 9
body@@ 9
bodyguards 9
bombed 9
boom@@ 9
boots 9
boro 9
bother 9
bottled 9
bre 9
breached 9
bribery 9
brief@@ 9
bro 9
builder 9
built-in 9
bullpen 9
bus@@ 9
bush 9
busiest 9
buster 9
c.com 9
cables 9
camer@@ 9
campaigners 9
cancelled 9
canvas 9
cared 9
careers 9
casts 9
cel 9
cens@@ 9
census 9
chapters 9
characterized 9
chauff@@ 9
cheap@@ 9
cheer 9
chem@@ 9
chen 9
chickens 9
chio 9
cla@@ 9
clar@@ 9
cleaned 9
clearance 9
close-@@ 9
clou@@ 9
clubhouse 9
cluster 9
coached 9
cock 9
coer@@ 9
coffin 9
columns 9
combines 9
comfortably 9
commemor@@ 9
commentary 9
commentator 9
commissions 9
communicate 9
compares 9
compatible 9
compensate 9
competitor 9
con 9
cona 9
conditional 9
condolences 9
conflicts 9
congest@@ 9
congrat@@ 9
constituents 9
cont@@ 9
contested 9
contributor 9
contributors 9
convertible 9
cool@@ 9
cosmetic 9
cost-effective 9
cott 9
cousins 9
creator 9
criticize 9
criticizing 9
cros@@ 9
cruelty 9
crush 9
cted 9
cue 9
cultures 9
dant 9
daugh@@ 9
ddled 9
dear 9
decision-making 9
deer 9
defaults 9
defenseman 9
defy 9
demographic 9
denying 9
depicting 9
deprived 9
depths 9
descent 9
desirable 9
desired 9
desktop 9
destroying 9
detainee 9
deteriorating 9
deton@@ 9
deur 9
devote 9
diagno@@ 9
diagnostic 9
dice 9
dict@@ 9
dictator 9
dier 9
dilemma 9
dire 9
disappear 9
disen@@ 9
dising 9
disorderly 9
disrupted 9
dissident 9
distracted 9
distributing 9
dled 9
do-@@ 9
documentation 9
dogged 9
donated 9
doubling 9
downward 9
drastically 9
drawings 9
dridge 9
dried 9
drug@@ 9
drummer 9
dson 9
duc@@ 9
duck 9
dumping 9
eau 9
eclip@@ 9
ection 9
ection@@ 9
edi@@ 9
ego 9
eh 9
ehouse 9
ein 9
eing 9
elect 9
elementary 9
elephant 9
elephants 9
embar@@ 9
embracing 9
emph@@ 9
encouragement 9
endanger 9
endants 9
ende@@ 9
enjoys 9
ensing 9
enson 9
ensured 9
enthusiastic 9
entrepreneurs 9
enz@@ 9
epidemic 9
equality 9
eral 9
ergy 9
erty 9
escal@@ 9
essed 9
ethn@@ 9
eup 9
evenly 9
exclude 9
exhaust@@ 9
exposing 9
extravag@@ 9
fabulous 9
fai@@ 9
famili@@ 9
fancy 9
fat@@ 9
feasible 9
federation 9
fertile 9
fet@@ 9
ffing 9
fi 9
fications 9
figuration 9
flash@@ 9
flavor 9
flick 9
floated 9
fluid 9
foes 9
foo@@ 9
fool@@ 9
foot@@ 9
forests 9
forma 9
fort 9
foundations 9
freight 9
frustrating 9
fugitive 9
full-year 9
functional 9
fundraiser 9
fung@@ 9
gad@@ 9
gau@@ 9
gauge 9
gence 9
glimpse 9
glory 9
go-@@ 9
god@@ 9
governance 9
gradual 9
granddaughter 9
grasp 9
greed 9
griev@@ 9
grim 9
groin 9
gut 9
habit 9
handles 9
hated 9
headache 9
health-care 9
hear@@ 9
heel 9
hefty 9
heroin 9
hes@@ 9
high-quality 9
hin 9
horn 9
hugely 9
humanity 9
hunters 9
hydrogen 9
hypothe@@ 9
ible 9
icated 9
icial 9
icism 9
ickers 9
icks 9
ida 9
ided 9
idle 9
ido 9
ific@@ 9
ifies 9
ignment 9
ik 9
iko 9
ime 9
imi 9
impoverished 9
improperly 9
inadvertently 9
inaug@@ 9
inclined 9
inclusion 9
inde@@ 9
index@@ 9
indicator 9
indigenous 9
industrialized 9
inflammatory 9
inflicted 9
influenza 9
infra@@ 9
infringement 9
inquiries 9
insights 9
inst@@ 9
instrument 9
insurers 9
intensity 9
intentional 9
intentionally 9
interactions 9
intra@@ 9
invaded 9
investigative 9
invisible 9
iously 9
ires 9
iri 9
ision 9
ist-@@ 9
istan 9
it-@@ 9
itely 9
itous 9
itting 9
jet@@ 9
jockey 9
jol@@ 9
junk 9
kar@@ 9
kel@@ 9
ki@@ 9
kills 9
kiss 9
kling 9
kman 9
labeling 9
labo@@ 9
lacked 9
lamp@@ 9
landlord 9
landscap@@ 9
laptops 9
las@@ 9
last-minute 9
late-night 9
laundry 9
lawn 9
leather 9
left-wing 9
legend 9
len@@ 9
lend 9
lesser 9
lett 9
lette 9
leveraged 9
liar 9
liberals 9
licence 9
lie@@ 9
life-@@ 9
likelihood 9
limitation 9
lions 9
list@@ 9
lively 9
locating 9
los 9
lovers 9
mach@@ 9
magnificent 9
makeup 9
marginal 9
maturity 9
mau@@ 9
mediate 9
medic@@ 9
melt 9
meltdown 9
melting 9
member@@ 9
mented 9
mergers 9
merit 9
methodology 9
metro 9
midd@@ 9
mild 9
milit@@ 9
million-dollar 9
minimize 9
mirror 9
misery 9
mitting 9
mixing 9
mixture 9
mob@@ 9
modern@@ 9
morale 9
moratorium 9
mountainous 9
mouse 9
mum 9
murderer 9
muscles 9
museums 9
narrowed 9
nation@@ 9
naval 9
navig@@ 9
near@@ 9
negotiation 9
neighbouring 9
neuro@@ 9
newer 9
nominations 9
nonetheless 9
northwestern 9
notebook 9
nov@@ 9
now-@@ 9
nut 9
obese 9
oblig@@ 9
ody 9
offences 9
olit@@ 9
ologically 9
omers 9
oon 9
orchest@@ 9
orded 9
organised 9
ority 9
outrage 9
outskirts 9
oven 9
overshadowed 9
owment 9
own@@ 9
packs 9
palm 9
paraly@@ 9
pard 9
passports 9
paste 9
patents 9
patience 9
patri@@ 9
patrons 9
perf@@ 9
periodic 9
perjury 9
phil@@ 9
pianist 9
plaintiffs 9
plant@@ 9
plead 9
pleas@@ 9
pley 9
plight 9
policemen 9
polygam@@ 9
pond 9
pop@@ 9
populist 9
port@@ 9
positioned 9
potent 9
precisely 9
precision 9
prediction 9
preferences 9
pressured 9
priests 9
prince 9
printing 9
prizes 9
proc@@ 9
profession 9
projec@@ 9
promotions 9
prompt 9
pron@@ 9
prophe@@ 9
protocol 9
purely 9
qtada 9
quad@@ 9
quo@@ 9
racks 9
radiation 9
raged 9
raided 9
ramp@@ 9
ranch 9
rap 9
raping 9
rat 9
rator 9
re-elected 9
reactions 9
readiness 9
real-time 9
realise 9
recipe 9
refer 9
refurb@@ 9
rehear@@ 9
reliever 9
relying 9
remedi@@ 9
remembers 9
reminds 9
reminiscent 9
rene@@ 9
rented 9
rents 9
repay 9
residency 9
resisting 9
restrictive 9
retali@@ 9
retiree 9
revelations 9
rick 9
rider 9
ridge 9
rift 9
rit 9
robotic 9
rocket-@@ 9
rocky 9
rooted 9
rough@@ 9
rought 9
s' 9
sacked 9
safe@@ 9
sailed 9
sanc@@ 9
sanctioned 9
sar@@ 9
satisfy 9
scand@@ 9
scap@@ 9
sci@@ 9
scrap 9
seafood 9
seasonal 9
second-quarter 9
securing 9
sed@@ 9
semin@@ 9
sensitivity 9
sent@@ 9
serv@@ 9
server 9
settings 9
shadow 9
si 9
simulation 9
sizing 9
sk 9
skepticism 9
slash 9
slashed 9
slaves 9
slaying 9
slogans 9
slots 9
snakes 9
sour@@ 9
south@@ 9
speeds 9
sphere 9
splitting 9
spot@@ 9
spreads 9
staging 9
stair@@ 9
stap@@ 9
static 9
stered 9
steroid 9
stint 9
stirred 9
strangers 9
streaming 9
stretching 9
strictly 9
stro@@ 9
stud@@ 9
stunned 9
sung 9
superb 9
superior 9
supervision 9
supplement 9
surf 9
surfaces 9
suspen@@ 9
sweet@@ 9
swinging 9
tability 9
tabloid 9
tain@@ 9
tapping 9
taxpayers 9
technician 9
tees 9
televisions 9
tempted 9
ten-@@ 9
tenor 9
terribly 9
territories 9
texts 9
th-ranked 9
than-@@ 9
thanked 9
theatre 9
thef@@ 9
ther 9
thes@@ 9
thorough 9
threshold 9
thwarted 9
timber 9
tionary 9
tman 9
tober 9
tongue 9
tooth@@ 9
tortured 9
toughest 9
touring 9
traction 9
trafficking 9
trailers 9
transitional 9
transparent 9
travels 9
treasure 9
trim 9
tte 9
tumbled 9
twins 9
two-time 9
ug@@ 9
ulations 9
ulous 9
ultra-@@ 9
umbles 9
umm@@ 9
unarmed 9
unders 9
unlimited 9
untain 9
unwilling 9
urges 9
uro@@ 9
ussions 9
vacancy 9
vacations 9
valuation 9
vari@@ 9
vern@@ 9
vibr@@ 9
vice-president 9
vices 9
vide@@ 9
violently 9
vision@@ 9
vitamin 9
vodka 9
volcan@@ 9
von 9
voyage 9
vulnerability 9
wander@@ 9
wardly 9
was@@ 9
waterfront 9
wears 9
week@@ 9
whatsoever 9
wheel@@ 9
wicz 9
wide-ranging 9
wig@@ 9
wil@@ 9
wildfire 9
wines 9
wipe 9
wir@@ 9
wished 9
wolves 9
wondering 9
workplace 9
workshops 9
worship 9
writ@@ 9
writedowns 9
wrongly 9
xim@@ 9
xy 9
yad@@ 9
your@@ 9
yton 9
yuan 9
zations 9
ze-@@ 9
zen 9
zy@@ 9
zzi 9
è@@ 9
ï@@ 9
0.01 8
04@@ 8
1.4@@ 8
10-year-old 8
1000 8
104 8
109 8
11-year-old 8
122 8
131 8
156 8
16,000 8
18,000 8
19,000 8
193 8
1940 8
1942 8
1954 8
1957 8
1959 8
1960 8
1966 8
2.9 8
2006-@@ 8
2017 8
205 8
206 8
21,@@ 8
234 8
254 8
272 8
29-@@ 8
2m 8
3,3@@ 8
3,500 8
3.1 8
30-year-old 8
300@@ 8
33-@@ 8
35,@@ 8
350,000 8
36.@@ 8
364 8
39-year-old 8
39.@@ 8
4.0 8
43,@@ 8
44-@@ 8
48,@@ 8
49-@@ 8
5,4@@ 8
5,8@@ 8
500@@ 8
52,@@ 8
5p 8
5th 8
6,6@@ 8
6.1 8
6.2 8
6.3 8
7,0@@ 8
750,000 8
7th 8
8,0@@ 8
8.1 8
888 8
9.6 8
99@@ 8
A-Rod 8
A380 8
ALE@@ 8
Abd@@ 8
Abraham 8
Accumulated 8
Agen@@ 8
Alberta 8
Alexandria 8
Alice 8
Allied 8
Amanda 8
Amid 8
Anaheim 8
Angel@@ 8
Antarctic 8
Appeal 8
Approximately 8
Argentine 8
Asi@@ 8
Aside 8
Astros 8
Athletic 8
Australians 8
Auto@@ 8
Aziz 8
BAS@@ 8
Bag@@ 8
Bah@@ 8
Bahamas 8
Banking 8
Barber 8
Bartlett 8
Bash@@ 8
Basketball 8
Bentley 8
Bermuda 8
Bj@@ 8
Blanch@@ 8
Blood 8
Boat 8
Bobcats 8
Booker 8
Boris 8
Boss 8
Boy@@ 8
Bravo 8
Brendan 8
Britons 8
Broncos 8
Buch@@ 8
Budd@@ 8
Budget 8
CCTV 8
CDs 8
CF 8
CH 8
CIN@@ 8
CNN@@ 8
COLU@@ 8
CONTACT 8
Calif@@ 8
Candy 8
Casino 8
Caterpillar 8
Celebrity 8
Certainly 8
Chair 8
Chang@@ 8
Chap@@ 8
Chapman 8
Cher@@ 8
Cherry 8
Chic@@ 8
Choice 8
Christie 8
Cir@@ 8
Cisco 8
Civi@@ 8
Clar@@ 8
Clarence 8
Clay 8
Clear 8
Clemson 8
Cliff 8
Clint 8
Cob@@ 8
Colo 8
Colonel 8
Conn@@ 8
Consider 8
Continuing 8
Coordin@@ 8
Cornell 8
Cornwall 8
Corpor@@ 8
Crews 8
Cris@@ 8
Cristina 8
Crowe 8
Cups 8
Cut@@ 8
DALLAS 8
DV@@ 8
Dawn 8
Day@@ 8
Debate 8
Deep 8
Delgado 8
Diamondbacks 8
Dies 8
Dil@@ 8
Docum@@ 8
Donal@@ 8
Double 8
Dundee 8
Dw@@ 8
Dwight 8
Dynamics 8
EA 8
ECB 8
ETS 8
EUR 8
Econom@@ 8
Ecuador 8
Elections 8
Eli@@ 8
Els 8
Enh@@ 8
Establ@@ 8
Ever 8
Exper@@ 8
Extreme 8
FAS 8
FTSE 8
Fab@@ 8
Face 8
Factor 8
Fail@@ 8
Farmers 8
Fast@@ 8
Fat@@ 8
Father 8
Faz@@ 8
Ferrer 8
Finland 8
Fire@@ 8
Fla@@ 8
Flam@@ 8
Flex@@ 8
Forbes 8
Fortunately 8
Forward 8
Fra@@ 8
Franc@@ 8
Frat@@ 8
GI 8
GP 8
GR@@ 8
Gavin 8
Gazprom 8
Geneva 8
Geoffrey 8
Gets 8
Ghan@@ 8
Gilbert 8
Gim@@ 8
Gip@@ 8
Globe 8
Goals 8
Goes 8
Goldberg 8
Graeme 8
Grey 8
Guide 8
Guil@@ 8
Guinea 8
Guinness 8
HE@@ 8
HM 8
HPV 8
Haas 8
Haf@@ 8
Hale 8
Hancock 8
Hark@@ 8
Harold 8
Harper 8
Hawk 8
Heath 8
Hein@@ 8
Henri@@ 8
Hep@@ 8
Hib@@ 8
Hicks 8
High-@@ 8
Highland 8
Hir@@ 8
Hispanics 8
Historic 8
Holi@@ 8
Holloway 8
Home@@ 8
Hoo@@ 8
IL 8
IMAX 8
IPCC 8
IPO 8
ISI 8
Ign@@ 8
Initially 8
Innov@@ 8
Issues 8
It@@ 8
JERUSALEM 8
Jacob@@ 8
Jaguars 8
Jazz 8
Jihad 8
Job 8
Jon@@ 8
Jurors 8
Kaczynski 8
Kaine 8
Kap@@ 8
Karim 8
Kashmir 8
Kick@@ 8
Kings@@ 8
Kl@@ 8
Krist@@ 8
LD@@ 8
LP 8
LPGA 8
LU@@ 8
Lac@@ 8
Language 8
Latinos 8
Leading 8
Lec@@ 8
Leeds 8
Legislature 8
Lennon 8
Leon 8
Leonardo 8
Les 8
Libyan 8
Lieberman 8
Lines 8
Lion 8
Liter@@ 8
Location 8
Lohan 8
Lords 8
Lots 8
Louise 8
MR@@ 8
Ma 8
Mandela 8
Manny 8
Manufacturing 8
Marino 8
Mario 8
Marquez 8
Marsh@@ 8
Marvin 8
Matsui 8
McCl@@ 8
Measures 8
Melanie 8
Mental 8
Mess@@ 8
Michel 8
Mickey 8
Mik@@ 8
Mikhail 8
Mind 8
Mona 8
Moody 8
Moreno 8
Moroccan 8
Mozart 8
Murder 8
N.H. 8
NH@@ 8
NI 8
NT@@ 8
Named 8
Nathan 8
Nationals 8
Naz@@ 8
Neander@@ 8
Near 8
Nes@@ 8
Nikol@@ 8
Nina 8
Nixon 8
Non@@ 8
Nottingham 8
Nuri 8
OK@@ 8
ORE 8
Offers 8
Olson 8
Opponents 8
Orchestra 8
Organ@@ 8
Ott@@ 8
Owens 8
Ox@@ 8
PITTSBURGH 8
PM@@ 8
PS 8
PS@@ 8
Pak@@ 8
Pan 8
Partnership 8
Paula 8
Pear@@ 8
Petra 8
Pharm@@ 8
Phillip 8
Pistons 8
Poli@@ 8
Poll 8
Popular 8
Population 8
Preston 8
Previously 8
Prius 8
Programme 8
Programs 8
Progress 8
Protect 8
Protest@@ 8
Providence 8
RF@@ 8
RS 8
Radcliffe 8
Radi@@ 8
Raiders 8
Ralph 8
Range 8
Rebecca 8
Recently 8
Reconciliation 8
Reduc@@ 8
Reno 8
Revenues 8
Rever@@ 8
Ricky 8
Rid@@ 8
Ring@@ 8
Rising 8
Roche 8
Rockefeller 8
Rodgers 8
Room 8
Rose@@ 8
Round 8
Rover 8
Row@@ 8
Rowling 8
Rut@@ 8
SHE@@ 8
SL 8
ST 8
SU@@ 8
Sack@@ 8
Sad@@ 8
Salmond 8
Samsung 8
Sas@@ 8
Savage 8
Save 8
Scand@@ 8
Schneider 8
Scores 8
Scot 8
Scre@@ 8
Secre@@ 8
Sens. 8
Separately 8
Serbs 8
Sergeant 8
Seth 8
Sharks 8
Shirley 8
Silva 8
Similar 8
Sitting 8
Sl@@ 8
Sle@@ 8
Snyder 8
Sou@@ 8
Sparks 8
Speedway 8
Stand 8
Starr 8
Statistics 8
Stephanie 8
Sterling 8
Stre@@ 8
Sund@@ 8
Suns 8
Suzuki 8
Sz@@ 8
TB 8
TER@@ 8
TOTAL 8
TT@@ 8
Tau@@ 8
Temple 8
Terrorism 8
Texans 8
Thur@@ 8
Tibet 8
Timberlake 8
Tina 8
Tomas 8
Tot@@ 8
Tree 8
Trin@@ 8
Turk@@ 8
Twelve 8
UCLA 8
UEFA 8
UR 8
Universe 8
Us@@ 8
Usually 8
V-@@ 8
Vas@@ 8
Vaugh@@ 8
Via 8
Victor 8
Vikings 8
Viol@@ 8
Vodafone 8
Volunteers 8
Von@@ 8
Vul@@ 8
W.@@ 8
WS 8
Wachovia 8
Wall@@ 8
Weekly 8
Wein@@ 8
Weir 8
Whar@@ 8
Whole 8
Wind 8
Wings 8
Witnesses 8
Words 8
Worse 8
X-@@ 8
Year@@ 8
Yor@@ 8
Yushchenko 8
Zaw@@ 8
Zion@@ 8
absorbed 8
abusing 8
abusive 8
accent 8
acclaimed 8
accomplish 8
accum@@ 8
achie@@ 8
acles 8
aco 8
adamant 8
adaptation 8
adher@@ 8
adjusting 8
admire 8
adventures 8
advertisement 8
advises 8
advising 8
aerial 8
affir@@ 8
afterwards 8
ahe@@ 8
aher@@ 8
airplanes 8
airstrike 8
aise 8
al-Bashir 8
ald 8
alien@@ 8
alising 8
allocated 8
allowance 8
allu@@ 8
alogue 8
alter@@ 8
amy 8
analyzed 8
aned 8
angrily 8
ania 8
ank 8
anne@@ 8
anning 8
anno@@ 8
anny 8
ante 8
antibiotics 8
anx@@ 8
anza 8
appell@@ 8
appliances 8
applies 8
arin 8
ario 8
armored 8
artwork 8
asant 8
asleep 8
assessments 8
assisted 8
assumption 8
astic 8
astron@@ 8
athing 8
ativity 8
ator@@ 8
atrics 8
attering 8
attle 8
attributes 8
aturing 8
aud 8
authorize 8
autobiography 8
averaging 8
awar@@ 8
ay-@@ 8
baggage 8
bala 8
barring 8
basics 8
beh@@ 8
bels 8
belts 8
benchmarks 8
best-of-@@ 8
bikes 8
bill@@ 8
bin@@ 8
biologist 8
bleak 8
bles 8
block@@ 8
bloggers 8
blows 8
boarded 8
boarding 8
bolster 8
booking 8
bored 8
borrowed 8
boutique 8
bowled 8
boyco@@ 8
bracel@@ 8
brigades 8
brokered 8
browser 8
builds 8
bullying 8
bunker 8
bureaucracy 8
bureaucratic 8
bust 8
calcul@@ 8
capitali@@ 8
captures 8
cares 8
catalogue 8
catastrophic 8
categor@@ 8
cellular 8
centrifu@@ 8
cers 8
certi@@ 8
chaired 8
chan@@ 8
chaotic 8
chemistry 8
chlor@@ 8
chro@@ 8
chunk 8
circulation 8
civic 8
clan@@ 8
classi@@ 8
cler@@ 8
clerics 8
cling 8
closed-@@ 8
co-operation 8
coff@@ 8
coincidence 8
coli 8
collar 8
collector 8
comedian 8
complex@@ 8
compos@@ 8
concede 8
condomin@@ 8
condoms 8
conducts 8
cone 8
confessed 8
confined 8
conflicting 8
congreg@@ 8
connects 8
consen@@ 8
constituency 8
consume 8
container 8
contamination 8
continuation 8
contr@@ 8
contracting 8
contradic@@ 8
controllers 8
conveni@@ 8
cooling 8
cord@@ 8
cornerback 8
coronary 8
correction 8
correctly 8
correspondents 8
counsel@@ 8
counterinsurgency 8
court-@@ 8
cracking 8
creators 8
creature 8
crippling 8
criti@@ 8
critically 8
crowned 8
crum@@ 8
crystal 8
cumulative 8
curator 8
curtain 8
curve 8
custom 8
customized 8
cute 8
cyclist 8
d. 8
dah 8
damp@@ 8
dator 8
ddlers 8
deadliest 8
declar@@ 8
dedication 8
defam@@ 8
defiance 8
define 8
deforestation 8
deliber@@ 8
delight 8
delu@@ 8
dened 8
dens 8
dentist 8
departing 8
deportation 8
deputies 8
devised 8
diary 8
dictate 8
diction 8
diets 8
dignity 8
diminished 8
dine 8
diner 8
directs 8
disagreed 8
discriminate 8
discs 8
disgr@@ 8
disgu@@ 8
displaying 8
disrup@@ 8
distinc@@ 8
distinction 8
diti@@ 8
dive 8
diversified 8
dividends 8
divisive 8
doll 8
donating 8
donor 8
doubted 8
dow 8
downed 8
downloading 8
dres@@ 8
drilled 8
drums 8
dug 8
eag@@ 8
early-@@ 8
edged 8
educators 8
een 8
eers 8
eks 8
electorate 8
elic@@ 8
eline 8
ellen 8
ellers 8
eman@@ 8
embro@@ 8
emotionally 8
enact 8
end-@@ 8
energy-@@ 8
engulfed 8
entrepreneurial 8
equation 8
ero 8
escent 8
escorted 8
esman 8
ession 8
est-@@ 8
esty 8
ete@@ 8
evangel@@ 8
evic@@ 8
evolution 8
execute 8
exemp@@ 8
exhausted 8
existed 8
expe@@ 8
expenditure 8
expires 8
explor@@ 8
exported 8
expul@@ 8
extends 8
extinct 8
extradited 8
extradition 8
exuber@@ 8
face-to-face 8
facilitate 8
failings 8
far-@@ 8
fathers 8
favourites 8
feasi@@ 8
fetched 8
ffel 8
finalist 8
finger@@ 8
flag@@ 8
flurry 8
foe 8
footed 8
foremost 8
forgiven 8
forthcoming 8
forums 8
four-day 8
frac@@ 8
frankly 8
frenzy 8
fried 8
frightening 8
fruit@@ 8
ft-@@ 8
fundamentals 8
fusion 8
gadgets 8
galleries 8
gang@@ 8
gaps 8
garde 8
gardens 8
generator 8
gentleman 8
geography 8
get-@@ 8
ghost 8
gible 8
gio 8
gir@@ 8
globally 8
gment 8
gold-@@ 8
gonna 8
goodbye 8
govern@@ 8
governed 8
grader 8
grain 8
graphics 8
group@@ 8
gut@@ 8
guts 8
hab 8
hack 8
hackers 8
half-dozen 8
half-time 8
handic@@ 8
hang@@ 8
hap@@ 8
happier 8
hardship 8
harvest@@ 8
havoc 8
hears 8
hec@@ 8
heroic 8
hesit@@ 8
hide@@ 8
high-risk 8
high@@ 8
hit@@ 8
hitters 8
ho 8
holi@@ 8
holm 8
honoring 8
honoured 8
hourly 8
housed 8
hud@@ 8
hug 8
humble 8
hurricanes 8
hurting 8
husbands 8
hyp@@ 8
iPods 8
icy 8
ide 8
identities 8
ideology 8
idi 8
iker 8
iki 8
ilation 8
ilt 8
impe@@ 8
imperi@@ 8
imprisonment 8
impul@@ 8
in-house 8
inary 8
incoming 8
incomplete 8
incy 8
inda 8
independ@@ 8
indexes 8
indoors 8
ineffective 8
infin@@ 8
inform 8
inform@@ 8
ingu@@ 8
inherent 8
inherited 8
inity 8
inned 8
instances 8
instruction 8
insufficient 8
integrating 8
intensi@@ 8
interrup@@ 8
intersection 8
intim@@ 8
intimid@@ 8
intrigu@@ 8
iny 8
io@@ 8
ioning 8
iring 8
is-@@ 8
iser 8
isers 8
issuance 8
istically 8
itary 8
iz 8
izable 8
jack@@ 8
jaw 8
jects 8
jeopardy 8
jog@@ 8
jointly 8
joked 8
jud@@ 8
jun@@ 8
kar 8
key@@ 8
kh 8
killers 8
kt@@ 8
labs 8
lah 8
langu@@ 8
laps 8
lashes 8
leagues 8
leaked 8
leap@@ 8
leau 8
lemen 8
len 8
less-@@ 8
lessness 8
liance 8
libraries 8
lieutenant 8
lif@@ 8
lifelong 8
lifestyles 8
limin@@ 8
ling@@ 8
lips 8
lis@@ 8
listings 8
liz@@ 8
lodging 8
logo 8
loser 8
loudly 8
lymp@@ 8
lyrics 8
magaz@@ 8
magist@@ 8
maiden 8
makeover 8
makeshift 8
males 8
mandated 8
manifest@@ 8
manufacture 8
manufactures 8
marred 8
mas 8
maximize 8
mechanical 8
mechanisms 8
microphone 8
middle-@@ 8
milli@@ 8
minimal 8
ministries 8
minors 8
misdemeanor 8
miserable 8
mits 8
mix@@ 8
mobili@@ 8
mod@@ 8
modeled 8
mold 8
monarch 8
mortgage-backed 8
motive 8
mourning 8
mp 8
much-@@ 8
multimilli@@ 8
mur@@ 8
must-@@ 8
myth 8
nail 8
namely 8
national@@ 8
nearing 8
nec@@ 8
necessity 8
neck@@ 8
nee@@ 8
needing 8
neighbour 8
nes 8
net@@ 8
newest 8
nicely 8
niche 8
nie 8
no-one 8
non-cash 8
nonpartisan 8
north@@ 8
novelist 8
obsc@@ 8
observations 8
occupants 8
occurrence 8
oe 8
offenses 8
ok 8
olive 8
omin@@ 8
once-@@ 8
onen 8
ong-@@ 8
onslaught 8
oom 8
ope 8
opted 8
opy 8
orial 8
ost@@ 8
oun 8
outdoors 8
outings 8
outright 8
ova 8
ove 8
oxide 8
pack@@ 8
packaged 8
pad 8
pageant 8
pairing 8
pale 8
paras@@ 8
partic@@ 8
peacefully 8
pecu@@ 8
pen 8
penn@@ 8
perc@@ 8
pering 8
perv@@ 8
pes 8
pharmac@@ 8
pharmacy 8
phen@@ 8
pi@@ 8
pic@@ 8
pile 8
piling 8
pioneering 8
plaque 8
platinum 8
pleasant 8
pledging 8
plunging 8
plying 8
poems 8
poetry 8
poison 8
polite 8
pom@@ 8
portal 8
portfolios 8
post-mortem 8
postpon@@ 8
pot@@ 8
pounding 8
power-@@ 8
ppings 8
practically 8
predicts 8
prescribed 8
preserving 8
prey 8
prise 8
probable 8
proliferation 8
promp@@ 8
promptly 8
propaganda 8
protects 8
proteins 8
protest@@ 8
provoc@@ 8
proxy 8
psy@@ 8
pull@@ 8
pump@@ 8
pumping 8
pumps 8
punish 8
pursuant 8
py 8
qualifier 8
queu@@ 8
quirer 8
quote 8
quoting 8
rance 8
rard 8
ras 8
ration@@ 8
ravaged 8
recipient 8
recognizes 8
recognizing 8
recreation 8
recycling 8
refining 8
refle@@ 8
refra@@ 8
refuses 8
regim@@ 8
registry 8
regrets 8
regulate 8
relay 8
relegated 8
religions 8
reline 8
relinqu@@ 8
reluctance 8
rendered 8
renowned 8
repairs 8
repeating 8
repercussions 8
resear@@ 8
reservoir 8
resp@@ 8
restoring 8
resu@@ 8
reta@@ 8
revol@@ 8
revolt 8
rigs 8
rior 8
riots 8
ripe 8
rist 8
robbed 8
rock@@ 8
rod 8
roommate 8
rope 8
rot@@ 8
rous 8
rout 8
routed 8
royalties 8
rupe@@ 8
s-up 8
sacred 8
sail 8
sailors 8
salad 8
sandwiches 8
sati@@ 8
scans 8
scholar 8
scop@@ 8
scripts 8
scrum 8
sculptures 8
seas 8
secretly 8
semi@@ 8
semifinals 8
sensation 8
sensational 8
ser 8
servant 8
severance 8
severity 8
shaken 8
shakes 8
shaking 8
shocks 8
shootout 8
shorter 8
shortfall 8
shuff@@ 8
shutdown 8
shutting 8
signalled 8
sim@@ 8
sively 8
skating 8
ski@@ 8
slain 8
sleek 8
sleeves 8
slipping 8
slopes 8
slow-@@ 8
sluggish 8
sman 8
smiled 8
smith 8
socks 8
soli@@ 8
solving 8
someday 8
sooner 8
sophomore 8
sourced 8
soy 8
spawned 8
specialized 8
spect 8
spectators 8
speculate 8
spel 8
spelling 8
spi@@ 8
spinal 8
spl@@ 8
sponsorship 8
spr@@ 8
spur 8
spur@@ 8
spying 8
squads 8
stab 8
stabbing 8
stan@@ 8
star-@@ 8
start-up 8
stead 8
steopor@@ 8
stiff 8
stir 8
stopp@@ 8
stra 8
straightforward 8
strengths 8
stretched 8
stripes 8
stub@@ 8
subpoena 8
substances 8
succum@@ 8
suitable 8
surreal 8
surro@@ 8
sweat 8
sym@@ 8
synthetic 8
tained 8
taining 8
take@@ 8
tankers 8
tat@@ 8
tax-@@ 8
teamed 8
technolog@@ 8
temper 8
tending 8
tent@@ 8
termination 8
terr@@ 8
terror@@ 8
tful 8
thear@@ 8
thed 8
therapeutic 8
thereby 8
therm@@ 8
thief 8
thieves 8
thigh 8
thirds 8
three-quarters 8
three-run 8
three-time 8
thrill 8
thrilling 8
thu@@ 8
thumb 8
thy@@ 8
tia 8
tie-@@ 8
tiebre@@ 8
tigh@@ 8
tightly 8
tile 8
time-@@ 8
timeline 8
tingly 8
tm@@ 8
toes 8
toler@@ 8
tolerate 8
toll@@ 8
tom 8
tomatoes 8
tos@@ 8
tow@@ 8
tractor 8
traditions 8
transforming 8
translated 8
transparency 8
transported 8
travellers 8
tremend@@ 8
trib@@ 8
tron 8
tuberculosis 8
turbine 8
turn@@ 8
ument 8
uncle 8
undergraduate 8
undermined 8
uneasy 8
unfairly 8
uniquely 8
unle@@ 8
uns@@ 8
unsafe 8
unwanted 8
uphold 8
uri@@ 8
uries 8
urn 8
vacuum 8
valley 8
var 8
variations 8
ver-@@ 8
verdicts 8
verified 8
versity 8
vert 8
vibrant 8
vigorous 8
visibility 8
vivid 8
voked 8
vou@@ 8
vowing 8
vying 8
walk-@@ 8
wallet 8
ward-@@ 8
warfare 8
wartime 8
washing 8
wasted 8
weaknesses 8
websites 8
wee@@ 8
weigh 8
weigh@@ 8
west@@ 8
wet@@ 8
wheels 8
whipped 8
whoever 8
wicket 8
wickets 8
widow 8
wilderness 8
winding 8
worsened 8
wrap 8
wrest@@ 8
write-@@ 8
y-based 8
year-ago 8
yne 8
zzy 8
ó@@ 8
-I@@ 7
-out 7
-start 7
0.7 7
0.8 7
06@@ 7
1,800 7
117 7
1200 7
121 7
126 7
13.5 7
152 7
154 7
163 7
168 7
172 7
173 7
181 7
183 7
192 7
1933 7
1947 7
1950 7
1952 7
1956 7
1958 7
2-2 7
20-year-old 7
209 7
215 7
22-year-old 7
229 7
22nd 7
23rd 7
245 7
264 7
26th 7
27-year-old 7
29-year-old 7
3.9 7
32-year-old 7
33.@@ 7
340 7
35-year-old 7
3G 7
40-year-old 7
41-@@ 7
425 7
45-year-old 7
48-@@ 7
49,@@ 7
5.4 7
5.9 7
505 7
52-@@ 7
5ft 7
6-7 7
6-foot-@@ 7
6.4 7
6.5 7
60th 7
65,000 7
7.3 7
7.4 7
7.7 7
780 7
8,8@@ 7
8.4 7
8.8 7
800@@ 7
9,7@@ 7
9.3 7
90,000 7
9th 7
ACC 7
AD 7
ADA 7
AI 7
AK 7
ANS 7
Above 7
Abrams 7
Absolutely 7
Adm. 7
Administrator 7
Advertising 7
Aer@@ 7
Aerospace 7
Agn@@ 7
Agr@@ 7
Agricultural 7
Alec 7
Algerian 7
Aling@@ 7
Alison 7
Ama@@ 7
Amar@@ 7
Ambul@@ 7
Anat@@ 7
Anchorage 7
Anci@@ 7
Angli@@ 7
Anita 7
Apparently 7
Appro@@ 7
Aqu@@ 7
Armenian 7
Arms 7
Ashley 7
Assi@@ 7
B.A. 7
BCS 7
BE 7
BL@@ 7
BURG 7
Bac@@ 7
Ballet 7
Banglad@@ 7
Barnes 7
Barr 7
Basi@@ 7
Bath 7
Battalion 7
Beck@@ 7
Bengals 7
Benitez 7
Benn@@ 7
Berg@@ 7
Bernie 7
Birk@@ 7
Blon@@ 7
Bloom 7
Bolivia 7
Boulder 7
Bowman 7
Branch 7
Brand 7
Brands 7
Break@@ 7
Breast 7
Brigade 7
Broad 7
Bron@@ 7
Brookings 7
Bruins 7
Buck 7
Bud 7
Bulletin 7
Bus@@ 7
Byron 7
CM@@ 7
CON@@ 7
COR@@ 7
CSI 7
Cairo 7
Called 7
Cann@@ 7
Cannon 7
Canyon 7
Captain 7
Career 7
Certain 7
Chamberlain 7
Champ@@ 7
Chapter 7
Charter 7
Cheshire 7
Chester 7
Chi 7
Citizens 7
Cla@@ 7
Clegg 7
Cler@@ 7
Clippers 7
Coffee 7
Col 7
Collection 7
Compan@@ 7
Complete 7
Conan 7
Connolly 7
Consu@@ 7
Consulting 7
Corn 7
Corn@@ 7
Counc@@ 7
Course 7
Croatian 7
Cross@@ 7
Crow@@ 7
Crude 7
Cust@@ 7
Customer 7
Cutler 7
Cyprus 7
DETROIT 7
DIEGO 7
DO 7
DR 7
Dad 7
Daddy 7
Daley 7
Dance 7
Danielle 7
Dav@@ 7
Daw@@ 7
Deep@@ 7
Dem 7
Dems 7
Denis 7
Depar@@ 7
Depot 7
Devil 7
Di 7
Diabetes 7
Die 7
Differ@@ 7
Dollars 7
Downs 7
Drive 7
Drogba 7
Dru@@ 7
EADS 7
ED@@ 7
EM 7
ERE 7
EUR@@ 7
Echo 7
Edison 7
Electronic 7
Ellison 7
Engine 7
Ericsson 7
Eriksson 7
Ernst 7
Esk@@ 7
Estonia 7
Eth@@ 7
Eu@@ 7
Eugene 7
Euronext 7
Everton 7
FE 7
FF 7
FI 7
FS@@ 7
Faith 7
Fans 7
Faust@@ 7
Fid@@ 7
Finding 7
Fis@@ 7
Fischer 7
Flu 7
Flynn 7
Franch@@ 7
Francois 7
Franz 7
Fujim@@ 7
Fulham 7
Fund@@ 7
GI@@ 7
GO@@ 7
Gabri@@ 7
Gamble 7
Gand@@ 7
Gandhi 7
Gang 7
Gareth 7
Gilli@@ 7
Glass 7
Goodman 7
Gov 7
Grammy 7
Greene 7
Gregg 7
Griff@@ 7
Grou@@ 7
Gru@@ 7
Guards 7
Gur@@ 7
HD@@ 7
HI 7
HOUSTON 7
HU@@ 7
Hagel 7
Hair@@ 7
Haiti@@ 7
Hak@@ 7
Hands 7
Hann@@ 7
Hansen 7
Happ@@ 7
Hawkins 7
Hawks 7
Heavy 7
Hell 7
Helmand 7
Heroes 7
Himalayan 7
Hit 7
Hitler 7
Hob@@ 7
Holy@@ 7
Homes 7
Hop 7
Horiz@@ 7
Host 7
Humph@@ 7
Hungary 7
Huntington 7
Hyundai 7
ICH@@ 7
INE 7
Imam 7
Ind 7
Inde@@ 7
Individual 7
Industrial 7
Intel@@ 7
Inverness 7
Israeli-Palestinian 7
Itali@@ 7
Ivan@@ 7
Jacob 7
Jankovic 7
Jarvis 7
Jay-Z 7
Jeter 7
Jiang 7
Jill 7
Jindal 7
Job@@ 7
Judd 7
Judy 7
Jun@@ 7
Jupiter 7
Jur@@ 7
Justine 7
K.@@ 7
Kahn 7
Kanye 7
Kaplan 7
Katherine 7
Kazak@@ 7
Keny@@ 7
Kenyan 7
Kidman 7
Kier@@ 7
Kill@@ 7
Kline 7
Knox 7
Korn@@ 7
Kun@@ 7
Ky 7
Kyle 7
LAND 7
LC 7
LL 7
LT@@ 7
Lach@@ 7
Lambert 7
Lang@@ 7
Lans@@ 7
Las@@ 7
Laurie 7
Lay 7
Learn 7
Learning 7
Leave 7
Lenn@@ 7
Let@@ 7
Lex@@ 7
Liabilities 7
Lik@@ 7
Lim@@ 7
Lives 7
Llan@@ 7
Loan 7
Lockheed 7
Lou 7
Louis@@ 7
Low@@ 7
Lucia 7
Lucky 7
Lud@@ 7
Macquar@@ 7
Mad 7
Mafia 7
Makes 7
Malta 7
Manufacturers 7
Mary@@ 7
Match 7
Mathe@@ 7
Matt@@ 7
Maxwell 7
Maya 7
McFadden 7
Media@@ 7
Melbourne 7
Methodist 7
Micro 7
Mill 7
Milton 7
Mim@@ 7
Moden@@ 7
Moments 7
Money@@ 7
Motorola 7
Mugabe 7
Mullen 7
Multi@@ 7
N-@@ 7
NAS@@ 7
ND 7
NOR@@ 7
NTS 7
Nam@@ 7
National@@ 7
Nau@@ 7
Nazis 7
Neal 7
Ner@@ 7
Nice 7
Nike 7
Nin@@ 7
Nob@@ 7
Noble 7
Nordic 7
Normally 7
Nov 7
Nut@@ 7
Nymex 7
O-@@ 7
O2 7
OO@@ 7
OR 7
Oce@@ 7
One-@@ 7
Opening 7
Oscar-winning 7
Oz@@ 7
PAS@@ 7
PEC 7
PEN@@ 7
PG 7
PH@@ 7
Paisley 7
Parade 7
Parks 7
Parsons 7
Patterson 7
Paulo 7
Payne 7
Pc 7
Peac@@ 7
Performance 7
Period 7
Persian 7
Pes@@ 7
Pom@@ 7
Pop 7
Posada 7
Post@@ 7
Pow@@ 7
Previous 7
Primary 7
Principal 7
Priv@@ 7
Problem 7
Product 7
Professional 7
Promo@@ 7
Protestant 7
Prudential 7
Ps 7
Psych@@ 7
Pum@@ 7
Purdue 7
QB 7
Quo@@ 7
RT@@ 7
Rahman 7
Rail@@ 7
Rand 7
Re 7
Reality 7
Reds 7
Regul@@ 7
Religion 7
Reporters 7
Resource 7
Response 7
Restaurant 7
Rev@@ 7
Rick@@ 7
Rise 7
Robbins 7
Rod 7
Romania 7
Ronnie 7
Rossi 7
Royals 7
Rule 7
Russ 7
SAN@@ 7
SN@@ 7
SUN@@ 7
Sag@@ 7
Sally 7
Same 7
Sanc@@ 7
Sang@@ 7
Santiago 7
Sara 7
Schi@@ 7
Schmidt 7
Score 7
Scot@@ 7
Seal 7
Sed@@ 7
Selling 7
Sep@@ 7
Sevilla 7
Shareholders 7
Sharp 7
Shea 7
Sherman 7
Shia 7
Shopping 7
Short-@@ 7
Shortly 7
Shows 7
Shuttle 7
Shwe 7
Signific@@ 7
Sir@@ 7
Smi@@ 7
Socialist 7
Soldier 7
Solic@@ 7
Sotheby 7
Sovie@@ 7
Spa 7
Spar@@ 7
Speed 7
Spin@@ 7
Sporting 7
Spring 7
Stalin 7
Stamford 7
Stan 7
Stru@@ 7
Suez 7
Suisse 7
Sum@@ 7
Summer 7
Sus@@ 7
Swansea 7
Symphony 7
TI 7
TM@@ 7
Takes 7
Tap@@ 7
Tax@@ 7
Taxi 7
Telecom 7
Terminal 7
Terrorist 7
Tests 7
Tex 7
Than@@ 7
Theft 7
Thirty-@@ 7
Thus 7
Tin@@ 7
Toni 7
Tottenham 7
Touch 7
Tourism 7
Towers 7
Train 7
Transit 7
Treatment 7
Treaty 7
Tribunal 7
True 7
Turks 7
U.S.-backed 7
UE@@ 7
UM@@ 7
UNH@@ 7
USC 7
USD 7
Uruguay 7
Users 7
V.@@ 7
Valentine 7
Value 7
Vanessa 7
Veh@@ 7
Venture 7
Vera 7
Ves@@ 7
Veteran 7
Vice-@@ 7
Vietnamese 7
Villiers 7
Vit@@ 7
Volume 7
W-@@ 7
WM@@ 7
WTA 7
Wakefield 7
Waziristan 7
Website 7
Weeks 7
Wei@@ 7
Welch 7
Whenever 7
Whis@@ 7
Wild@@ 7
Winkler 7
Winners 7
Word 7
Wu 7
XL 7
Xin@@ 7
Yang@@ 7
Yates 7
Yorker 7
Yusuf 7
Zardari 7
Zub@@ 7
Zul@@ 7
aa 7
abad 7
abandoning 7
abduction 7
abide 7
abolic 7
absor@@ 7
abundant 7
abyte 7
accelerating 7
accomplishments 7
achment 7
adapt 7
additions 7
adeh 7
adop@@ 7
advancing 7
aer@@ 7
affection 7
afloat 7
agh 7
ague-@@ 7
aisle 7
aj 7
akening 7
aky 7
alise 7
alities 7
alleys 7
allow@@ 7
alo 7
amateur 7
ambush@@ 7
ami@@ 7
ammer 7
amon 7
anas 7
ancestors 7
anecdo@@ 7
ango 7
angu@@ 7
anian 7
anic 7
annu@@ 7
anta 7
anti-government 7
antibio@@ 7
apartheid 7
aper 7
appar@@ 7
apples 7
approving 7
architec@@ 7
archives 7
arguably 7
as-based 7
asc@@ 7
ashvili 7
aspirations 7
assail@@ 7
assing 7
assisting 7
aston@@ 7
atch 7
ather 7
atin 7
atmosp@@ 7
atric 7
atro@@ 7
attendees 7
attractions 7
auctioned 7
audit@@ 7
auditors 7
auer 7
aught 7
ause 7
aut 7
authored 7
autonomy 7
aven@@ 7
back-@@ 7
backgrounds 7
backlash 7
bacter@@ 7
balloons 7
bank@@ 7
bargains 7
battalion 7
beard 7
beats 7
beck@@ 7
bee 7
behavioral 7
belong 7
benefiting 7
ber-@@ 7
bery 7
bias 7
bic@@ 7
billi@@ 7
biography 7
biop@@ 7
birdie 7
bishop 7
bizarre 7
black-@@ 7
blade 7
bloo@@ 7
blood-@@ 7
blur@@ 7
boasted 7
bodily 7
borg 7
borrower 7
botched 7
bout 7
bowed 7
bowling 7
bps 7
brain@@ 7
brass 7
breaches 7
breasts 7
bred 7
bride 7
bubbles 7
bug 7
builders 7
bump 7
burnt 7
buzz@@ 7
bye 7
cad@@ 7
cakes 7
calculate 7
cali@@ 7
caliber 7
cals 7
camping 7
can-@@ 7
cancellation 7
capita 7
capital@@ 7
cardiac 7
cardiovascular 7
career-high 7
cargo 7
cautions 7
celeb@@ 7
celebrates 7
censorship 7
chair@@ 7
challenger 7
chambers 7
champ@@ 7
championed 7
chan 7
change@@ 7
charis@@ 7
charts 7
cheers 7
chefs 7
choir 7
chuck@@ 7
chunks 7
city-@@ 7
civi@@ 7
cket 7
clarify 7
class-@@ 7
classics 7
clause 7
clay 7
cleaner 7
clicking 7
closes 7
closet 7
closures 7
clouds 7
co-workers 7
cock@@ 7
collaborative 7
collapsing 7
columnist 7
comb 7
comb@@ 7
combating 7
combining 7
come@@ 7
commanding 7
commemorate 7
commuters 7
competed 7
compromised 7
compromising 7
concentrations 7
concep@@ 7
concludes 7
condemning 7
confer@@ 7
confirms 7
confusing 7
connectivity 7
consistency 7
console 7
conspir@@ 7
constitutes 7
construct 7
consult 7
contempt 7
contingent 7
convene 7
conventions 7
coordin@@ 7
corners 7
corpor@@ 7
correc@@ 7
cosm@@ 7
costume 7
cot 7
councillor 7
coupled 7
court@@ 7
coveted 7
cracks 7
crashing 7
credit@@ 7
cries 7
crimin@@ 7
criticisms 7
crossings 7
crow@@ 7
cryp@@ 7
cts 7
cups 7
cushion 7
customs 7
cutting-edge 7
cynical 7
damaging 7
dangerously 7
dants 7
daytime 7
deadlock 7
debacle 7
debts 7
decree 7
dedic@@ 7
dee 7
deep-@@ 7
deep@@ 7
defenders 7
definite 7
dehydr@@ 7
deliveries 7
demolished 7
demon@@ 7
denomin@@ 7
departed 7
depicted 7
deploying 7
deployments 7
depos@@ 7
derson 7
deser@@ 7
desperation 7
destro@@ 7
detec@@ 7
determin@@ 7
determining 7
devotion 7
dges 7
dh 7
diaries 7
dic 7
dical 7
diffic@@ 7
dig 7
digest@@ 7
diminish 7
dings 7
dipped 7
discharged 7
discomfort 7
discounts 7
discour@@ 7
discrepan@@ 7
disguised 7
distor@@ 7
distraction 7
distributor 7
distributors 7
distur@@ 7
dition@@ 7
diver@@ 7
diverted 7
dolls 7
dolphins 7
domen 7
domin@@ 7
dominating 7
dorf 7
doub@@ 7
downloaded 7
downloads 7
drain 7
drained 7
driveway 7
drowning 7
dull 7
duly 7
dunk 7
dur@@ 7
dynamics 7
e-based 7
e-up 7
earing 7
earnest 7
ears 7
eats 7
ecological 7
ecosystem 7
edly 7
eds 7
educ@@ 7
edy 7
efficiencies 7
ehan 7
eight-year 7
eive 7
elis 7
elusive 7
ema 7
embol@@ 7
ements 7
emergence 7
emotion 7
emotions 7
encountered 7
endure 7
ene@@ 7
energi@@ 7
ennial 7
enormously 7
enrich 7
ensic 7
entic@@ 7
enton 7
entr@@ 7
envelope 7
envisioned 7
eny 7
eradic@@ 7
erst@@ 7
escalated 7
escalating 7
escence 7
esh 7
esi 7
eside 7
essay 7
ester 7
ester@@ 7
eta 7
eter 7
eters 7
ett@@ 7
excav@@ 7
executing 7
exemption 7
expedition 7
explicitly 7
extinction 7
f-@@ 7
fab@@ 7
failures 7
fairness 7
fallout 7
farmland 7
fascinated 7
faul@@ 7
favor@@ 7
favorites 7
favoured 7
fax 7
fei@@ 7
feit@@ 7
females 7
fences 7
fertility 7
festivals 7
fianc@@ 7
finalized 7
fing@@ 7
firefighter 7
first-time 7
fix@@ 7
fixtures 7
fluctuations 7
fly@@ 7
fo 7
foam 7
foil 7
fool 7
forbidden 7
forefront 7
fort@@ 7
fortnight 7
fracture 7
frames 7
franchises 7
freelance 7
frequ@@ 7
friend@@ 7
frightened 7
frontier 7
frustr@@ 7
fs 7
fueling 7
full-service 7
fury 7
generators 7
generic 7
geograph@@ 7
ges@@ 7
gest-@@ 7
gic 7
gifted 7
girl@@ 7
gled 7
good-@@ 7
good@@ 7
goodwill 7
gossip 7
governors 7
grabbing 7
grading 7
graduation 7
granting 7
grat@@ 7
greg@@ 7
gregation 7
grief 7
ground-@@ 7
grounder 7
guild 7
guitarist 7
half-hour 7
hampered 7
har 7
harmony 7
hast@@ 7
hazardous 7
hazards 7
heal 7
helmet 7
hence 7
herd 7
highways 7
hills 7
hint 7
hm 7
homemade 7
homosexual 7
hour@@ 7
hua 7
human-@@ 7
humiliation 7
hurts 7
ice@@ 7
ices 7
icide 7
icked 7
ickl@@ 7
ida@@ 7
identifies 7
ifications 7
illance 7
illustrates 7
ilo 7
imagery 7
immer@@ 7
impacted 7
impati@@ 7
implic@@ 7
impres@@ 7
improbable 7
improves 7
incarcer@@ 7
incorporated 7
incumbent 7
independents 7
indirect 7
ine-@@ 7
iner 7
inexperienced 7
ineyard 7
ingenu@@ 7
injected 7
inqu@@ 7
inserted 7
inspected 7
inspiring 7
installing 7
installment 7
instit@@ 7
instruc@@ 7
insult 7
intake 7
interact 7
interpretation 7
intimidation 7
intriguing 7
inviting 7
ip 7
isa 7
ishable 7
itali@@ 7
itic 7
jack 7
jackets 7
jiha@@ 7
jin 7
judgement 7
junction 7
kel 7
kem@@ 7
kh@@ 7
knowingly 7
knowle@@ 7
lah@@ 7
lain 7
laser 7
lash 7
last-@@ 7
lating 7
laughs 7
laughter 7
lavish 7
layoffs 7
leadoff 7
leaf@@ 7
leb@@ 7
lecturer 7
lectures 7
lee 7
left-hander 7
legitimacy 7
lengths 7
leni@@ 7
lent 7
lia 7
liaison 7
lifts 7
lip 7
liqui@@ 7
lith@@ 7
livestock 7
loch 7
locks 7
logistics 7
looming 7
lot@@ 7
lun@@ 7
lus 7
mac 7
mac@@ 7
madness 7
mail@@ 7
mailed 7
mak@@ 7
malls 7
manned 7
mapping 7
mar 7
marital 7
marry 7
matchup 7
maternal 7
matic 7
maver@@ 7
maxim@@ 7
mbled 7
med@@ 7
memoir 7
mer-@@ 7
merged 7
mg 7
mighty 7
ming@@ 7
miniature 7
mir 7
mirrors 7
misses 7
misuse 7
modestly 7
modi@@ 7
money-@@ 7
monkey 7
monument 7
morally 7
mother@@ 7
motivation 7
mountain@@ 7
mt 7
murder@@ 7
murky 7
narcotics 7
natur@@ 7
navigation 7
needle 7
needy 7
nerv@@ 7
nest 7
newborn 7
nik@@ 7
non-profit 7
nour@@ 7
novels 7
nursery 7
nuts 7
obliged 7
obstruc@@ 7
och 7
och@@ 7
ock 7
oed 7
offspring 7
oil-@@ 7
oil-rich 7
oil@@ 7
oing 7
ollen 7
omed 7
onally 7
onder@@ 7
one-off 7
onlin@@ 7
ont 7
ool 7
ophile 7
oping 7
oppers 7
oren 7
orer 7
orphan@@ 7
osity 7
oted 7
ounces 7
ouncing 7
oused 7
oust 7
outrageous 7
outsider 7
overlooked 7
oversaw 7
overturned 7
ovich 7
owes 7
painter 7
par-@@ 7
parall@@ 7
parental 7
parish 7
partment 7
partnered 7
passages 7
passive 7
patron 7
pay-@@ 7
peaks 7
penet@@ 7
percent@@ 7
perceptions 7
performance-enhancing 7
perimeter 7
persona 7
phenomenal 7
phin 7
photo@@ 7
physi@@ 7
picnic 7
pig@@ 7
pinch 7
pinned 7
pip@@ 7
pipes 7
pistol 7
pitchers 7
pla@@ 7
planets 7
ple 7
podium 7
poke 7
polled 7
poon 7
poorer 7
popping 7
pornogra@@ 7
portrayal 7
possessing 7
postal 7
potatoes 7
pouring 7
power-play 7
pper@@ 7
prefer@@ 7
preservation 7
presided 7
pretending 7
prime-time 7
principals 7
prints 7
privat@@ 7
privileg@@ 7
privileged 7
processor 7
promoter 7
proportions 7
prosecutions 7
provisional 7
psychiatric 7
psychology 7
pub@@ 7
punt 7
puppy 7
qualification 7
qualifications 7
quarterfinals 7
quell 7
queue 7
quiries 7
qvist 7
rag@@ 7
rail@@ 7
rainy 7
rallying 7
randomly 7
rang 7
ransom 7
ratt 7
rau@@ 7
rd 7
reassure 7
receipts 7
reconcile 7
recur@@ 7
recurring 7
reduces 7
rees 7
refrain 7
regained 7
regimes 7
regulator 7
reimbur@@ 7
rein 7
reinforce 7
rejects 7
rek@@ 7
reli@@ 7
relie@@ 7
reneg@@ 7
replaces 7
reply 7
repression 7
reproductive 7
requesting 7
rescu@@ 7
resemble 7
resi@@ 7
resilience 7
responds 7
retaining 7
reti@@ 7
revise 7
revolution@@ 7
richer 7
richest 7
rides 7
rimin@@ 7
rimon@@ 7
ris 7
risk-@@ 7
risking 7
rival@@ 7
rocked 7
rogen 7
rogue 7
roll@@ 7
roofs 7
rotten 7
round-@@ 7
rounder 7
rude 7
rum 7
runoff 7
rup 7
sacrific@@ 7
saic 7
salvage 7
sanctuary 7
sandwich 7
sanitation 7
sat@@ 7
satisfying 7
schol@@ 7
scholarship 7
scor@@ 7
score@@ 7
scrambling 7
scrap@@ 7
screenings 7
scrutin@@ 7
seas@@ 7
sedan 7
sels 7
sergeant 7
seriousness 7
sham 7
sham@@ 7
shark 7
shelf 7
shooter 7
shores 7
shortages 7
shotgun 7
shout 7
showers 7
sia 7
sic 7
sick@@ 7
sickness 7
sidewalk 7
similarities 7
situated 7
skep@@ 7
skiing 7
skinny 7
skipped 7
skipper 7
skull 7
skyrock@@ 7
slam 7
slaughter 7
sliced 7
slumping 7
smiles 7
snacks 7
snapping 7
societies 7
soda 7
soft-@@ 7
soften 7
softer 7
sound@@ 7
spared 7
specific@@ 7
specified 7
specify 7
spectacle 7
speculated 7
speculative 7
sper@@ 7
sperm 7
splin@@ 7
square-@@ 7
sque 7
sta@@ 7
stack 7
staff@@ 7
stamps 7
staring 7
stationed 7
statistical 7
statues 7
steals 7
steam 7
stemmed 7
stern 7
stirring 7
stitutes 7
stream@@ 7
stricken 7
stricter 7
stripping 7
stronghold 7
studded 7
stumbling 7
stun@@ 7
sub-@@ 7
substantive 7
suing 7
suites 7
sunlight 7
superi@@ 7
supervisor 7
surprises 7
surrender 7
surround 7
survivor 7
susceptible 7
suspending 7
switches 7
systematic 7
sz@@ 7
t-out 7
tables@@ 7
tage 7
tain 7
tam@@ 7
tant 7
tastes 7
tatt@@ 7
taxed 7
taxis 7
taxpayer 7
teaches 7
team-mate 7
technically 7
telep@@ 7
tem@@ 7
tember 7
tent 7
tents 7
terminals 7
than@@ 7
theatrical 7
theirs 7
theories 7
thesis 7
thre@@ 7
three-month 7
thunder@@ 7
tian 7
ting@@ 7
tipping 7
tles 7
tolerated 7
tonne 7
torate 7
tot@@ 7
touches 7
trades 7
trailing 7
transporting 7
trap 7
traumatic 7
tre 7
tren@@ 7
trig@@ 7
troubling 7
tson 7
ttes 7
tto 7
tube 7
tumbling 7
tumultuous 7
two-hour 7
two-week 7
two@@ 7
tycoon 7
tze 7
uddin 7
uk@@ 7
ulary 7
ults 7
ump 7
unavailable 7
unbelievable 7
unconscious 7
undefeated 7
underdog 7
undermining 7
understandable 7
understands 7
undertaken 7
underwriting 7
undo 7
unger 7
unofficial 7
unparalleled 7
unra@@ 7
unreasonable 7
unspecified 7
unsuccessfully 7
unter 7
upgrades 7
upri@@ 7
urable 7
useless 7
user-@@ 7
usher 7
uso 7
uth 7
v. 7
vain 7
varian 7
varied 7
vegetable 7
veil 7
ves@@ 7
vet 7
video-@@ 7
vie 7
vig@@ 7
vigil 7
vili 7
vintage 7
violates 7
viral 7
virtu@@ 7
volcano 7
vomiting 7
vors 7
vous 7
vow 7
vsky 7
wag@@ 7
waits 7
waning 7
wart 7
water-@@ 7
weakest 7
weath@@ 7
web@@ 7
wey 7
whereabouts 7
wherever 7
wide-@@ 7
winger 7
wis@@ 7
withholding 7
wraps 7
wski 7
xon 7
xton 7
y-to-@@ 7
yach@@ 7
yang 7
yar 7
yev 7
yi 7
z-@@ 7
zier 7
zies 7
zig@@ 7
zin@@ 7
zza 7
án 7
án@@ 7
ía 7
'Reilly 6
-Sah@@ 6
-September 6
-So@@ 6
-style 6
-to-date 6
.com.@@ 6
0-3 6
0.04 6
0.07 6
000-square-foot 6
05@@ 6
1.0 6
10.6 6
100,@@ 6
100th 6
108 6
112 6
120@@ 6
127 6
130,000 6
134 6
14,000 6
142 6
143 6
146 6
158 6
161 6
1700 6
174 6
186 6
188 6
189 6
1920 6
1935 6
194 6
1953 6
197 6
2005-@@ 6
202 6
2100 6
217 6
219 6
224 6
241 6
247 6
249 6
24th 6
273 6
278 6
281 6
291 6
3-year-old 6
304 6
31-year-old 6
310 6
36-year-old 6
366 6
380 6
384 6
39,@@ 6
39-@@ 6
3D 6
4,500 6
4-6 6
4-year-old 6
4.9 6
40,@@ 6
400-@@ 6
400@@ 6
407 6
42.@@ 6
440 6
47,@@ 6
47.@@ 6
5,3@@ 6
5-3 6
5-year-old 6
5.0 6
54-@@ 6
56-@@ 6
6,8@@ 6
6-year-old 6
6.8 6
600@@ 6
6m 6
7.1 6
70-@@ 6
706 6
787 6
8.3 6
80-@@ 6
866-@@ 6
8bn 6
9.2 6
9.8 6
96@@ 6
AA@@ 6
AH@@ 6
AIN 6
ANA 6
ARD 6
ATION 6
Abbott 6
Abdel 6
Aber@@ 6
Abram@@ 6
Accounting 6
Accrued 6
Actually 6
Administ@@ 6
Adobe 6
Advert@@ 6
Agenda 6
Aguil@@ 6
Al-S@@ 6
Alas@@ 6
Alexandra 6
Allison 6
Altern@@ 6
Amazon.com 6
Ame@@ 6
Amtrak 6
Analyst 6
Andreas 6
Angelina 6
Angola 6
Antarctica 6
Any@@ 6
Appe@@ 6
Applications 6
Arroyo 6
Ask@@ 6
Aurora 6
Aval@@ 6
BAA 6
BAE 6
BB@@ 6
BI 6
BY@@ 6
Balls 6
Bam@@ 6
Bankers 6
Barbie 6
Baron 6
Bart 6
Bart@@ 6
Batt@@ 6
Bec@@ 6
Bed@@ 6
Bei@@ 6
Belie@@ 6
Bench@@ 6
Benefit 6
Beno@@ 6
Billiton 6
BlackBerry 6
Blackstone 6
Bli@@ 6
Blog 6
Bloom@@ 6
Blue@@ 6
Bod@@ 6
Body 6
Bomb 6
Bonnie 6
Boulevard 6
Boxing 6
Brad@@ 6
Brain 6
Brewer 6
Bright 6
Brook 6
Bry@@ 6
Buff@@ 6
Bull 6
Burnley 6
Burrell 6
Busch 6
Butt 6
Byrne 6
CAS@@ 6
CB 6
CL@@ 6
CP 6
Caldwell 6
Calvin 6
Campus 6
Canal 6
Capitals 6
Caracas 6
Carmen 6
Carolyn 6
Cars 6
Carson 6
Cass@@ 6
Cay@@ 6
Cerberus 6
Certi@@ 6
Chan 6
Chang 6
Chevron 6
Chocolate 6
Chol@@ 6
Choo@@ 6
Chr@@ 6
Cindy 6
Circle 6
Claims 6
Clare 6
Classi@@ 6
Clau@@ 6
Claus 6
Clifford 6
Clou@@ 6
Clyde 6
Coch@@ 6
Combined 6
Command@@ 6
Commenting 6
Communication 6
Compet@@ 6
Conf@@ 6
Connect 6
Conrad 6
Contr@@ 6
Conver@@ 6
Correc@@ 6
Costs 6
Counter@@ 6
Courts 6
Crouch 6
Crow 6
Cum@@ 6
Cuomo 6
DAX 6
DI 6
DNC 6
Daimler 6
Dal@@ 6
Dale 6
Dancing 6
Daniels 6
Davidson 6
Dawson 6
Dayton 6
Debt 6
Detectives 6
Dod@@ 6
Dole 6
Dolly 6
Dorothy 6
Double@@ 6
Dow@@ 6
Drake 6
Drum@@ 6
Dunk@@ 6
Durham 6
Dyn@@ 6
EE@@ 6
EM@@ 6
EMI 6
ESP@@ 6
Eagle 6
Earl 6
Earn@@ 6
Economists 6
Edge 6
Editor 6
Eduardo 6
Einstein 6
Eisenhower 6
ElBaradei 6
Eleven 6
Elisabeth 6
Emm@@ 6
Emma 6
Entreprene@@ 6
Erit@@ 6
Events 6
Executives 6
Expense 6
FD@@ 6
FIA 6
FT 6
Fabregas 6
Facing 6
Fah@@ 6
Fan 6
Fas@@ 6
Fau@@ 6
Fellow 6
Ferr@@ 6
Fig@@ 6
Fili@@ 6
Fir@@ 6
Fleet 6
Fleming 6
Flintoff 6
Fog@@ 6
Founded 6
Frances 6
Francis@@ 6
Frank@@ 6
Fraser 6
Freder@@ 6
Fres@@ 6
Fresh@@ 6
Fry 6
Fuel 6
Fut@@ 6
GAO 6
GRE@@ 6
GS 6
Gain@@ 6
Gartner 6
Gatwick 6
Gay@@ 6
Gent@@ 6
Geoff 6
Geographic 6
Gerard 6
German@@ 6
Gif@@ 6
Gir@@ 6
Glo@@ 6
Gomes 6
Governments 6
Grade 6
Grande 6
Grassley 6
Greenwich 6
Gren@@ 6
Gris@@ 6
Grove 6
Guillermo 6
H-@@ 6
HA 6
HS 6
HSBC 6
Had@@ 6
Hair 6
Ham 6
Hamburg 6
Hammond 6
Han 6
Harding 6
Hawaiian 6
Hayden 6
Haynes 6
Haz@@ 6
Heb@@ 6
Hei@@ 6
Heidi 6
Heineken 6
Hello 6
Helsinki 6
Henrik 6
Herman 6
Hern@@ 6
Herr@@ 6
Higher 6
Highlights 6
Hogan 6
Hospitals 6
Housewives 6
Hoy@@ 6
Hoyer 6
Human@@ 6
Hyatt 6
Hybrid 6
Hyde 6
IA@@ 6
IB@@ 6
IES 6
INGTON 6
ION@@ 6
IR 6
Idol 6
Including 6
Independence 6
Individu@@ 6
Indy 6
Infin@@ 6
Infrastructure 6
Initial 6
Insp 6
Insur@@ 6
Invent@@ 6
Iraq@@ 6
Isa@@ 6
Jail 6
Jam 6
Jamal 6
Jar@@ 6
Jes@@ 6
Jimenez 6
Johannesburg 6
Johansson 6
Jolie 6
Jor@@ 6
Joshua 6
Journey 6
Joyce 6
Judi@@ 6
Judith 6
Jul@@ 6
Julian 6
Julio 6
Kah@@ 6
Kaiser 6
Kaz@@ 6
Keller 6
Kelley 6
Khalid 6
Kidn@@ 6
Kiev 6
Kindle 6
Kingston 6
Kirk@@ 6
Kis@@ 6
Kit 6
Klo@@ 6
Knopf 6
Koch 6
Koval@@ 6
Kum@@ 6
Kurt 6
Kyodo 6
LAN@@ 6
LAS 6
LED 6
LI 6
Lab@@ 6
Laboratory 6
Lance 6
Lars 6
Laurence 6
Legis@@ 6
Leno 6
Levi 6
Liberia 6
Life@@ 6
Lin 6
Lip@@ 6
List 6
Listen 6
Log@@ 6
Lose 6
Lottery 6
MacDonald 6
Mack 6
Madden 6
Maggie 6
Mall@@ 6
Mao@@ 6
Marc@@ 6
Mari@@ 6
Marilyn 6
Marqu@@ 6
Mathieu 6
Maureen 6
Mavericks 6
Mayo 6
Medina 6
Mel 6
Menezes 6
Meteor@@ 6
Mexic@@ 6
Michele 6
Mid-@@ 6
Millan 6
Minn 6
Mist@@ 6
Mitch 6
Mittal 6
Moder@@ 6
Monitor 6
Moran 6
Morgen@@ 6
Mort@@ 6
Mosley 6
Mott@@ 6
Mountain@@ 6
Mous@@ 6
Moz@@ 6
Mueller 6
Mullah 6
Mum@@ 6
NASDAQ 6
NI@@ 6
Nairobi 6
Nay@@ 6
Nets 6
Nev@@ 6
Newman 6
Newsweek 6
Nick@@ 6
Night@@ 6
Nikolai 6
Nkunda 6
Nomin@@ 6
Nonetheless 6
Northampton 6
Nun@@ 6
OE@@ 6
Occup@@ 6
Og@@ 6
Oleg 6
Oli@@ 6
Olymp@@ 6
Oman 6
Open@@ 6
Oral 6
Ordin@@ 6
Oreg@@ 6
Ot@@ 6
Oval 6
Ovechkin 6
Oversight 6
PE 6
PER@@ 6
PO 6
POR@@ 6
PS3 6
Pacers 6
Pad@@ 6
Palo 6
Panel 6
Particip@@ 6
Paso 6
Pati@@ 6
Payment 6
Pearson 6
Peggy 6
Pepsi@@ 6
Person@@ 6
Perugia 6
Peyton 6
Phil@@ 6
Philips 6
Philli@@ 6
Picasso 6
Picture 6
Pix@@ 6
Platinum 6
Poin@@ 6
Pon@@ 6
Postal 6
Preliminary 6
Presse 6
Pressure 6
Produc@@ 6
Prof@@ 6
Profession@@ 6
Projects 6
Prosecution 6
Publ@@ 6
Publishing 6
Qaida 6
Qat@@ 6
Question 6
RIA 6
RN@@ 6
Radio@@ 6
[...]
