. 51847
, 50194
der 28206
die 26038
" 23116
und 17390
in 15806
: 11370
den 11305
von 8666
zu 8422
mit 7999
das 7749
- 7467
auf 6996
ist 6981
sich 6826
im 6675
für 6610
nicht 6595
Die 6316
dem 5997
ein 5738
des 5697
es 5111
eine 4939
als 4729
an 4280
auch 4259
er 4092
/ 3909
) 3888
( 3877
dass 3866
am 3844
Der 3717
um 3678
hat 3610
nach 3608
sie 3504
aus 3473
bei 3317
wie 3057
vor 2873
einem 2847
werden 2835
Das 2814
noch 2799
einen 2771
einer 2699
sind 2583
wird 2517
haben 2392
war 2390
aber 2306
über 2266
mehr 2260
nur 2252
so 2162
zum 2079
? 1958
sagte 1957
hatte 1922
_ 1788
Prozent 1754
gegen 1748
man 1730
oder 1719
sei 1577
bis 1555
In 1545
sein 1534
Euro 1520
2007 1479
Sie 1466
zur 1455
habe 1448
ich 1422
Es 1399
-@@ 1367
wurde 1274
kann 1255
durch 1251
wir 1237
schon 1203
wieder 1171
unter 1168
ihre 1140
seine 1108
vom 1100
wenn 1100
ver@@ 1094
immer 1071
Jahren 1064
Er 1056
will 1056
Jahr 1040
dann 1027
Und 1015
Uhr 1011
sagt 1010
Ich 994
Deutschland 984
zwei 976
soll 974
Wir 970
gibt 959
seiner 937
Im 936
eines 908
Ein 892
Auch 891
keine 883
er@@ 870
können 860
muss 851
beim 825
seit 809
worden 805
drei 783
Jahre 780
Nach 777
un@@ 775
was 774
Millionen 771
te 761
ab@@ 754
waren 754
ONLINE 753
alle 739
nun 731
Menschen 726
diese 719
an@@ 718
URL 716
Mit 707
ten 702
ihr 701
damit 695
ab 690
sehr 677
jetzt 663
dieser 662
geht 657
ersten 653
Aber 652
diesem 651
ein@@ 650
seinen 649
ge@@ 645
doch 642
' 641
Doch 641
neue 639
viel 639
Für 638
© 638
müssen 635
aus@@ 633
selbst 633
zwischen 626
gut 625
ohne 624
anderen 623
weil 621
seinem 620
werde 620
Ende 618
seien 618
bereits 615
wurden 615
da 613
rund 613
uns 613
Zeit 610
neuen 610
Nachrichten 609
hatten 607
ihn 606
wollen 605
Eine 599
ihrer 598
ins 597
deutschen 589
machen 584
http 582
weiter 579
Bei 576
Unternehmen 575
ihren 574
s 573
1 569
etwa 564
Ver@@ 563
ihm 560
allem 559
sondern 559
en 556
em 551
heute 549
So 547
ganz 536
auf@@ 535
wegen 529
] 527
en@@ 526
[ 525
viele 522
etwas 515
k@@ 513
Wenn 509
dpa 505
Copyright 501
vergangenen 500
Berlin 499
erst 499
sch@@ 497
könnte 492
sollen 492
Dollar 487
US-@@ 486
a 480
lassen 480
ent@@ 478
be@@ 477
kein 477
einmal 476
Als 474
andere 473
jedoch 466
steht 463
Ab@@ 461
Wie 461
ob 459
über@@ 459
An@@ 458
Oktober 457
SPD 453
kommt 453
ung 448
USA 446
t@@ 444
hier 441
Welt 439
dabei 439
kommen 437
alles 430
ische 428
dafür 426
nichts 423
s@@ 423
0 420
Am 420
September 419
Dokument 418
deutsche 418
= 416
erstellt 415
K@@ 414
hätten 414
großen 413
2 412
ern 412
allerdings 411
stehen 410
SPIEGEL 408
cnt 408
ischen 405
info 402
würde 401
Erscheinungsdatum 400
Regierung 400
document 400
mal 400
fast 395
de 394
ter 394
wäre 388
vier 387
beiden 386
gab 386
z@@ 385
Land 384
Auf 383
geben 383
Deutsche 381
WELT 379
Aus@@ 377
sogar 377
Ein@@ 375
Frau 374
S@@ 374
mich 373
Geld 371
vor@@ 371
fünf 370
sieht 370
Deutschen 369
zu@@ 368
G@@ 367
sollte 366
20 364
! 363
gehen 363
sowie 363
zurück 363
Kinder 362
Mann 362
Sch@@ 362
ungen 362
Leben 361
zwar 359
Politik 358
ja 358
denn 357
deutlich 357
i 357
sehen 357
Denn 355
e 355
macht 355
12@@ 354
weniger 354
Von 353
Was 353
f@@ 351
2008 350
davon 349
mir 347
ungs@@ 347
; 346
also 345
Fall 344
Milliarden 344
dazu 344
Bahn 343
zehn 342
um@@ 341
gen 339
Präsident 338
B@@ 335
ihrem 335
Da 334
Man 334
dort 334
gewesen 334
P@@ 333
T@@ 333
Woche 333
denen 333
+ 331
Angaben 330
große 329
dieses 328
isch 328
ende 325
n@@ 325
später 324
eigenen 320
heißt 318
wo 318
10.2007 316
erste 316
Vor@@ 315
kam 315
Frankfurt 314
.html 312
Freitag 312
al@@ 311
liegt 311
o 311
wenig 311
b@@ 310
konnte 310
wollte 310
enden 309
würden 309
E@@ 308
d@@ 308
el@@ 308
lange 307
Er@@ 306
R@@ 305
derzeit 305
gemacht 305
unter@@ 305
Mal 303
darauf 303
Änderung 302
Polizei 301
15 300
FC 300
Spiel 300
2006 298
November 297
Vor 296
ihnen 296
st@@ 296
sten 296
Tag 295
weitere 295
ieren 294
während 292
D@@ 290
Diese 290
Letzte 290
bin 290
30 288
F@@ 288
Platz 288
hätte 288
kaum 288
Wochen 287
letzten 287
11.2007 286
Bank 284
in@@ 283
lässt 283
50 282
Wer 282
bleiben 282
dies 282
Frage 281
Un@@ 281
bisher 281
Hamburg 280
Anfang 279
CDU 279
Den 279
L@@ 278
keinen 278
zufolge 278
A@@ 277
Chef 275
H@@ 275
Merkel 275
Team 275
gerade 275
gilt 275
m@@ 275
gar 273
iert 270
www.welt.de 270
zweiten 270
New 268
China 267
wohl 267
Druckversion 266
dagegen 266
könne 266
Trainer 264
g@@ 264
halten 263
end 262
N@@ 261
Stadt 261
weit 260
Wirtschaft 259
lichen 259
09.2007 258
Frauen 258
bleibt 258
nie 255
17 253
erklärte 252
Partei 251
acht 251
diesen 251
ging 251
Mittwoch 250
Arbeit 249
Montag 249
einfach 249
stellen 249
tun 249
Dienstag 248
ers 248
könnten 248
musste 248
re@@ 248
Bayern 246
Beispiel 246
M@@ 246
mann 246
t 246
20@@ 245
ge 245
Entscheidung 244
Nur 244
tes 244
Z@@ 243
sechs 243
Donnerstag 242
Markt 242
W@@ 242
allen 242
ch@@ 242
liche 242
Be@@ 241
i@@ 241
deshalb 239
16 238
München 238
Weg 238
dessen 238
3 237
August 237
as 237
ler 237
Damit 236
los 236
m 236
zunächst 236
chen 235
deren 235
nächsten 235
Dabei 234
bekannt 233
e@@ 233
müsse 233
zuletzt 233
& 232
besser 232
zusammen 232
kommenden 231
spielen 231
40 229
ger@@ 229
k 229
oft 229
sagen 229
allein 228
durch@@ 228
finden 228
Sonntag 227
aller 227
besonders 227
geworden 227
lich 226
Auf@@ 225
Dass 225
Zeitung 225
o@@ 225
hält 224
Berliner 223
Zukunft 223
ste 223
Bau@@ 222
laut 222
Tage 221
es@@ 221
vielen 221
Jahres 220
Union 220
schnell 220
Geschichte 219
nach@@ 219
Aus 218
gegeben 218
l@@ 218
weiß 218
... 217
8@@ 217
Über@@ 217
18 216
bringen 215
nehmen 215
Zu 214
gegenüber 214
recht 214
sicher 214
u@@ 214
Erfolg 213
I@@ 213
Mannschaft 213
Seite 213
bekommen 212
en-@@ 212
ert 212
Seit 211
damals 211
einige 211
gehört 211
000 210
14 210
Monaten 210
führen 210
wissen 210
Samstag 209
is@@ 209
darf 208
zeigt 208
Internet 207
eher 207
genau 207
sollten 207
bislang 206
darüber 206
ebenfalls 206
% 205
Mitarbeiter 205
ke 205
möglich 205
ter@@ 205
An 204
erklärt 204
ierte 204
on@@ 204
er-@@ 203
fest 203
hinter 203
GDL 202
ale 202
jeder 202
Kunden 201
Ziel 201
knapp 201
anderem 200
jährige 200
Minuten 199
V@@ 199
hieß 199
meisten 199
Europa 198
FTD.de 198
di@@ 198
100 197
a@@ 197
Beck 196
Michael 196
alten 196
25 195
Männer 195
Teil 195
Zahl 195
ens 195
ts 195
Dann 194
Grund 194
Spieler 194
alte 194
at 194
gleich 194
h@@ 194
insgesamt 194
mit@@ 194
statt 194
je 193
ner 193
stand 193
Sprecher 192
der@@ 192
z 192
zuvor 192
4@@ 191
Bild 191
Stunden 191
inzwischen 191
Dezember 190
Kritik 190
seines 190
Adresse 189
Familie 189
de@@ 189
10 188
Monate 188
Nicht 188
eigentlich 188
künftig 188
or@@ 188
stellt 188
zudem 188
lang 187
se@@ 187
zeigen 187
Schul@@ 186
neben 186
Angebot 185
Art 185
at@@ 185
erwartet 185
mindestens 185
zurück@@ 185
Dies 184
Koalition 184
Punkte 184
Rolle 184
Zudem 184
ere 184
erneut 184
licher 184
pro 184
Namen 183
ar@@ 183
stark 183
Allerdings 182
klar 182
Gruppe 181
Sport 181
gute 181
te@@ 181
6@@ 180
Erst 180
Gericht 180
p@@ 180
r@@ 180
1. 179
Entwicklung 179
Thema 179
ierten 179
sen 179
Ge@@ 178
Tagen 178
gekommen 178
ischer 178
nen 178
sieben 178
2005 177
4 177
Eltern 177
-S@@ 176
Aktien 176
C@@ 176
J@@ 176
Russland 176
Spiel@@ 176
gen@@ 176
ie 176
solche 176
wirklich 176
Hamburger 175
Mrd. 175
Rück@@ 175
kurz 175
se 175
12 174
Kilometer 174
WM 174
gel@@ 174
leben 174
s-@@ 174
ziehen 174
21 173
Bush 173
Informationen 173
Konzern 173
Noch 173
daran 172
führt 172
größten 172
5@@ 171
In@@ 171
O@@ 171
Sieg 171
Um 171
her@@ 171
7@@ 170
schließlich 170
teilte 170
trotz 170
Einsatz 169
el 169
erhalten 169
paar 169
-K@@ 168
Druck 168
Viele 168
markt 168
mehrere 168
os 168
scheint 168
schwer 168
9@@ 167
Blick 167
hoch 167
st 167
verloren 167
weiteren 167
Januar 166
a-@@ 166
ber@@ 166
hin@@ 166
Anleger 165
Irak 165
Streit 165
Zum 165
amerikanischen 165
gebracht 165
www.n-tv.de 165
Chance 164
Leute 164
Saison 164
Wahl 164
York 164
politik 164
Preis 163
Recht 163
Welt@@ 163
arbeiten 163
Banken 162
Meter 162
bar 162
dürfte 162
gebe 162
ken 162
02 161
Juli 161
Unter@@ 161
WM-@@ 161
anders 161
gesch@@ 161
l 161
ro@@ 161
Bis 160
au@@ 160
findet 160
is 160
ä@@ 160
ü@@ 160
Auto 159
Mutter 159
liegen 159
sk@@ 159
ten@@ 159
1,@@ 158
3@@ 158
Experten 158
Finanz@@ 158
SPD-@@ 158
le 158
natürlich 158
setzen 158
tern 158
zahlen 158
überhaupt 158
Jetzt 157
alen 157
enk@@ 157
offenbar 157
vielleicht 157
Peter 156
Titel 156
e-@@ 156
eln 156
hin 156
jeden 156
w@@ 156
wolle 156
5 155
Lage 155
Mar@@ 155
fen 155
ließ 155
2004 154
Al@@ 154
Außerdem 154
Times 154
Um@@ 154
ige 154
Re@@ 153
Soldaten 153
g 153
ger 153
spricht 153
t-@@ 153
unsere 153
13 152
Führung 152
Zu@@ 152
as@@ 152
ben 152
fahren 152
meine 152
18@@ 151
Bundes@@ 151
Hier 151
Kinder@@ 151
Mit@@ 151
Sommer 151
Während 151
ar 151
setzt 151
zusammen@@ 151
Grund@@ 150
Manager 150
Probleme 150
ange@@ 150
men 150
stellte 150
ur@@ 150
24 149
6 149
Kampf 149
Kosten 149
Sp@@ 149
Stuttgart 149
gt 149
ig 149
Her@@ 148
Ihr 148
Ministerpräsident 148
Thomas 148
Wirtschafts@@ 148
ebenso 148
it@@ 148
EU-@@ 147
Fernseh@@ 147
Frankreich 147
dürfen 147
gesagt 147
unternehmen 147
ö@@ 147
Geschäft 146
Haus 145
Ro@@ 145
Studie 145
elt 145
ender 145
gern 145
Hand 144
Länder 144
Nun 144
ck@@ 144
eben 144
einigen 144
j@@ 144
kosten 144
on 144
politische 144
spielt 144
Groß@@ 143
U@@ 143
be 143
forderte 143
igen 143
kamen 143
längst 143
zwölf 143
2010 142
Autos 142
Kon@@ 142
besten 142
per 142
ra@@ 142
sen@@ 142
versch@@ 142
22 141
Ergebnis 141
größte 141
us 141
zeit 141
Bahn@@ 140
Bar@@ 140
Sicherheit 140
Zahlen 140
erreicht 140
ne 140
nimmt 140
ums 140
weg 140
Dort 139
Gesellschaft 139
Ländern 139
Problem 139
dritten 139
eigene 139
u 139
Mitte 138
Nach@@ 138
Wolfgang 138
am@@ 138
berichtete 138
eren 138
neues 138
of 138
sp@@ 138
ung@@ 138
weiterhin 138
Frankfurter 137
jährigen 137
kleine 137
machte 137
politischen 137
sprach 137
tet 137
th@@ 137
y@@ 137
zen 137
19 136
Beginn 136
Film 136
Mehr 136
Sport@@ 136
gewinnen 136
Tochter 135
ber 135
den@@ 135
erstmals 135
wer 135
Bund 134
Seine 134
ß@@ 134
De@@ 133
Preise 133
Tod 133
frei 133
ihres 133
le@@ 133
leicht 133
60 132
Dem 132
Kopf 132
Opfer 132
Vergleich 132
Wochenende 132
berichtet 132
erte 132
gestellt 132
ol@@ 132
ti@@ 132
Arbeits@@ 131
Buch 131
EU 131
Schon 131
müssten 131
n 131
tigen 131
ts@@ 131
08.@@ 130
Ober@@ 130
Politiker 130
Preis@@ 130
Schule 130
ier@@ 130
liches 130
Aktie 129
Neu@@ 129
betonte 129
erin 129
fer@@ 129
ganze 129
gehe 129
möchte 129
neu 129
-Chef 128
-T@@ 128
Krise 128
Minute 128
Mo@@ 128
Sache 128
St@@ 128
Staaten 128
ag@@ 128
et@@ 128
konnten 128
völlig 128
wichtig 128
zumindest 128
7 127
Beim 127
Staats@@ 127
Universität 127
ak@@ 127
bereit 127
europäischen 127
ft 127
internationalen 127
isches 127
junge 127
länger 127
nachdem 127
richtig 127
Bericht 126
FAZ.NET 126
Hause 126
Unter 126
Urteil 126
Vater 126
Wort 126
fordert 126
ker 126
me 126
offen 126
ster 126
wollten 126
80 125
Afghanistan 125
Haupt@@ 125
Schritt 125
daher 125
lag 125
legen 125
setzte 125
us@@ 125
Anteil 124
Landes 124
Ob 124
Zwei 124
ern@@ 124
groß 124
hoch@@ 124
hohe 124
isten 124
kleinen 124
nahm 124
solle 124
Ent@@ 123
Müntefering 123
bringt 123
che 123
guten 123
sonst 123
voll 123
zweite 123
Form 122
aten 122
beide 122
läuft 122
Dazu 121
Interesse 121
Medien@@ 121
Präsidenten 121
bald 121
ch 121
genommen 121
genug 121
gesehen 121
letzte 121
2009 120
Fahr@@ 120
Medien 120
Staat 120
Zeit@@ 120
fest@@ 120
hohen 120
iger 120
il@@ 120
tatsächlich 120
v@@ 120
11 119
500 119
Alle 119
Ar@@ 119
Bilder 119
Bundesregierung 119
Daten 119
Deshalb 119
Fragen 119
Ihre 119
Mehrheit 119
Schüler 119
Wahl@@ 119
abge@@ 119
cht 119
danach 119
ie@@ 119
treffen 119
Financial 118
Höhe 118
Iran 118
Lebens@@ 118
Militär@@ 118
News 118
Sein 118
Seiten 118
Sozial@@ 118
gefunden 118
geführt 118
ser@@ 118
.de 117
35 117
Angst 117
Behörden 117
Bürger 117
Firmen 117
Interview 117
Kollegen 117
Rede 117
Sonder@@ 117
berg 117
erreichen 117
geb@@ 117
schen 117
14@@ 116
70 116
Bildunterschrift 116
Fußball 116
Hilfe 116
London 116
ad@@ 116
angekündigt 116
blieb 116
braucht 116
lichkeit 116
rechnen 116
sprechen 116
steigen 116
Köln 115
Qu@@ 115
Runde 115
Straße 115
du 115
her 115
warum 115
Christian 114
Fans 114
Gefahr 114
Hälfte 114
I 114
Mai 114
Situation 114
bel@@ 114
chten 114
fallen 114
fe 114
gewonnen 114
h 114
kon@@ 114
tige 114
Folge 113
Juni 113
Landes@@ 113
Mio. 113
Mitglieder 113
Punkten 113
Rechts@@ 113
Wert 113
Zuschauer 113
all 113
darunter 113
dern 113
gelten 113
jede 113
jedem 113
mussten 113
oben 113
sueddeutsche.de 113
Ex-@@ 112
Grünen 112
Kultur 112
Washington 112
neuer 112
verkauft 112
2002 111
Liga 111
fall 111
gestern 111
ing@@ 111
schaffen 111
Über 111
2001 110
Ber@@ 110
Di@@ 110
Forscher 110
Franz 110
Gewerkschaft 110
Musik 110
Nacht 110
Online-@@ 110
Streik 110
Türkei 110
Vertrag 110
al 110
endlich 110
entscheiden 110
gehören 110
niemand 110
verlassen 110
200 109
Abend 109
Angela 109
CSU 109
Fach@@ 109
Gespräch 109
The 109
bekommt 109
erzählt 109
gemeinsam 109
neun 109
zeigte 109
45 108
Energie 108
Geld@@ 108
Kunst 108
Münchner 108
Treffen 108
Zwar 108
ationen 108
c@@ 108
erk@@ 108
unserer 108
weltweit 108
0,@@ 107
00 107
2000 107
23 107
28 107
Region 107
amerikanische 107
d 107
dennoch 107
fragen 107
früheren 107
legt 107
tragen 107
www.@@ 107
Dieser 106
En@@ 106
Gesetz 106
Kanzlerin 106
Niederlage 106
Ort 106
Pro@@ 106
Programm 106
Verfügung 106
laufen 106
nämlich 106
wer@@ 106
-B@@ 105
2003 105
90 105
Heute 105
Mon@@ 105
Polen 105
ausge@@ 105
b 105
elle 105
früher 105
ges@@ 105
hinaus 105
nutzen 105
welche 105
werk 105
wert 105
12.2007 104
Firma 104
Fußball-@@ 104
Markt@@ 104
Richter 104
Sicherheits@@ 104
Verhandlungen 104
Warum 104
cher 104
eh@@ 104
erten 104
erwarten 104
geschäft 104
innen 104
kl@@ 104
ne@@ 104
obwohl 104
reden 104
schw@@ 104
spiel 104
trifft 104
vorbei 104
B 103
Italien 103
Laut 103
Musharraf 103
Nord@@ 103
Partie 103
Rennen 103
Streiks 103
enen 103
op@@ 103
tr@@ 103
zieht 103
17@@ 102
Investoren 102
Martin 102
Tor 102
ellen 102
innerhalb 102
mer 102
wenige 102
.09.2007 101
48 101
Ausland 101
Börse 101
Folgen 101
Gewinn 101
Gewinn@@ 101
Ko@@ 101
Spitze 101
Weil 101
beispielsweise 101
em@@ 101
f 101
jungen 101
lediglich 101
lo@@ 101
weise 101
zugleich 101
36 100
Bo@@ 100
Kar@@ 100
Kind 100
Peking 100
Presseagentur 100
Prozess 100
Vorsitzende 100
brauchen 100
britischen 100
einge@@ 100
fer 100
ff@@ 100
fiel 100
jedes 100
kt 100
land 100
schreibt 100
solchen 100
verhindern 100
versucht 100
we@@ 100
zer@@ 100
300 99
Chancen 99
Fernsehen 99
Stunde 99
Verkauf 99
Wasser 99
Weise 99
aufge@@ 99
haus 99
ik@@ 99
kaufen 99
verletzt 99
8 98
Branche 98
Ch@@ 98
Hersteller 98
Quartal 98
Staatsanwaltschaft 98
Verfahren 98
all@@ 98
elf 98
ene 98
gest@@ 98
ko@@ 98
li@@ 98
schreiben 98
15@@ 97
Augen 97
Bhutto 97
Fußball@@ 97
Geschäfts@@ 97
Geschäftsführer 97
ach@@ 97
al-@@ 97
bevor 97
chen@@ 97
darum 97
direkt 97
ehemaligen 97
erster 97
gerne 97
häufig 97
-Jährige 96
Ergebnisse 96
Huber 96
Konkurrenz 96
Lokführer 96
Müller 96
Personal@@ 96
Richtung 96
Selbst@@ 96
Studenten 96
Terror@@ 96
and@@ 96
besch@@ 96
ehemalige 96
end@@ 96
entschieden 96
ien 96
ismus 96
ri@@ 96
teten 96
ze 96
32 95
Debatte 95
Jürgen 95
Projekt 95
S 95
Spielen 95
Tat 95
Trotz 95
Vorstand 95
Wettbewerb 95
d-@@ 95
gesellschaft 95
getötet 95
ing 95
inger 95
mag 95
meist 95
04 94
Amt 94
Kredit@@ 94
Krieg 94
Lösung 94
Partei@@ 94
Pläne 94
Porsche 94
Putin 94
Schweiz 94
Vielleicht 94
anderer 94
droht 94
gespielt 94
großer 94
r 94
russischen 94
ul@@ 94
www.ftd.de 94
Ansicht 93
Einen 93
G 93
Gegner 93
Hoch@@ 93
Kurs@@ 93
Neben 93
Sicht 93
Steuer@@ 93
VON 93
deutscher 93
fand 93
geplant 93
kten 93
schweren 93
spiel@@ 93
tig 93
-Jährigen 92
Besuch 92
Bevölkerung 92
Drittel 92
Film@@ 92
George 92
Glück 92
Hessen 92
Text 92
angesichts 92
article12@@ 92
bieten 92
ei@@ 92
mer@@ 92
ohnehin 92
unser 92
wenigen 92
Boden 91
Bundeskanzlerin 91
Gegen@@ 91
Gewalt 91
Konkurrenten 91
Ma@@ 91
Tr@@ 91
Zur 91
ap@@ 91
eins 91
erfolgreich 91
fällt 91
gew@@ 91
he 91
keiner 91
man@@ 91
mein 91
nächste 91
om@@ 91
sofort 91
zug 91
Armee 90
Dafür 90
England 90
Familien@@ 90
Hintergrund 90
März 90
Nein 90
Opposition 90
Post 90
Regierungs@@ 90
Stoiber 90
Tor@@ 90
ate 90
bestätigt 90
einzige 90
gleichen 90
konzern 90
per@@ 90
sa@@ 90
ster@@ 90
tete 90
ur 90
$ 89
26 89
Karriere 89
Reise 89
Sohn 89
Strom@@ 89
Stück 89
bei@@ 89
ben@@ 89
dadurch 89
einzu@@ 89
et 89
gesetzt 89
sel@@ 89
sh@@ 89
si@@ 89
versuchen 89
zog 89
11. 88
Drei 88
Durch 88
Fahrer 88
Gäste 88
Idee 88
Institut 88
Meinung 88
Nummer 88
Schließlich 88
Se@@ 88
Stelle 88
Vertreter 88
Westen 88
bietet 88
brachte 88
digen 88
ell 88
hen 88
heraus 88
hingegen 88
kündigte 88
mittlerweile 88
nahe 88
preise 88
sche 88
trotzdem 88
übernehmen 88
13.@@ 87
9 87
Bundesliga 87
Ermittlungen 87
Gen@@ 87
Ger@@ 87
Japan 87
Linie 87
Meister 87
Mädchen 87
Start 87
Super@@ 87
Unterstützung 87
ganzen 87
gefallen 87
heim 87
helfen 87
legte 87
sah 87
schlecht 87
trägt 87
voll@@ 87
44 86
Bereich 86
Frank 86
Ist 86
Löw 86
National@@ 86
Paris 86
Rekord@@ 86
Sarkozy 86
Spitzen@@ 86
Zusammenarbeit 86
außerdem 86
cken 86
gezeigt 86
im@@ 86
jeweils 86
sucht 86
Öl@@ 86
01 85
A 85
Alter 85
Deutschlands 85
GD@@ 85
Grenze 85
Kunst@@ 85
Le@@ 85
Pakistan 85
Privat@@ 85
Spiele 85
age 85
arbeitet 85
ell@@ 85
enten 85
entwickeln 85
enz@@ 85
meiner 85
preis 85
stärker 85
ändern 85
75 84
Energie@@ 84
Familien 84
Journalisten 84
Klaus 84
Kraft 84
Kur@@ 84
Mittel@@ 84
Reihe 84
Selbst 84
Weltmeister 84
Zeiten 84
and 84
arbeit 84
ations@@ 84
elte 84
eng@@ 84
est@@ 84
heit 84
kennt 84
meinen 84
suchen 84
tem 84
1@@ 83
2@@ 83
Con@@ 83
Foto 83
Gegen 83
Gerade 83
Internet@@ 83
Klein@@ 83
Kurt 83
Man@@ 83
Nürnberg 83
Punkt 83
Umsatz 83
Vergangenheit 83
Zeitpunkt 83
ation@@ 83
bau@@ 83
begonnen 83
einst 83
fahr@@ 83
frühere 83
gegangen 83
glauben 83
ik 83
isch-@@ 83
isch@@ 83
langen 83
sogenannten 83
system 83
weiter@@ 83
wären 83
öffentlichen 83
09 82
Ausstellung 82
Bremen 82
Hannover 82
Hoffnung 82
Marke 82
Mensch 82
Monat 82
Musik@@ 82
Ohne 82
Parteien 82
Schulen 82
Tarif@@ 82
bedeutet 82
bel 82
chte 82
ck 82
erung 82
gingen 82
jährlich 82
mehreren 82
or 82
unbe@@ 82
welt 82
wirtschaft 82
07 81
Analysten 81
Bundestag 81
Haus@@ 81
League 81
Plus 81
Position 81
Schluss 81
Stadt@@ 81
Zusammenhang 81
ant 81
besteht 81
durchaus 81
entwickelt 81
geln 81
tung 81
2,@@ 80
Atom@@ 80
Außen@@ 80
Februar 80
Gesamt@@ 80
Kurs 80
Leistung 80
Luft 80
Parteitag 80
Personen 80
Raum 80
Stellen 80
Süd@@ 80
W. 80
Wegen 80
abzu@@ 80
aktuellen 80
bisschen 80
gel 80
ließen 80
rechnet 80
schrieb 80
weder 80
wirkt 80
Anbieter 79
Brüssel 79
Dieter 79
Fehler 79
Nachfrage 79
Nähe 79
P-@@ 79
Publikum 79
Verein 79
agen 79
article1@@ 79
chinesischen 79
denken 79
ens@@ 79
entfernt 79
fte 79
gewann 79
ks 79
meint 79
mon@@ 79
sitzen 79
treten 79
verdient 79
Öffentlichkeit 79
31 78
Ball 78
Großbritannien 78
Har@@ 78
Ja 78
Macht 78
Nachfolger 78
Par@@ 78
Polizisten 78
Rückkehr 78
Wachstum 78
ad 78
anderes 78
beteiligt 78
chef 78
eb@@ 78
führung 78
geschlagen 78
heraus@@ 78
höhere 78
it 78
kur@@ 78
möglicherweise 78
stets 78
tieren 78
29 77
Amerikaner 77
Beide 77
Börsen@@ 77
Frühjahr 77
Gas@@ 77
Gespräche 77
Herr 77
Kultur@@ 77
Worten 77
Zweifel 77
alt 77
ans 77
article13@@ 77
aufs 77
baren 77
dürften 77
folgen 77
gelassen 77
geplanten 77
geraten 77
o-@@ 77
p 77
spielte 77
stelle 77
to 77
verband 77
verkehr 77
verurteilt 77
27 76
All@@ 76
Aufgabe 76
Basis 76
F 76
Hei@@ 76
Insgesamt 76
Jugend@@ 76
Kindern 76
Maßnahmen 76
Modell 76
Natürlich 76
Netz 76
Stimmen 76
Strategie 76
Täter 76
VW-@@ 76
Verantwortung 76
anzu@@ 76
darin 76
demnach 76
essen 76
hören 76
ig@@ 76
jüngsten 76
starken 76
tiert 76
vierten 76
zufrieden 76
25@@ 75
33 75
Amerika 75
Bereits 75
Bi@@ 75
David 75
Dieses 75
Erwartungen 75
Freunde 75
Hand@@ 75
John 75
Kan@@ 75
Kölner 75
Möglichkeit 75
Oder 75
Parlament 75
Rad@@ 75
Schweizer 75
Verband 75
VfB 75
ation 75
au 75
bisherigen 75
cke 75
falls 75
fordern 75
französischen 75
fährt 75
lagen 75
los@@ 75
mittel 75
sitzt 75
stieg 75
tungs@@ 75
ut@@ 75
Ö@@ 75
400 74
Bau 74
Dennoch 74
El@@ 74
Hamilton 74
Handel 74
Hauptstadt 74
Israel 74
Kein 74
Plan 74
Polizei@@ 74
Stand 74
Straßen 74
System 74
Treffer 74
auszu@@ 74
bare 74
bo@@ 74
gehalten 74
gewählt 74
haft 74
ierung 74
ischem 74
iz@@ 74
leisten 74
minister 74
mo@@ 74
ms 74
platz 74
rechte 74
reichen 74
rä@@ 74
schlagen 74
sowohl 74
tritt 74
tut 74
vier@@ 74
ör@@ 74
120@@ 73
2. 73
April 73
Bürger@@ 73
Heimat 73
Innen@@ 73
Land@@ 73
Mittel 73
Produkte 73
Wasser@@ 73
beginnt 73
esen 73
ften 73
hart 73
immerhin 73
ir@@ 73
k-@@ 73
kostet 73
kämpfen 73
lieber 73
lose 73
ow 73
schaft 73
sorgen 73
wieder@@ 73
49 72
Allein 72
Dinge 72
Gesicht 72
Händler 72
Industrie 72
Konzept 72
Mindestlohn 72
Or@@ 72
Partner 72
Rahmen 72
Stamm@@ 72
Wissenschaftler 72
are 72
falsch 72
feld 72
gleich@@ 72
hinzu 72
ist@@ 72
jemand 72
kr@@ 72
mt 72
sch 72
traf 72
ähnlich 72
16@@ 71
52 71
Alles 71
Alonso 71
Br@@ 71
Dar@@ 71
Inter@@ 71
Koch 71
Kommission 71
Main 71
Möglichkeiten 71
Nachdem 71
Rund 71
So@@ 71
Tore 71
begann 71
bes@@ 71
beste 71
do@@ 71
ent 71
gang 71
gefordert 71
ht 71
isiert 71
ität 71
kn@@ 71
len 71
müsste 71
steigt 71
wichtigsten 71
zwei@@ 71
10.@@ 70
Aktien@@ 70
Aussage 70
Bühne 70
Car@@ 70
Champions 70
Diskussion 70
Europäischen 70
Fonds 70
Jahres@@ 70
Kommentar 70
Lo@@ 70
Organisation 70
Osten 70
Robert 70
Rücktritt 70
Schalke 70
Sekunden 70
Su@@ 70
To@@ 70
Verbraucher 70
Wer@@ 70
West@@ 70
britische 70
del 70
eller 70
erklären 70
führte 70
gesprochen 70
gezogen 70
ho@@ 70
iges 70
lau@@ 70
ler@@ 70
manchmal 70
privaten 70
rat 70
ru@@ 70
selten 70
38 69
AP 69
Ak@@ 69
Anstieg 69
BMW 69
Coach 69
Demokratie 69
Einfluss 69
Einzel@@ 69
Fest@@ 69
He@@ 69
Kirche 69
Leit@@ 69
Liebe 69
Moment 69
Moskau 69
Roman 69
Ste@@ 69
Umfrage 69
aufzu@@ 69
bereich 69
bild 69
festgenommen 69
form 69
getroffen 69
hielt 69
ia 69
jedenfalls 69
lebt 69
mögliche 69
möglichst 69
ons 69
passiert 69
starke 69
tz@@ 69
voller 69
vorher 69
0@@ 68
23.@@ 68
Anti@@ 68
Auto@@ 68
Freund 68
Gefühl 68
Ho@@ 68
Keine 68
Kn@@ 68
Ost@@ 68
Risiko 68
Satz 68
TV-@@ 68
Themen 68
Volks@@ 68
Voll@@ 68
Vorwürfe 68
ati@@ 68
bank 68
brechen 68
dank 68
erinnert 68
industrie 68
ktion 68
po@@ 68
sport 68
ständig 68
tiger 68
ßen 68
überzeugt 68
03 67
08 67
1999 67
50@@ 67
A-@@ 67
Bundestrainer 67
EM-@@ 67
Ex@@ 67
FDP 67
FTD 67
Flug@@ 67
Jeder 67
Kauf 67
Million 67
Produktion 67
Qualität 67
Regel 67
Ru@@ 67
Schmidt 67
Sollte 67
Stürmer 67
Ur@@ 67
Vorschlag 67
da@@ 67
erkennen 67
geplante 67
gesetz 67
gten 67
handelt 67
he@@ 67
kte 67
meinte 67
nieder@@ 67
plötzlich 67
schützen 67
stadt 67
stehe 67
ven 67
verlor 67
vorstellen 67
wahrscheinlich 67
wies 67
wirft 67
zer 67
än@@ 67
öffentlich 67
überall 67
Becker 66
Berufung 66
Buch@@ 66
Bürgermeister 66
Cent 66
Co@@ 66
Du@@ 66
Einige 66
Ihnen 66
Schutz 66
Steinbrück 66
Trotzdem 66
VW 66
Wal@@ 66
Wechsel 66
Werk 66
Wissenschaft 66
betont 66
ersch@@ 66
gebaut 66
gesamte 66
greifen 66
höher 66
internationale 66
ka 66
kan@@ 66
kritisiert 66
lage 66
losen 66
möglichen 66
nannte 66
rei@@ 66
rief 66
schutz 66
stimmt 66
warten 66
wei@@ 66
wichtige 66
ß 66
20. 65
AG 65
Beschäftigten 65
Besucher 65
Daniel 65
EM 65
Gewerkschaften 65
Google 65
Großen 65
Innenminister 65
Josef 65
Künstler 65
Lehrer 65
Spanien 65
Sprecherin 65
Stimme 65
Stimmung 65
Strecke 65
Tages@@ 65
Teil@@ 65
Terroristen 65
Th@@ 65
anz@@ 65
bach 65
bahn 65
bl@@ 65
bu@@ 65
fonds 65
gelegt 65
hr@@ 65
laufenden 65
mache 65
nötig 65
onen 65
profitieren 65
reicht 65
rü@@ 65
sorgt 65
stein 65
stre@@ 65
teilweise 65
tsch@@ 65
verantwortlich 65
wirtschaftlichen 65
Übernahme 65
.@@ 64
21. 64
ARD 64
Andreas 64
Außenminister 64
Erfahrung 64
Finale 64
Fälle 64
General 64
Gott 64
Mal@@ 64
Morgen 64
Rei@@ 64
Schröder 64
Sorgen 64
Suche 64
Versuch 64
Werte 64
bau 64
bezeichnet 64
fühlen 64
geschrieben 64
glaubt 64
größere 64
holen 64
komplett 64
lei@@ 64
sehe 64
standen 64
und@@ 64
van 64
ven@@ 64
weiteres 64
y 64
y-@@ 64
är@@ 64
0.000 63
150 63
19@@ 63
43 63
Agenda 63
Am@@ 63
Anwalt 63
Auftrag 63
Bord 63
Bu@@ 63
Club 63
Engagement 63
Flughafen 63
Hil@@ 63
Immobilien@@ 63
Massen@@ 63
Mitglied 63
Märkte 63
Not@@ 63
Sinn 63
Stefan 63
Teams 63
Tonnen 63
Unternehmens@@ 63
Verhältnis 63
art 63
bessere 63
bewusst 63
ek@@ 63
emp@@ 63
entdeckt 63
erhält 63
folgt 63
fragt 63
führer 63
gestiegen 63
getan 63
gi@@ 63
glaube 63
hal@@ 63
iere 63
ile 63
indem 63
kennen 63
lernen 63
markt@@ 63
positiv 63
schauen 63
tief 63
unseren 63
wirken 63
zi@@ 63
zählt 63
Österreich 63
05 62
42 62
Anhänger 62
Antwort 62
Berg@@ 62
Ermittler 62
Euro@@ 62
Fern@@ 62
Forderung 62
Gold@@ 62
Index 62
Lehmann 62
Los 62
Neue 62
Patienten 62
Steinmeier 62
Tisch 62
Umwelt@@ 62
Vorjahr 62
Y@@ 62
Zugleich 62
angeboten 62
auer 62
aufgenommen 62
chter 62
firma 62
genauso 62
gerechnet 62
hundert 62
isierung 62
jene 62
krise 62
letztlich 62
preis@@ 62
re 62
schlag 62
schlägt 62
schön 62
teil@@ 62
täglich 62
zunehmend 62
ür@@ 62
18,@@ 61
30.@@ 61
Abschluss 61
Bahn-@@ 61
Ben@@ 61
Bewegung 61
Bundeswehr 61
Computer 61
Forschungs@@ 61
Gold 61
Haft 61
Immerhin 61
Jugendliche 61
Kl@@ 61
Kontakt 61
Licht 61
Liter 61
Min@@ 61
Museum 61
Nationalspieler 61
Norden 61
Pauli 61
Provinz 61
Rang 61
Regionen 61
Schell 61
Schäuble 61
Telefon@@ 61
V 61
Verlag 61
Wei@@ 61
X@@ 61
Zeichen 61
Zuschauern 61
alter 61
anten 61
bar@@ 61
berichten 61
chs 61
denkt 61
enn@@ 61
ente 61
entgegen 61
fre@@ 61
geschichte 61
ha@@ 61
hei@@ 61
hervor 61
machten 61
me@@ 61
nennt 61
no@@ 61
reagiert 61
schaften 61
stellung 61
straße 61
the 61
unterwegs 61
vermutlich 61
wechsel 61
x@@ 61
zeit@@ 61
zt 61
Ärzte 61
30. 60
39 60
Aktion 60
Bank@@ 60
Durch@@ 60
Führungs@@ 60
Gründen 60
Hotel 60
Job 60
K 60
Kontrolle 60
Lau@@ 60
Me@@ 60
Nor@@ 60
Papier 60
Schn@@ 60
Sieger 60
Spiegel 60
Stadion 60
ach 60
att@@ 60
bestätigte 60
betroffen 60
daten 60
ds 60
ener 60
erlaubt 60
französische 60
gehabt 60
genden 60
geschlossen 60
großes 60
mel@@ 60
ns 60
par@@ 60
rit@@ 60
schwere 60
spiele 60
trat 60
türkischen 60
verkaufen 60
verstehen 60
vorerst 60
weiterer 60
x 60
-Sprecher 59
11.@@ 59
13. 59
15. 59
15.@@ 59
9,@@ 59
Angriff 59
Besonders 59
Bet@@ 59
Bisher 59
Bre@@ 59
Handels@@ 59
Hypotheken@@ 59
Leverkusen 59
Menge 59
Rom 59
Schle@@ 59
Stars 59
Steuern 59
Trans@@ 59
Wohn@@ 59
ah@@ 59
beginnen 59
bilden 59
dritte 59
eg@@ 59
fl@@ 59
gaben 59
gelang 59
international 59
itz@@ 59
mitteilte 59
prüfen 59
russische 59
schließen 59
selbst@@ 59
sprecher 59
tz 59
weist 59
weitgehend 59
1000 58
13@@ 58
46 58
AFP 58
Bayer 58
Bedeutung 58
Brasilien 58
Bundesliga-@@ 58
Doping@@ 58
Gastgeber 58
Grenzen 58
Immer 58
Nachrichtenagentur 58
Professor 58
Tiefensee 58
Vereinigten 58
Verhalten 58
Vom 58
Wo 58
Zentrum 58
Zinsen 58
Zwischen@@ 58
aufgrund 58
außerhalb 58
berger 58
br@@ 58
dahin 58
ei 58
eingesetzt 58
ernst 58
fahrt 58
geld 58
genannt 58
guter 58
leider 58
ministerium 58
ob@@ 58
offiziell 58
pre@@ 58
ren 58
schl@@ 58
tert 58
ton 58
unk@@ 58
warf 58
werte 58
überraschend 58
54 57
65 57
Angeles 57
Arbeitslosen@@ 57
Arbeitslosengeld 57
Auftritt 57
Betriebs@@ 57
Bildungs@@ 57
Bio@@ 57
Bücher 57
Büro 57
D 57
Dem@@ 57
Europas 57
Finanzminister 57
Forschung 57
Fraktion 57
Gel@@ 57
Generation 57
Joachim 57
Oliver 57
Regional@@ 57
Regisseur 57
Risiken 57
Sachsen 57
San 57
Serie 57
Street 57
Technik 57
Test@@ 57
Trend 57
Unternehmens 57
Werder 57
Win@@ 57
anische 57
ats 57
bauen 57
bestimmten 57
dige 57
europäische 57
gem@@ 57
gende 57
gesamten 57
ich@@ 57
ier 57
indes 57
insbesondere 57
kritisierte 57
lautet 57
lichem 57
mar@@ 57
mehrfach 57
meinem 57
miteinander 57
on-@@ 57
ou@@ 57
politisch 57
ran@@ 57
sel 57
spar@@ 57
tt@@ 57
ut 57
verpflichtet 57
weg@@ 57
ys 57
ziemlich 57
ße 57
är 57
12. 56
19. 56
28.@@ 56
4,@@ 56
47 56
Arbeitgeber 56
Blatt 56
Damals 56
Danach 56
Doppel@@ 56
Düsseldorf 56
Ehe 56
Formel 56
Hans 56
Herbst 56
Horst 56
Kapitän 56
Koalitions@@ 56
Krankenhaus 56
Per@@ 56
Po@@ 56
Profis 56
Ruhe 56
Sonnen@@ 56
Tarifvertrag 56
V-@@ 56
Weihnachts@@ 56
Wohnung 56
ZDF 56
assen 56
außer 56
bestimmt 56
burg 56
ep@@ 56
for@@ 56
gleichzeitig 56
hängt 56
kleiner 56
komme 56
lesen 56
lung 56
men@@ 56
ner@@ 56
oren 56
plus 56
verb@@ 56
zusätzliche 56
37 55
Also 55
Einführung 55
Eis@@ 55
Freiheit 55
Grün@@ 55
Güterverkehr 55
Illustration 55
Konflikt 55
L-@@ 55
Leiter 55
Liste 55
Lu@@ 55
Madrid 55
Mil@@ 55
Person 55
SC 55
Training 55
US-Präsident 55
Verkehrs@@ 55
Vertrauen 55
Weihnachten 55
Wissen 55
Worte 55
angeblich 55
asse 55
bern 55
chinesische 55
els 55
erst@@ 55
früh 55
funktioniert 55
gend 55
höchsten 55
ine 55
iten 55
langsam 55
ma@@ 55
mat@@ 55
punkt 55
scht 55
seite 55
teilen 55
tin 55
öffentliche 55
00@@ 54
10. 54
18. 54
600 54
Band 54
Beckstein 54
Beteiligung 54
Bislang 54
Botschaft 54
Chelsea 54
Einschätzung 54
Erde 54
Essen 54
Fuß 54
Gebiet 54
Heim@@ 54
Investitionen 54
Kandidaten 54
Körper 54
Leistungen 54
Microsoft 54
Minister 54
Niveau 54
Papiere 54
Pause 54
Renn@@ 54
Stuttgarter 54
Taliban 54
Theater 54
Untersuchung 54
Verlust 54
We@@ 54
Zins@@ 54
Zuvor 54
achten 54
ales 54
asch@@ 54
daraus 54
deten 54
diesmal 54
du@@ 54
freie 54
freien 54
gemeinsamen 54
glich 54
größer 54
gung 54
gutes 54
halte 54
hofft 54
igkeit 54
kunden 54
manche 54
private 54
schneller 54
technik 54
verbessern 54
weisen 54
werfen 54
14. 53
24@@ 53
29.@@ 53
53 53
56 53
Angesichts 53
Bes@@ 53
Dagegen 53
Daten@@ 53
Details 53
Deutscher 53
Europäische 53
Frei@@ 53
Fällen 53
Gefängnis 53
HSV 53
Modelle 53
Mor@@ 53
Olympischen 53
Pop@@ 53
Premiere 53
Rücken 53
Schaden 53
Tier@@ 53
Werbe@@ 53
Zentral@@ 53
ah 53
amt 53
daraufhin 53
dienst 53
endgültig 53
esch@@ 53
fehlt 53
ff 53
fin@@ 53
gebiet 53
geboren 53
gesp@@ 53
gn@@ 53
interessiert 53
kel 53
ktionen 53
passt 53
pp@@ 53
reagieren 53
senken 53
spieler 53
str@@ 53
ta@@ 53
tre@@ 53
tw@@ 53
unbedingt 53
wächst 53
äußerte 53
é@@ 53
12.@@ 52
29. 52
55 52
85 52
Afrika 52
Airbus 52
Anspruch 52
Bal@@ 52
Branchen@@ 52
Brand@@ 52
Brief 52
Brief@@ 52
CDU-@@ 52
DFB-@@ 52
E 52
Einer 52
Ferrari 52
Firmen@@ 52
Gar@@ 52
Gegensatz 52
Gesch@@ 52
Indien 52
Jugendlichen 52
Kauf@@ 52
Konzerns 52
Leipzig 52
Li@@ 52
Ministerpräsidenten 52
Pol@@ 52
Reaktion 52
Reform 52
S. 52
Schauspieler 52
Sk@@ 52
Sommer@@ 52
Star 52
Stiftung 52
Süden 52
Tempo 52
Verdacht 52
Verluste 52
VfL 52
Viertel 52
Wein@@ 52
Werke 52
Yorker 52
anischen 52
bezeichnete 52
bt 52
c 52
ch-@@ 52
dt 52
erheblich 52
erlebt 52
ette 52
gemeinsame 52
gr@@ 52
hersteller 52
händler 52
ina 52
istische 52
kar@@ 52
klingt 52
kurs 52
lig@@ 52
ma 52
nennen 52
notwendig 52
oh@@ 52
ologie 52
qu@@ 52
rechten 52
regelmäßig 52
sieg 52
star 52
stiegen 52
teil 52
to@@ 52
tri@@ 52
verlieren 52
verzichten 52
zusätzlich 52
zw@@ 52
Ölpreis 52
übernommen 52
41 51
57 51
Affäre 51
Andere 51
Dis@@ 51
Dortmund 51
Fast 51
Feuer 51
Fischer 51
Freude 51
Hertha 51
Herz@@ 51
Interessen 51
Jahrhundert 51
Jones 51
Jung 51
Kal@@ 51
Klasse 51
Kom@@ 51
Konzern@@ 51
Kre@@ 51
Marco 51
Mehdorn 51
Nationalmannschaft 51
Rest 51
SV 51
Ser@@ 51
Zugang 51
Zuletzt 51
alismus 51
ark@@ 51
behörde 51
cht@@ 51
det 51
dürfe 51
fe@@ 51
firmen 51
frühen 51
galt 51
gefragt 51
gek@@ 51
gelte 51
gruppe 51
halb 51
hört 51
klare 51
lin@@ 51
mp@@ 51
n-@@ 51
pf@@ 51
plant 51
reisen 51
richtige 51
runde 51
san@@ 51
schlug 51
sm@@ 51
sto@@ 51
tigkeit 51
v 51
verschiedenen 51
warnte 51
wiederum 51
zahlreiche 51
zeiten 51
zählen 51
-An@@ 50
10@@ 50
16. 50
26@@ 50
Ad@@ 50
Amtszeit 50
Apple 50
Aufgaben 50
DDR 50
EU-Kommission 50
For@@ 50
Forderungen 50
Frauen@@ 50
Friedrich 50
Hal@@ 50
Han@@ 50
Internet-@@ 50
Kabinett 50
Kurz@@ 50
Linke 50
Neben@@ 50
Nordrhein-Westfalen 50
O 50
Rechte 50
Sach@@ 50
Sachen 50
Schar@@ 50
Spaß 50
Sprache 50
Strom 50
Sub@@ 50
Szene 50
Tra@@ 50
Tu@@ 50
Verteidigungsminister 50
War@@ 50
Wind@@ 50
ZEIT 50
Ziele 50
ann@@ 50
bericht 50
bewegen 50
brach 50
eng 50
fanden 50
frage 50
fähig 50
gedacht 50
gefahren 50
gegen@@ 50
gelungen 50
genutzt 50
gericht 50
gewinnt 50
har@@ 50
heutigen 50
hilft 50
italienischen 50
kraft 50
leiden 50
lösen 50
os@@ 50
relativ 50
satz 50
schafft 50
schn@@ 50
sogenannte 50
streit 50
tt 50
verliert 50
vertreten 50
wichtigen 50
äre 50
-F@@ 49
22. 49
27. 49
36@@ 49
46@@ 49
Abgeordneten 49
Anlass 49
Ausbildung 49
Auswirkungen 49
Bagdad 49
Behörde 49
Betrieb 49
CSU-@@ 49
Derzeit 49
EZB 49
Eintracht 49
Fed 49
General@@ 49
Geschäfte 49
Grad 49
Handy 49
Hinweise 49
Häuser 49
Inzwischen 49
Jahrzehnten 49
Jungen 49
Klage 49
Klose 49
Konjunktur 49
Kreis 49
LB 49
Lehr@@ 49
Lohn@@ 49
Macht@@ 49
Mark@@ 49
Motor 49
Name 49
Paul 49
Presse 49
Qualifikation 49
Regeln 49
Ruf 49
Telekom 49
Verfassung 49
Verfassungs@@ 49
Volk 49
Vorstellung 49
ac@@ 49
del@@ 49
el-@@ 49
elten 49
entstanden 49
enz 49
eröffnet 49
f-@@ 49
ft@@ 49
herum 49
hoffen 49
iPhone 49
ilen 49
ko 49
lers 49
lief 49
linken 49
mel 49
morgen 49
rat@@ 49
schule 49
schulen 49
teuer 49
verfolgt 49
volle 49
warnt 49
ären 49
25. 48
250 48
31. 48
31.@@ 48
6. 48
Al 48
Anders 48
Bad 48
Barcelona 48
Berater 48
Berufs@@ 48
Best@@ 48
Bildung 48
Bochum 48
Brown 48
Computer@@ 48
Dalai 48
Dax 48
Einnahmen 48
Fotos 48
Gast@@ 48
Gebäude 48
Gewinne 48
Ideen 48
International 48
Jan 48
Kampf@@ 48
Kurz 48
Lama 48
Lebens 48
Lufthansa 48
Maria 48
Messe 48
Metern 48
Männern 48
Nieder@@ 48
Plätze 48
Post@@ 48
Roland 48
Rostock 48
Sal@@ 48
Schnitt 48
Schw@@ 48
St. 48
Top@@ 48
Tour 48
Vorhaben 48
Wahrheit 48
Wege 48
Widerstand 48
Wieder@@ 48
Wirkung 48
Züge 48
adi@@ 48
anschließend 48
bezahlen 48
denke 48
erhöht 48
forschung 48
ges 48
gestorben 48
ierenden 48
il 48
istischen 48
kom@@ 48
ministerin 48
nah@@ 48
ort 48
pl@@ 48
solcher 48
sozialen 48
steckt 48
ta 48
unten 48
unterstützt 48
vergessen 48
vo@@ 48
vorstand 48
äch@@ 48
16.@@ 47
21.@@ 47
23. 47
24.@@ 47
51 47
Alexander 47
Alt@@ 47
Bernd 47
Beziehungen 47
Bremer 47
Char@@ 47
Einkommen 47
Erfahrungen 47
Erst@@ 47
Haas 47
Hol@@ 47
Im@@ 47
Initiative 47
Investor 47
Je 47
Junge 47
Ker@@ 47
Käufer 47
L 47
Luft@@ 47
Meine 47
Nutzer 47
Pre@@ 47
Sen@@ 47
Sender 47
Sendung 47
Straf@@ 47
Tatsache 47
US-Dollar 47
Unterschied 47
Verständnis 47
Video 47
Wagen 47
Wall 47
Winter@@ 47
Wunder 47
Wunsch 47
aktiv 47
aktuelle 47
aler 47
amm@@ 47
aner 47
ban@@ 47
beg@@ 47
bezahlt 47
blieben 47
ckt 47
denk@@ 47
einzelnen 47
endes 47
entstehen 47
erei 47
fehlen 47
fällen 47
gesucht 47
gh@@ 47
gte 47
jähriger 47
ken@@ 47
kt@@ 47
kul@@ 47
leiter 47
ling 47
mu@@ 47
nahmen 47
schuss 47
so@@ 47
spiegel@@ 47
tot 47
unterstützen 47
ure 47
verbot 47
verboten 47
verfahren 47
verändert 47
wagen 47
zentrum 47
züge 47
22.@@ 46
8. 46
Anteile 46
Arbeitnehmer 46
Aussagen 46
Auswahl 46
Autor 46
BA 46
Benazir 46
Bild@@ 46
Bruder 46
Die@@ 46
Drogen@@ 46
Du 46
Eindruck 46
Einigung 46
Entscheidungen 46
Falle 46
Geb@@ 46
Gerhard 46
Ges@@ 46
Hel@@ 46
Herz 46
Hin@@ 46
Hinter@@ 46
IAA 46
Internationalen 46
Klima@@ 46
Konferenz 46
Maschine 46
Mehr@@ 46
Mord 46
Mu@@ 46
Ne@@ 46
Produktions@@ 46
Sol@@ 46
Sorge 46
Spekulationen 46
Spieltag 46
Stein@@ 46
Stil 46
Straßen@@ 46
Ukraine 46
Verkehr 46
Wahlen 46
Winter 46
Zug 46
bi@@ 46
buch 46
cker 46
ddp 46
drohen 46
drücken 46
eigener 46
ek 46
entwicklung 46
erinnen 46
erscheint 46
ess@@ 46
fern 46
form@@ 46
freilich 46
fähigkeit 46
fürchten 46
gan@@ 46
gehandelt 46
gers 46
gestartet 46
gruppen 46
größeren 46
ill@@ 46
lan@@ 46
lig 46
pel 46
scheinen 46
staatlichen 46
tliche 46
türkische 46
uren 46
wi@@ 46
wider@@ 46
wonach 46
zeigten 46
Öl 46
28. 45
37@@ 45
Agentur 45
All 45
Arbeitsplätze 45
B-@@ 45
Demonstranten 45
Dr@@ 45
Duisburg 45
F.A.Z. 45
Flugzeug 45
Gedanken 45
Gegenteil 45
Grenz@@ 45
Gründe 45
Halbfinale 45
Holz@@ 45
Insel 45
James 45
Karlsruhe 45
Kr@@ 45
Manfred 45
Nachmittag 45
Nationen 45
Netz@@ 45
Respekt 45
SZ 45
Schl@@ 45
Sozialdemokraten 45
Spanier 45
Strafe 45
Städten 45
Tages 45
Tradition 45
Traum 45
Tür 45
W 45
Wahlkampf 45
Wel@@ 45
ang@@ 45
ap 45
ator 45
ausgerechnet 45
bers 45
bet@@ 45
bricht 45
dauern 45
davor 45
dert 45
dete 45
dorf 45
dungs@@ 45
englischen 45
erhielt 45
erhöhen 45
fil@@ 45
gef@@ 45
gefährlich 45
gescheitert 45
gu@@ 45
heit@@ 45
kürzlich 45
min@@ 45
mittel@@ 45
mitten 45
nahezu 45
persönlich 45
raten 45
rau@@ 45
rechts 45
reg@@ 45
retten 45
schien 45
schloss 45
stammt 45
tag 45
unklar 45
vertrag 45
zahl 45
zitiert 45
09.@@ 44
14.@@ 44
2,5 44
58 44
Alters@@ 44
Analyse 44
Arbeit@@ 44
Bedingungen 44
Erklärung 44
Ernst 44
Filme 44
Fisch@@ 44
Gabriel 44
Geburtstag 44
Größe 44
Hau@@ 44
Kreditkrise 44
Krisen@@ 44
Kritiker 44
Literatur@@ 44
Mat@@ 44
Nachbarn 44
Parteichef 44
R 44
Regelung 44
Schuld 44
Start@@ 44
Umsatz@@ 44
Unsere 44
Verlängerung 44
Vier@@ 44
Volk@@ 44
Welche 44
Werbung 44
Wiesbaden 44
af@@ 44
arbeiter 44
aren 44
auff@@ 44
ausgeschlossen 44
ausschließlich 44
belastet 44
beraten 44
berichteten 44
bisherige 44
ches 44
di 44
digt 44
diskutiert 44
entsprechend 44
erreichte 44
fliegen 44
fuhr 44
geblieben 44
genannten 44
halbe 44
heißen 44
höheren 44
iel 44
itäten 44
la 44
mach@@ 44
nt 44
offenen 44
por@@ 44
scher 44
schließt 44
spanischen 44
sport@@ 44
spät 44
stell@@ 44
steuer 44
stoff 44
tende 44
teure 44
tigt 44
tischen 44
verdienen 44
versicherung 44
verstärkt 44
vorbereitet 44
wichtiger 44
zen@@ 44
zweit@@ 44
1,2 43
27@@ 43
3. 43
34 43
800 43
Arena 43
Au@@ 43
Ausgleich 43
Beamten 43
Bel@@ 43
DFB 43
Daher 43
End@@ 43
Finanzierung 43
Franzosen 43
Grünen-@@ 43
Handys 43
Herausforderung 43
Jörg 43
Kapital 43
Klimaschutz 43
Ku@@ 43
Lang@@ 43
Mag@@ 43
Material 43
NPD 43
Nah@@ 43
Natur@@ 43
Niedersachsen 43
Obwohl 43
PKK 43
Panorama 43
Positionen 43
Reform@@ 43
Regierungschef 43
Schutz@@ 43
Schweden 43
Schwer@@ 43
Sinne 43
Sitz 43
Sitzung 43
Spar@@ 43
Spur 43
Stahl@@ 43
Teile 43
Teilnahme 43
Touristen 43
Truppen 43
Universitäten 43
Urlaub 43
Vorgehen 43
Vorstoß 43
Ze@@ 43
Zwei@@ 43
Zweiten 43
Zähler 43
ausgesprochen 43
az@@ 43
beendet 43
bekam 43
beobachtet 43
berlin 43
cks 43
dauer 43
dig 43
dlichen 43
dre@@ 43
druck 43
eindeutig 43
erzielte 43
fach@@ 43
gerät 43
geschehen 43
glücklich 43
haften 43
hoffe 43
holte 43
i-@@ 43
ic 43
informiert 43
ings 43
itz 43
itäts@@ 43
offensichtlich 43
perfekt 43
reich 43
reiche 43
rufen 43
ruft 43
schutz@@ 43
seh@@ 43
sterben 43
stück 43
verbunden 43
verhandelt 43
verschiedene 43
vi@@ 43
vollständig 43
vorn 43
wann 43
wechseln 43
welt@@ 43
zunehmen 43
ön@@ 43
überrascht 43
17. 42
1998 42
24. 42
26. 42
3,@@ 42
Anwälte 42
Asien 42
Ba@@ 42
Baden-Württemberg 42
Begründung 42
Bilanz 42
Bonn 42
Bra@@ 42
C 42
Comeback 42
Dienst 42
Do@@ 42
Einheit 42
Erste 42
Gleichzeitig 42
Gruppen 42
Hör@@ 42
Islam 42
Jens 42
Karte 42
Kern@@ 42
Kopf@@ 42
La 42
Leistungs@@ 42
Lie@@ 42
Lin@@ 42
Mainz 42
Mas@@ 42
Mein 42
Mitarbeitern 42
No@@ 42
Philipp 42
Podolski 42
Prognose 42
Pu@@ 42
Rau@@ 42
Reich 42
Sa@@ 42
Schuss 42
Schwierigkeiten 42
Siemens 42
Studien@@ 42
T-Mobile 42
Unterdessen 42
Video@@ 42
Vizekanzler 42
Vorbild 42
Vorteil 42
Weitere 42
Will 42
Wohl@@ 42
Zeitungen 42
abgelehnt 42
abgeschlossen 42
aden 42
alisierung 42
allzu 42
ant@@ 42
ante 42
bestimmte 42
dr@@ 42
eien 42
eil 42
erer 42
erfahren 42
erfüllt 42
flug 42
fürs 42
geholt 42
genügend 42
geschafft 42
geschickt 42
gestanden 42
hafte 42
hilfe 42
ib@@ 42
internen 42
irgendwann 42
la@@ 42
lauf 42
licht 42
lä@@ 42
mor@@ 42
one 42
persönliche 42
persönlichen 42
rechts@@ 42
res 42
rich@@ 42
richtigen 42
schul@@ 42
sinn@@ 42
sorgte 42
soziale 42
ste@@ 42
tel 42
ter-@@ 42
ters 42
trag@@ 42
vers@@ 42
vorgeworfen 42
war@@ 42
wor@@ 42
äußern 42
-J@@ 41
06 41
1,5 41
5. 41
Abgeordnete 41
Ausgabe 41
Aussicht 41
Autoren 41
Begriff 41
Birma 41
Center 41
Christoph 41
Dresden 41
Eigen@@ 41
Erfolge 41
Erhöhung 41
Fahrzeuge 41
Fehl@@ 41
Gipfel 41
Gleich@@ 41
Gut 41
Harry 41
Jahresende 41
Kevin 41
Literatur 41
Londoner 41
Magazin 41
Management 41
Matthias 41
Mönche 41
Neues 41
Nicolas 41
Pfund 41
Ralf 41
Rande 41
Real 41
Recht@@ 41
Sie@@ 41
Sonne 41
Terrorismus 41
Ton@@ 41
Tri@@ 41
Uni@@ 41
Verbot 41
Verkehr@@ 41
Viel 41
Volkswagen 41
Willen 41
Wor@@ 41
Zentimeter 41
ak 41
ana 41
ative 41
bauer 41
bewegt 41
branche 41
bundesweit 41
direktor 41
dung 41
durfte 41
ehe 41
entsprechenden 41
fs 41
handeln 41
ini 41
investieren 41
kre@@ 41
legten 41
len@@ 41
lich@@ 41
liste 41
lu@@ 41
mark@@ 41
maßnahmen 41
mern 41
ot@@ 41
ph@@ 41
präsentiert 41
schwachen 41
schwarze 41
selber 41
sinken 41
son@@ 41
staatliche 41
stag 41
stand@@ 41
stellten 41
stolz 41
te-@@ 41
teile 41
tlich 41
unge@@ 41
unterdessen 41
voraus 41
wachsen 41
zahlt 41
zumal 41
Äußerungen 41
2011 40
27.@@ 40
30@@ 40
700 40
95 40
96 40
Abschied 40
Abstand 40
Abstimmung 40
Aktuell 40
Anschlag 40
Antrag 40
Artikel 40
Ban@@ 40
Bei@@ 40
Beitrag 40
Beschluss 40
Betreiber 40
Chef@@ 40
Christ@@ 40
Cottbus 40
Dirk 40
Duell 40
Ehren@@ 40
Ersatz@@ 40
Fu@@ 40
Gang 40
Ganz 40
Gesundheits@@ 40
Glas@@ 40
Große 40
Hitzfeld 40
Kapital@@ 40
Mach@@ 40
Markus 40
Meyer 40
Minus 40
Motor@@ 40
Motto 40
Peer 40
Pflicht 40
Posten 40
Profi 40
Reisen 40
Religion 40
Rente 40
Rückstand 40
Sanktionen 40
T 40
Tat@@ 40
Te@@ 40
Teheran 40
Termin 40
Toni 40
Version 40
Vorschläge 40
Vorstandschef 40
Vorwurf 40
Wald@@ 40
Z 40
anlagen 40
anti@@ 40
antreten 40
ativen 40
aufgefordert 40
baut 40
beschlossen 40
beschäftigt 40
best@@ 40
besuchen 40
betroffenen 40
damaligen 40
diert 40
dische 40
durchsetzen 40
entsprechende 40
erg@@ 40
eten 40
fle@@ 40
frei@@ 40
gehörte 40
gleiche 40
halben 40
herrscht 40
hervor@@ 40
ick@@ 40
ie-@@ 40
ierter 40
ing-@@ 40
ino 40
je@@ 40
lasse 40
leute 40
liefern 40
liege 40
möglichkeiten 40
no 40
ok@@ 40
oll@@ 40
ord@@ 40
pe@@ 40
prä@@ 40
ras@@ 40
sagten 40
schläge 40
schm@@ 40
ser 40
steten 40
tel@@ 40
tä@@ 40
umstrittenen 40
un 40
unserem 40
up@@ 40
vielmehr 40
w 40
wal@@ 40
wartet 40
werten 40
womöglich 40
wünschen 40
yer 40
ül@@ 40
ün@@ 40
20.000 39
AL@@ 39
Ackermann 39
Aufmerksamkeit 39
Aufschwung 39
Börsen 39
C-@@ 39
Chinesen 39
Dach 39
Eigentlich 39
Erfolgs@@ 39
Erstmals 39
Etwa 39
Fe@@ 39
Fernando 39
Fin@@ 39
Fr@@ 39
Fuß@@ 39
Förder@@ 39
Förderung 39
Gemeinde 39
Gr@@ 39
Hochschul@@ 39
Ihren 39
Industrie@@ 39
Jena 39
Juden 39
K-@@ 39
Lei@@ 39
Linken 39
Luxus@@ 39
Metall 39
Mi@@ 39
Militär 39
Neuer 39
Pl@@ 39
Rekord 39
Rock 39
Schumacher 39
Stattdessen 39
Sturm 39
Stärke 39
Tatsächlich 39
Transnet 39
Tschechien 39
Umwelt 39
United 39
Vorsitzenden 39
Weltmeisterschaft 39
Wende 39
Wes@@ 39
Wil@@ 39
Zentralbank 39
Zusammen@@ 39
amen 39
bedarf 39
burger 39
drei@@ 39
erzielt 39
ese 39
extrem 39
finde 39
fälle 39
gelt 39
gemeldet 39
genannte 39
geradezu 39
gewinn 39
geändert 39
grundsätzlich 39
heim@@ 39
heiten 39
hol@@ 39
html 39
häuser 39
iker 39
iti@@ 39
konzerns 39
land@@ 39
lern 39
letzter 39
marke 39
ors 39
pol@@ 39
pro@@ 39
ra 39
reich@@ 39
rück@@ 39
seln 39
sichern 39
stecken 39
techn@@ 39
teurer 39
theit 39
tlichen 39
tor@@ 39
treibt 39
unabhängig 39
verlangen 39
wählen 39
zig 39
zuständig 39
ßt 39
öl@@ 39
3000 38
350 38
45@@ 38
59 38
Air 38
Allgemeinen 38
Angebote 38
Arzt 38
Australien 38
Ben 38
Cup 38
Da@@ 38
Dennis 38
Doping 38
Doping-@@ 38
Drei@@ 38
Entwurf 38
Euro-@@ 38
Fal@@ 38
Feld 38
Flucht 38
Ford 38
Gemeinschaft 38
Generalsekretär 38
Gesundheit 38
Ha@@ 38
Hochschulen 38
Hoeneß 38
Italiener 38
Jur@@ 38
Karten 38
Konsum@@ 38
Kor@@ 38
Köhler 38
Mailand 38
Mittelpunkt 38
Nichts 38
Pf@@ 38
Protest 38
Rainer 38
Renten@@ 38
Rock@@ 38
S-@@ 38
Saison@@ 38
Schatten 38
Teilen 38
Tiere 38
Torhüter 38
Tote 38
U 38
Umgang 38
Uwe 38
Wagner 38
Werner 38
Wert@@ 38
Wo@@ 38
Wähler 38
Yen 38
aktuell 38
alität 38
angebot 38
ani 38
app@@ 38
ard 38
ausreichend 38
ausschuss 38
aussehen 38
außen 38
barkeit 38
befindet 38
bra@@ 38
drehen 38
ed@@ 38
entgegen@@ 38
entspricht 38
etz@@ 38
falsche 38
freuen 38
gekauft 38
gemäß 38
hren 38
kultur 38
lebens@@ 38
leidet 38
linien 38
mag@@ 38
mehr@@ 38
mi@@ 38
ologen 38
opp@@ 38
ppe 38
praktisch 38
programm 38
raum 38
roten 38
schicken 38
serie 38
son 38
sparen 38
star@@ 38
starten 38
steuer@@ 38
stoppen 38
sätze 38
treiben 38
tten 38
tu@@ 38
wahr@@ 38
zahlreichen 38
ältere 38
äu@@ 38
1994 37
28@@ 37
3,5 37
64 37
67 37
9. 37
Allianz 37
Ausbau 37
Ballack 37
Beiträge 37
Bildmaterial 37
Brand 37
Bundesverfassungsgericht 37
Bus 37
Carlos 37
Champions-League-@@ 37
Darüber 37
Demokraten 37
Elf 37
Far@@ 37
Finanzkrise 37
Fl@@ 37
Freiburg 37
Gast 37
Gener@@ 37
Günther 37
Hafen@@ 37
Halb@@ 37
Haltung 37
Helmut 37
Hände 37
IG 37
Image 37
Instituts 37
Kaczynski 37
Kilometern 37
Kin@@ 37
Kle@@ 37
Kraft@@ 37
Kriegs@@ 37
König 37
Lokführ@@ 37
Mad@@ 37
Mauer 37
McLaren-Mercedes 37
Meer 37
Mittelfeld 37
Morgan 37
Nowitzki 37
P 37
Personen@@ 37
Pressekonferenz 37
Ri@@ 37
Rice 37
Richard 37
Schicksal 37
Sh@@ 37
Silber@@ 37
Teilnehmer 37
Trau@@ 37
Unfall 37
Unser 37
Verteidiger 37
Vorgänger 37
Wachstums@@ 37
Wolfsburg 37
Zuge 37
Zustimmung 37
ack@@ 37
amp@@ 37
are@@ 37
asi@@ 37
ast@@ 37
ausdrücklich 37
ausgehen 37
begeistert 37
behalten 37
chn@@ 37
dlich 37
ds@@ 37
entscheidenden 37
err@@ 37
fi@@ 37
film 37
finanziert 37
fu@@ 37
getragen 37
greift 37
hängen 37
kal@@ 37
kampf 37
kräftig 37
kurzem 37
leitung 37
lieben 37
linge 37
mal@@ 37
massiv 37
nis@@ 37
politischer 37
rein@@ 37
res@@ 37
rie@@ 37
schau@@ 37
schlechter 37
schwer@@ 37
sozial@@ 37
späten 37
spätestens 37
stimmen 37
stärken 37
tak@@ 37
teils 37
tens 37
tiges 37
ub@@ 37
ungsp@@ 37
verhindert 37
verlust 37
verz@@ 37
vorgelegt 37
vorgestellt 37
welcher 37
win@@ 37
wohl@@ 37
wort 37
wusste 37
zurückzu@@ 37
zweimal 37
äl@@ 37
übernimmt 37
05.@@ 36
1-@@ 36
1995 36
5,@@ 36
Album 36
Andrea 36
Arbeitsk@@ 36
Aufsichtsrat 36
Auftakt 36
Beobachter 36
Besch@@ 36
Bier 36
Boden@@ 36
Bor@@ 36
Chrysler 36
Direktor 36
Ebene 36
Europäer 36
Fil@@ 36
Gerechtigkeit 36
Grundlage 36
Gute 36
Hauses 36
Himmel 36
Jahrhunderts 36
Kat@@ 36
Kosten@@ 36
Kurse 36
Laden 36
Landgericht 36
Laufe 36
Lebensmittel@@ 36
Mak@@ 36
Menschen@@ 36
N 36
Nr. 36
Personal 36
Ph@@ 36
Prinzip 36
Reformen 36
Regen@@ 36
Rendite 36
Rivalen 36
Räikkönen 36
San@@ 36
Shanghai 36
Sieben 36
Spe@@ 36
Sprach@@ 36
Stand@@ 36
Studien 36
Titel@@ 36
Toyota 36
UN-@@ 36
Volker 36
Wall@@ 36
Walter 36
World 36
Ziel@@ 36
abel 36
ack 36
ander@@ 36
anz 36
aut 36
beinahe 36
betrieb 36
ce 36
dar 36
dliche 36
einzelne 36
eit@@ 36
ermittelt 36
erstes 36
ex@@ 36
fel@@ 36
fielen 36
flug@@ 36
folgenden 36
fort 36
fort@@ 36
fügte 36
führenden 36
fünften 36
gefeiert 36
gens 36
gerecht 36
gerin 36
geschaffen 36
gesellschaften 36
get@@ 36
go@@ 36
gro@@ 36
gs 36
handel 36
il-@@ 36
inter@@ 36
isen 36
jahr 36
jüngste 36
ker@@ 36
kette 36
km 36
konzerne 36
laden 36
losigkeit 36
maximal 36
meister 36
melden 36
mis@@ 36
netz 36
nis 36
ologe 36
sage 36
sam 36
saß 36
schwierig 36
sicherte 36
starb 36
tenden 36
th 36
tierte 36
tungen 36
uner@@ 36
unver@@ 36
verbreitet 36
verlangt 36
vermeiden 36
vollen 36
voran 36
voraussichtlich 36
weltweiten 36
west@@ 36
westlichen 36
wür@@ 36
z-@@ 36
zeichen 36
é 36
überlegen 36
üt@@ 36
02.@@ 35
1.@@ 35
70@@ 35
Alkohol 35
Arbeitsmarkt 35
B. 35
Beamte 35
Bedenken 35
Bett 35
Bewohner 35
Börsengang 35
Chaos 35
City 35
Dauer@@ 35
Demnach 35
Dre@@ 35
Durchschnitt 35
Fre@@ 35
Frieden 35
Fritz 35
Ham@@ 35
Hartmut 35
Haushalt 35
Industri@@ 35
Johannes 35
Ka@@ 35
Kilogramm 35
Kohl 35
Körper@@ 35
Lager 35
Lauf@@ 35
Lynch 35
Medizin@@ 35
Men@@ 35
Milliarden@@ 35
Offensive 35
Olympia-@@ 35
Park 35
Premier 35
Prinz 35
RWE 35
Real@@ 35
Republik 35
Roh@@ 35
SPD-Chef 35
Schauspielerin 35
Sicherheitskräfte 35
Spion@@ 35
Spuren 35
Südafrika 35
Tab@@ 35
Tennis@@ 35
Test 35
Toten 35
Trennung 35
Tsch@@ 35
Turnier 35
UN@@ 35
Ulrich 35
Uni 35
Unternehmer 35
Vereinten 35
Vi@@ 35
Videos 35
Vier 35
Wales 35
Web@@ 35
West 35
Wien 35
Wind 35
Zustand 35
abgesch@@ 35
angel@@ 35
arten 35
ase 35
auen 35
ausgesetzt 35
beenden 35
bert 35
big 35
bot 35
deutliche 35
dient 35
dringend 35
durchschnittlich 35
ec@@ 35
ehr@@ 35
eigenes 35
einzigen 35
endet 35
frem@@ 35
führten 35
gegründet 35
gewarnt 35
gl@@ 35
gs@@ 35
holt 35
ingen 35
ion 35
ir 35
irakischen 35
kauft 35
klären 35
kurze 35
lehnte 35
locken 35
lungen 35
m-@@ 35
mitglieder 35
nationalen 35
nde 35
online 35
pen@@ 35
reduziert 35
regeln 35
rein 35
reise 35
schnelle 35
seitdem 35
sicherlich 35
spüren 35
stellungen 35
steuern 35
strecke 35
stu@@ 35
tausend 35
teilt 35
tene 35
tor 35
ve 35
weiten 35
wenigstens 35
zut@@ 35
ände 35
-Sieg 34
17.@@ 34
1997 34
3-@@ 34
4. 34
40@@ 34
5000 34
7,@@ 34
7. 34
8,@@ 34
87@@ 34
Ag@@ 34
Amts@@ 34
Arbeiten 34
Atmosphäre 34
Ausland@@ 34
Auslands@@ 34
Bas@@ 34
Beruf 34
Beschäftigte 34
Bier@@ 34
Billig@@ 34
Bl@@ 34
Bundeslig@@ 34
Bundesrepublik 34
Cor@@ 34
Deutsch 34
Dorf 34
Dr. 34
Dritte 34
Entwicklungs@@ 34
Erinnerung 34
FC@@ 34
Felix 34
Finanzmärkten 34
Fort@@ 34
Gelegenheit 34
Gelände 34
Gerüchte 34
Get@@ 34
Gra@@ 34
Grass 34
Gründer 34
Grüne 34
Gu@@ 34
Hafen 34
Hotels 34
Hu@@ 34
Islam@@ 34
Jahr@@ 34
Ju@@ 34
Justiz@@ 34
Kir@@ 34
Kunden@@ 34
Landtag 34
Löwen 34
Mel@@ 34
Millionen@@ 34
Mis@@ 34
Nation 34
Phase 34
Pi@@ 34
Projekte 34
Proteste 34
Reg@@ 34
Schlag@@ 34
Schneider 34
See 34
Spezial@@ 34
Spitzenreiter 34
Statt 34
Stellung 34
Streik@@ 34
Städte 34
T-@@ 34
TV 34
Team@@ 34
Umständen 34
Verbindung 34
Vorbereitung 34
Vortag 34
Waffen 34
Zeugen 34
Zukunfts@@ 34
Zunächst 34
Zwischen 34
afghanischen 34
anteil 34
ausgezeichnet 34
av@@ 34
bal@@ 34
ball 34
bedroht 34
behaupten 34
bestand 34
bildung 34
bloß 34
dar@@ 34
deswegen 34
dieren 34
effe@@ 34
einiger 34
eit 34
engen 34
freiwillig 34
gar@@ 34
gearbeitet 34
gebieten 34
gefährdet 34
gestrichen 34
getreten 34
größter 34
gründen 34
hausen 34
hielten 34
hinter@@ 34
id 34
inen 34
inn@@ 34
kat@@ 34
kel@@ 34
lichkeiten 34
lie@@ 34
lige 34
ligen 34
löste 34
modell 34
näher 34
ong 34
organisation 34
pläne 34
ppen 34
präsentieren 34
regierung 34
rote 34
ruhig 34
schafts@@ 34
schlechte 34
schluss 34
selbstverständlich 34
spolitik 34
t. 34
tit@@ 34
tos 34
unde 34
unterschiedliche 34
untersucht 34
ursprünglich 34
vereinbart 34
verletzten 34
verstanden 34
versuche 34
versuchte 34
vorlegen 34
vorne 34
wen@@ 34
wichtigste 34
zo@@ 34
10.000 33
29@@ 33
48@@ 33
68 33
Alternative 33
Angelegenheit 33
Anlage@@ 33
Aufbau 33
BBC 33
Besitzer 33
Blut@@ 33
Bü@@ 33
Chinas 33
Daimler 33
Dank 33
Dialog 33
Erkenntnisse 33
Formel-1-@@ 33
Foto@@ 33
Freunden 33
Freundin 33
Gas 33
Gesetzentwurf 33
Gi@@ 33
Halbzeit 33
Informations@@ 33
Jo@@ 33
Kas@@ 33
Konzerne 33
La@@ 33
Lange 33
M 33
Mc@@ 33
Mer@@ 33
Mindest@@ 33
Natur 33
Norbert 33
Nordirak 33
Organisationen 33
PS 33
Pap@@ 33
Pariser 33
Patrick 33
Pilot 33
Piloten 33
Politik@@ 33
Programm@@ 33
RAF@@ 33
Rat@@ 33
Reis@@ 33
Rie@@ 33
Riesen@@ 33
Risiko@@ 33
Russlands 33
Senat 33
Solar@@ 33
Später 33
Ster@@ 33
Studium 33
Tief@@ 33
Todes@@ 33
Tom 33
Tür@@ 33
UEFA-@@ 33
Verdächtigen 33
Vereins@@ 33
Verträge 33
Viertelfinale 33
Vorsprung 33
WestLB 33
Zimmer 33
akzeptiert 33
aufmerksam 33
ausfallen 33
band 33
banken 33
bayerischen 33
befinden 33
begleitet 33
bekannte 33
besondere 33
betrachtet 33
bewegung 33
bilder 33
demokratischen 33
des@@ 33
desto 33
diger 33
einander 33
entlassen 33
entsteht 33
erleben 33
erzielen 33
es-@@ 33
fangen 33
fertig 33
flo@@ 33
forscher 33
gefällt 33
gene 33
gespräch 33
gestoßen 33
grünen 33
hessischen 33
historischen 33
ili@@ 33
keinem 33
keiten 33
live 33
mes 33
mung 33
net 33
neu@@ 33
niemals 33
offen@@ 33
organisiert 33
ose 33
plätze 33
positiven 33
raus 33
rech@@ 33
scharf 33
schwarzen 33
sichere 33
sprachen 33
staat 33
stattfinden 33
stei@@ 33
stra@@ 33
strei@@ 33
technischen 33
teuren 33
tur@@ 33
us-@@ 33
verein 33
vergeben 33
veröffentlicht 33
wach@@ 33
wachsenden 33
wahr 33
weit@@ 33
werke 33
wert@@ 33
ya 33
zone 33
zulassen 33
Ärger 33
übrigen 33
-P@@ 32
.com 32
0-@@ 32
120 32
130 32
1996 32
26.@@ 32
Aachen 32
Abwehr@@ 32
Ali 32
American 32
Analyst 32
Ankündigung 32
Anlagen 32
Anne 32
Arbeiter 32
Arm 32
Befragten 32
Betroffenen 32
Bezugs@@ 32
Borussia 32
Delegierten 32
Ecke 32
Edmund 32
El 32
Eltern@@ 32
Erdogan 32
Erwin 32
Fer@@ 32
Franken 32
Für@@ 32
Gewicht 32
Gro@@ 32
K. 32
Kamera 32
Karlsruher 32
Kiel 32
Klimawandel 32
Kra@@ 32
Kräfte 32
Küche 32
Leben@@ 32
Medienberichten 32
Meister@@ 32
Milliarde 32
Mitgliedern 32
Ordnung 32
Park@@ 32
Passagiere 32
Pil@@ 32
Pokal 32
Polit@@ 32
Produkt@@ 32
Schiedsrichter 32
Schwe@@ 32
Sebastian 32
Sex 32
Show 32
Spitz@@ 32
Stellungnahme 32
Steve 32
Tro@@ 32
Türken 32
Untersuchungen 32
Ursache 32
Vereinigung 32
Verletzung 32
Vorsitzender 32
Wachstum@@ 32
Wochen@@ 32
Zeitschrift 32
Zin@@ 32
ahn@@ 32
angenommen 32
ass@@ 32
ativ 32
ausländischen 32
begründet 32
begründete 32
behandelt 32
belegt 32
bestätigen 32
breiten 32
bundes@@ 32
cher@@ 32
dungen 32
ef@@ 32
egal 32
einstellen 32
enter 32
entscheidet 32
enttäuscht 32
ernsthaft 32
fachen 32
feiern 32
fern@@ 32
flu@@ 32
folge 32
fragte 32
freundlich 32
gehörten 32
gezwungen 32
groß@@ 32
hab@@ 32
hel@@ 32
häufiger 32
hö@@ 32
höchste 32
ierungen 32
ierungs@@ 32
iler 32
ille 32
illi@@ 32
ise 32
japanischen 32
klagen 32
klein 32
konservativen 32
kurzen 32
kurzfristig 32
kämpft 32
leg@@ 32
legung 32
lehnt 32
leichter 32
lobte 32
längere 32
met@@ 32
ministeriums 32
miss@@ 32
nissen 32
plan 32
produktion 32
punkte 32
rate 32
reform 32
sahen 32
schen@@ 32
schlag@@ 32
schlechten 32
ski 32
startet 32
steigende 32
steigenden 32
stellvertretende 32
streichen 32
su@@ 32
teilten 32
tief@@ 32
trug 32
unterscheiden 32
verbessert 32
verbände 32
versteht 32
verteilt 32
vierte 32
wand@@ 32
weis@@ 32
wenden 32
wirtschaftliche 32
wur@@ 32
ze@@ 32
zeu@@ 32
zweifel@@ 32
ös 32
übertragen 32
üblichen 32
ück@@ 32
-Zeitung 31
200@@ 31
5.html 31
66 31
AS@@ 31
Aktionäre 31
Anschlägen 31
Auge 31
Automobil@@ 31
Bedarf 31
Begegnung 31
Bielefeld 31
Briten 31
Em@@ 31
Fenster 31
Fortschritte 31
Friedens@@ 31
G-@@ 31
Geheim@@ 31
Genau 31
Geräte 31
Gesprächen 31
Glauben 31
Go@@ 31
Güter@@ 31
H 31
Halle 31
Hat 31
Herkunft 31
Hochschule 31
Hunderte 31
IKB 31
Investment@@ 31
Klar 31
Klima 31
Knie 31
Kollege 31
Konjunktur@@ 31
Konsequenzen 31
Leser 31
Leyen 31
Mario 31
Nachricht 31
Northern 31
Pakistans 31
Pal@@ 31
Party 31
Pau@@ 31
Praxis 31
Reise@@ 31
Reuters 31
Revolution 31
Russen 31
Rückgang 31
Schlagzeilen 31
Schlüssel@@ 31
Sim@@ 31
Sinkewitz 31
Sti@@ 31
Streitkräfte 31
Such@@ 31
Tau@@ 31
Tem@@ 31
Terror 31
Titelverteidiger 31
Top-@@ 31
Tre@@ 31
Tur@@ 31
Turbulenzen 31
Unterschiede 31
Veranstaltung 31
Vereinbarung 31
Verletzungen 31
Versicherungs@@ 31
Waffen@@ 31
Wiener 31
Zul@@ 31
abe 31
abermals 31
acht@@ 31
ahnen 31
arbeits@@ 31
asiatischen 31
aufen 31
berater 31
bereitschaft 31
berühmten 31
besie@@ 31
besucht 31
breit 31
bro@@ 31
chs@@ 31
dachte 31
dienst@@ 31
dienste 31
do 31
dra@@ 31
dran 31
draußen 31
erfüllen 31
fahrer 31
finanziell 31
fühlt 31
geh@@ 31
gelaufen 31
großem 31
herum@@ 31
hinnehmen 31
hinterher 31
ins@@ 31
investiert 31
ip@@ 31
italienische 31
klasse 31
kostete 31
ktions@@ 31
langfristig 31
leitet 31
lieb@@ 31
lock@@ 31
länder 31
massive 31
modernen 31
mut@@ 31
mü@@ 31
ow@@ 31
pa@@ 31
privat@@ 31
produkte 31
ps 31
rates 31
schef 31
schlicht 31
schwerer 31
schätzt 31
see 31
staats@@ 31
stoffe 31
stä@@ 31
ständen 31
sä@@ 31
süd@@ 31
tau@@ 31
technische 31
the@@ 31
tätig 31
umstrittene 31
unterschiedlichen 31
utz@@ 31
va 31
ver 31
verk@@ 31
vermögen 31
wesentlich 31
wit@@ 31
wunder@@ 31
zeichnet 31
zentrale 31
zerstört 31
zurzeit 31
ähnlichen 31
änder 31
überzeugen 31
übrigens 31
2012 30
35@@ 30
38@@ 30
49@@ 30
55@@ 30
60@@ 30
68@@ 30
72 30
ARD-@@ 30
Ab 30
Anfrage 30
Augen@@ 30
Ausnahmezustand 30
BKA 30
Bayern-@@ 30
Behandlung 30
Berg 30
Beruf@@ 30
Bhut@@ 30
Bierhoff 30
Bir@@ 30
Brandenburg 30
Bundes 30
Darin 30
Dienst@@ 30
Distanz 30
Dollar-@@ 30
Dresdner 30
Eröffnung 30
Europameisterschaft 30
Fahrt 30
Fusion 30
Gebühren 30
Gefahren 30
Gegenwart 30
Gem@@ 30
Gerichtshof 30
Gleich 30
Gri@@ 30
Griechenland 30
Griff 30
Haben 30
Hinweis 30
II 30
Jung@@ 30
Kabul 30
Kam@@ 30
Karl 30
Kompromiss 30
Kongress 30
Kontroll@@ 30
Kranken@@ 30
Kredite 30
Kreis@@ 30
Leiche 30
Les@@ 30
Liquidität 30
Luca 30
Mand@@ 30
Maschinen@@ 30
Mehrere 30
Mercedes 30
Merrill 30
Mitteilung 30
Mobilfunk@@ 30
Mord@@ 30
Musi@@ 30
Nachrichten@@ 30
Niemand 30
Oppositions@@ 30
Otto 30
Paar 30
Patri@@ 30
Pflege@@ 30
Plastik@@ 30
Plattform 30
Presse@@ 30
Refer@@ 30
Restaurant 30
Rio 30
Rote 30
Rüttgers 30
Sand@@ 30
Schau@@ 30
Schlag 30
Seitdem 30
Sind 30
Skandal 30
Sonntagabend 30
Sportdirektor 30
Tausende 30
Telefon 30
Tusk 30
U-@@ 30
University 30
Unternehmen@@ 30
Veröffentlichung 30
Voraussetzungen 30
Vorgaben 30
WM@@ 30
Wach@@ 30
Wand 30
Wirtschaft@@ 30
Wladimir 30
Zweck 30
abhängig 30
age@@ 30
ai 30
ara 30
automatisch 30
ay 30
bekräftigte 30
bereitet 30
besitzt 30
beteiligen 30
beträgt 30
bewertet 30
bin@@ 30
brauche 30
bruch 30
co 30
derart 30
dien@@ 30
dig@@ 30
dir 30
echten 30
eingeräumt 30
eingestellt 30
enti@@ 30
entscheidend 30
erfolgreichen 30
erkannt 30
erscheinen 30
ett 30
eu@@ 30
fall@@ 30
feierte 30
fen@@ 30
festgestellt 30
fünf@@ 30
g-@@ 30
gefasst 30
gefähr@@ 30
gem 30
gering 30
gerufen 30
gesunken 30
gezahlt 30
grün@@ 30
halt 30
heftig 30
ide@@ 30
ies 30
iner 30
institut 30
irgendwie 30
jüngst 30
kommende 30
konkrete 30
kow 30
langer 30
leihen 30
leiten 30
liefen 30
lt 30
län@@ 30
mann-@@ 30
na 30
nahme 30
normal 30
nte 30
ober@@ 30
ollen 30
passieren 30
plan@@ 30
rechtlich 30
richten 30
same 30
schnellen 30
schwei@@ 30
sig 30
solches 30
sowieso 30
sprache 30
stes 30
systeme 30
sü@@ 30
tage 30
tal@@ 30
teilnehmen 30
tem@@ 30
tierten 30
umstritten 30
ungefähr 30
unmittelbar 30
unterschiedlich 30
vergangene 30
verhalten 30
verlängert 30
vorzu@@ 30
wechsel@@ 30
werks 30
zahl@@ 30
zuständige 30
zusätzlichen 30
äh@@ 30
öfter 30
07.@@ 29
1,7 29
1990 29
2,4 29
74 29
Acht 29
Apple-@@ 29
Arbeitgeber@@ 29
Arbeitsmarkt@@ 29
Aufsteiger 29
Berichte 29
Citigroup 29
DS@@ 29
Darmstadt 29
Debüt 29
Des@@ 29
Donald 29
Dutzend 29
Ehefrau 29
Erd@@ 29
Es@@ 29
Existenz 29
Fel@@ 29
Flammen 29
Fro@@ 29
Früh@@ 29
Führer 29
Gabriele 29
Georg 29
Gerichts@@ 29
Gew@@ 29
Gomez 29
Gran@@ 29
Group 29
Gruppen@@ 29
Halbjahr 29
Handel@@ 29
Haup@@ 29
Haushalte 29
Herbst@@ 29
Herren 29
Herzen 29
Istanbul 29
Kanada 29
Kaum 29
Küste 29
Länder@@ 29
Manche 29
Mandat 29
Media 29
Meinungs@@ 29
Mode@@ 29
Nokia 29
Open 29
Operation 29
Pfle@@ 29
Plan@@ 29
Polizeisprecher 29
Privatisierung 29
Produkt 29
Rat 29
Roll@@ 29
Rom@@ 29
Scho@@ 29
Sechs 29
Solche 29
Spears 29
Sprung 29
Torwart 29
US-Hypotheken@@ 29
US-S@@ 29
Umfragen 29
Veranstalter 29
Veränderungen 29
Vizepräsident 29
Voraussetzung 29
Vorlage 29
Wir@@ 29
Wirtschaftsminister 29
Zug@@ 29
Zumindest 29
anne 29
ans@@ 29
ars 29
ass 29
aum 29
ausländische 29
bares 29
bay@@ 29
bedeuten 29
brachten 29
dreht 29
drin 29
einst@@ 29
ele 29
entweder 29
erlitten 29
erschossen 29
fan@@ 29
feiert 29
finanzieren 29
folgte 29
formen 29
frag@@ 29
gelingt 29
geriet 29
griff 29
grund@@ 29
hau@@ 29
haus@@ 29
heimischen 29
herausge@@ 29
hinten 29
hof 29
hör@@ 29
id@@ 29
iel@@ 29
ierende 29
illen 29
interessant 29
irgend@@ 29
is-@@ 29
jener 29
keineswegs 29
kleineren 29
ktive 29
laufende 29
leit@@ 29
läu@@ 29
löst 29
mann@@ 29
mten 29
ni@@ 29
niveau 29
offene 29
offiziellen 29
ogra@@ 29
onn@@ 29
ore 29
poli@@ 29
positive 29
projekt 29
rang@@ 29
rennen 29
ri 29
räumte 29
sa 29
schaut 29
schnitt 29
schätzen 29
sexuellen 29
sicherung 29
siehe 29
sionen 29
sozial 29
spanische 29
spe@@ 29
sprung 29
ss@@ 29
stete 29
stri@@ 29
stätte 29
sw@@ 29
systems 29
teln 29
teren 29
terin 29
trau@@ 29
tte 29
ult 29
verabschiedet 29
verl@@ 29
verletzung 29
verpasst 29
versorgung 29
verwies 29
veröffentlichten 29
wahren 29
wünscht 29
zei@@ 29
zogen 29
zulegen 29
zweiter 29
zwingen 29
Ä@@ 29
ücken 29
üh@@ 29
üs@@ 29
-Sprecherin 28
1,4 28
2015 28
71 28
78 28
90@@ 28
Absage 28
America 28
Angriffe 28
Arbeitskampf 28
Augenblick 28
Ausländer 28
Autobahn 28
BSC 28
Ball@@ 28
Beste 28
Bin 28
Bro@@ 28
DFL 28
Dadurch 28
Deutschland@@ 28
Diplomaten 28
Dreh@@ 28
E-@@ 28
Ehr@@ 28
Eigentümer 28
Einrichtung 28
Eis 28
Eon 28
Fahrzeug 28
Fleisch 28
Fraktions@@ 28
Gegenzug 28
Geh@@ 28
Gemein@@ 28
Gewinner 28
Gol@@ 28
Golf 28
Gore 28
Gramm 28
Gründung 28
Günter 28
Hongkong 28
Händen 28
IT-@@ 28
Infrastruktur 28
Irland 28
Je@@ 28
Jobs 28
Jugend 28
Jury 28
Kandidat 28
Keller 28
Kino 28
Klas@@ 28
Konstru@@ 28
Kreisen 28
Kun@@ 28
Kurden 28
Liebes@@ 28
Linkspartei 28
Lukas 28
Mark 28
Mau@@ 28
Maße 28
Medikamente 28
Mess@@ 28
Mitteln 28
Mobil@@ 28
Mode 28
Muslime 28
Märkten 28
Nachfolge 28
Not 28
Notenbank 28
Offenbar 28
PC 28
Putins 28
Roten 28
Roth 28
Rundfunk@@ 28
Schriftsteller 28
Schulden 28
Schäfer 28
Schätzungen 28
Seiten@@ 28
Service 28
Sicherheit@@ 28
Sony 28
Stabilität 28
Stau@@ 28
Strei@@ 28
Strukturen 28
Syrien 28
Szenen 28
The@@ 28
Theater@@ 28
Tom@@ 28
Trainings@@ 28
Türk@@ 28
Umfeld 28
Verbindungen 28
Verlauf 28
Versprechen 28
Vorfeld 28
Wechsel@@ 28
Werk@@ 28
Wort@@ 28
Zer@@ 28
Zie@@ 28
Zivil@@ 28
Zwanziger 28
Zweiter 28
ag 28
age-@@ 28
ager 28
anbieten 28
ang 28
aten@@ 28
ath@@ 28
aufnehmen 28
bahn@@ 28
befürchten 28
befürchtet 28
behauptet 28
beschreibt 28
besonderen 28
beziehungsweise 28
bis@@ 28
bte 28
dauert 28
de-@@ 28
dem@@ 28
dende 28
der-@@ 28
dere 28
ders 28
derten 28
dischen 28
dor@@ 28
eingeführt 28
einig 28
enthalten 28
erfolgreiche 28
erhöhte 28
erinnern 28
ermöglichen 28
fläche 28
geborene 28
gesenkt 28
gesetzes 28
gesperrt 28
gewachsen 28
harten 28
herr@@ 28
herunter@@ 28
hinweg 28
hän@@ 28
ick 28
iertes 28
inklusive 28
io 28
irakische 28
iranische 28
isieren 28
itzer 28
jahrelang 28
ke@@ 28
kommen@@ 28
kor@@ 28
lein 28
lichsten 28
links 28
lohnt 28
manager 28
manns 28
moder@@ 28
moderne 28
mögen 28
namens 28
nisse 28
optimistisch 28
ost@@ 28
pakistanischen 28
quote 28
rechtzeitig 28
ren@@ 28
richter 28
rolle 28
schönen 28
sender 28
setzten 28
sitz 28
somit 28
spielten 28
stoff@@ 28
stän@@ 28
stände 28
stärkste 28
stärksten 28
team 28
testen 28
tig@@ 28
tik@@ 28
toren 28
urs@@ 28
uss 28
uss@@ 28
uten 28
verbandes 28
verfassungs@@ 28
versuchten 28
vorge@@ 28
wiederholt 28
Änderungen 28
ähnliche 28
öffnen 28
100.000 27
17,@@ 27
1991 27
23@@ 27
30.000 27
62 27
86@@ 27
93 27
Aktienmarkt 27
Ankara 27
Argument 27
As@@ 27
Aufstieg 27
Auftakt@@ 27
Bereitschaft 27
Beziehung 27
Bil@@ 27
Boss 27
Brigitte 27
Commerzbank 27
Dach@@ 27
Der@@ 27
Dienste 27
Diesel 27
Elektro@@ 27
Exil 27
Feld@@ 27
Figur 27
Flugzeuge 27
Fortsetzung 27
Fried@@ 27
Früher 27
Gemeinschafts@@ 27
Geschichten 27
Gesellschaften 27
Glos 27
Gottes@@ 27
Hartz 27
Helfer 27
Herman 27
Inhalt 27
Ira@@ 27
Job@@ 27
Justiz 27
Kandidatur 27
Krankheit 27
Kron@@ 27
Kunde 27
Leh@@ 27
Leitung 27
Leuten 27
Medi@@ 27
Mittwochabend 27
Mund 27
Mut 27
Nase 27
Niederlagen 27
Olympi@@ 27
Online 27
Oster@@ 27
PK@@ 27
Parlamentswahl 27
Partnerschaft 27
Post-@@ 27
Potenzial 27
Premierminister 27
Prognosen 27
Protokoll 27
Q@@ 27
Rab@@ 27
Ras@@ 27
Rebellen 27
Regie 27
Reihen 27
Rhein@@ 27
SAP 27
Schei@@ 27
Seehofer 27
Stern 27
Sturm@@ 27
Sä@@ 27
Söhne 27
Ta@@ 27
Tests 27
Ullrich 27
Val@@ 27
Variante 27
Verein@@ 27
Verkehrsminister 27
Wa@@ 27
Wahr@@ 27
Wann 27
Wein 27
Wettbewerbs@@ 27
Währung 27
Würde 27
alleine 27
amerikanischer 27
ane 27
arbeit@@ 27
arbeitete 27
aufbauen 27
ba 27
beginn 27
bekannten 27
bereiten 27
betrachten 27
bil@@ 27
bleibe 27
blicken 27
bst@@ 27
ca 27
damalige 27
decken 27
demnächst 27
demokratische 27
dene 27
deutsch-@@ 27
dienstleister 27
digte 27
doppelt 27
einiges 27
einsatz 27
erschien 27
erschienen 27
erter 27
erwarteten 27
est 27
fassen 27
felder 27
fernsehen 27
figur 27
fol@@ 27
fortgesetzt 27
fra@@ 27
freut 27
froh 27
fun@@ 27
fung 27
funktion@@ 27
fällig 27
führerin 27
füllen 27
geflogen 27
geklärt 27
gelöst 27
geäußert 27
geöffnet 27
gigen 27
gänge 27
hinein 27
hinzu@@ 27
in-@@ 27
irr@@ 27
israelischen 27
istischer 27
ite 27
jenen 27
ju@@ 27
kauf 27
keinerlei 27
keln 27
kers 27
kleines 27
lang@@ 27
leistungen 27
ley 27
lingen 27
lis 27
läufer 27
manchen 27
meldet 27
ministers 27
mitgeteilt 27
mm@@ 27
mäch@@ 27
märkte 27
nah 27
nen@@ 27
normalen 27
nötigen 27
ordnung 27
passen 27
pe 27
pil@@ 27
preisen 27
pri@@ 27
recht@@ 27
räumen 27
sach@@ 27
sache 27
sank 27
schau 27
sechs@@ 27
selben 27
senden 27
senkung 27
sich@@ 27
sinnvoll 27
springen 27
stern 27
still@@ 27
studiert 27
stünden 27
tal 27
terung 27
trafen 27
ue 27
verfügen 27
verteidigt 27
vertraut 27
verzichtet 27
vorgeschlagen 27
wald 27
wen 27
wesen 27
wirbt 27
wär@@ 27
wü@@ 27
zehn@@ 27
zeige 27
zeug@@ 27
zig@@ 27
zuständigen 27
zwanzig 27
Ältere 27
Überlegungen 27
österreichischen 27
04.@@ 26
1987 26
44@@ 26
5.000 26
63 26
80@@ 26
88 26
Ah@@ 26
Al-@@ 26
Andererseits 26
Anerkennung 26
Angeklagten 26
Angreifer 26
Anschläge 26
Antworten 26
Arbeitsminister 26
Attacke 26
Audi 26
Auseinandersetzung 26
Barrel 26
Bemühungen 26
Betrag 26
Boo@@ 26
Bul@@ 26
Bur@@ 26
Bö@@ 26
Chem@@ 26
Clubs 26
Detail 26
Diego 26
Einstellung 26
Einwohner 26
Erinnerungen 26
Erkenntnis 26
Eva 26
Fan@@ 26
Flugzeug@@ 26
Fokus 26
Fol@@ 26
Funkel 26
Geburt 26
Gutachten 26
Gästen 26
Handy-@@ 26
Hann@@ 26
Hedge-Fonds 26
Hermann 26
Hom@@ 26
Hor@@ 26
Hotel@@ 26
IT@@ 26
Ihrer 26
Immobilien 26
Jahrzehnte 26
Jak@@ 26
Kalifornien 26
Kamer@@ 26
Kamp@@ 26
Katastrophe 26
Kate 26
Kern 26
Kirch 26
Kommunen 26
Kop@@ 26
Korruption 26
Landesregierung 26
Lebensmittel 26
Lehre 26
Lewis 26
Lokführergewerkschaft 26
Manchmal 26
Manuel 26
Maschinen 26
McCann 26
Methode 26
Mie@@ 26
Millionen-@@ 26
Ministerium 26
Motiv 26
Mul@@ 26
Mühe 26
Nacht@@ 26
Nahverkehr 26
Norwegen 26
Nutz@@ 26
Pan@@ 26
Papst 26
Pass@@ 26
Pat@@ 26
Pokal@@ 26
Qualitäts@@ 26
Quelle 26
RTL 26
Regierungen 26
Reinhard 26
Ring@@ 26
Roberto 26
Schaaf 26
Schwäche 26
Siegen 26
Simon 26
Singapur 26
Software 26
Standort 26
Stein 26
Stimm@@ 26
Stre@@ 26
Tabellen@@ 26
Tal@@ 26
Tar@@ 26
Tasche 26
Tour@@ 26
Trainer@@ 26
Triumph 26
US 26
Unabhängigkeit 26
Valencia 26
Veh 26
W-@@ 26
Waren 26
Weißen 26
Weltkrieg 26
Wett@@ 26
Wissenschafts@@ 26
Wit@@ 26
Wohnungs@@ 26
Zeitungs@@ 26
Zone 26
Zypries 26
aff@@ 26
ahn 26
aktion 26
akzeptieren 26
anischer 26
anzen 26
armen 26
ats@@ 26
aufgestellt 26
ausgelöst 26
aw@@ 26
beobachten 26
berufen 26
besseren 26
betrug 26
beweisen 26
beziehen 26
boten 26
by 26
cken@@ 26
debatte 26
derung 26
derzeitigen 26
digung 26
disch 26
echte 26
englische 26
erhebliche 26
erklärten 26
finanz@@ 26
frühestens 26
fördern 26
führ@@ 26
gebraucht 26
geist@@ 26
gestalten 26
gewerkschaft 26
gewicht 26
grenze 26
gän@@ 26
haltung 26
hamburg 26
hand@@ 26
heben 26
informieren 26
issen@@ 26
jag@@ 26
jeweiligen 26
klaren 26
kleinere 26
konservative 26
konzentrieren 26
kop@@ 26
lerin 26
lernt 26
lin 26
linie 26
maß@@ 26
mil@@ 26
militärische 26
mischen 26
mutmaßlichen 26
nd 26
nor@@ 26
notierte 26
oo@@ 26
optim@@ 26
position 26
reagierte 26
rtr 26
räumt 26
sal@@ 26
schaft@@ 26
schei@@ 26
schlimmsten 26
seit@@ 26
sieger 26
st-@@ 26
stabil 26
stammen 26
steh@@ 26
stein@@ 26
stimmung 26
stoßen 26
tausende 26
tere 26
tern@@ 26
tiv@@ 26
trennen 26
tro@@ 26
täglichen 26
umgekehrt 26
umgesetzt 26
ungspro@@ 26
ute 26
utsch@@ 26
verhandeln 26
vertreter 26
wan@@ 26
wand 26
wehr 26
welchen 26
wirtschaftlich 26
zeuge 26
ziel 26
zigen 26
zugunsten 26
zukommen 26
zuversichtlich 26
zuzu@@ 26
Öko@@ 26
älter 26
1,3 25
10,@@ 25
18.@@ 25
2,2 25
39@@ 25
47@@ 25
69 25
77 25
90er 25
98 25
99 25
Abend@@ 25
Agrar@@ 25
Angeblich 25
Arsenal 25
At@@ 25
Auseinandersetzungen 25
Ausgaben 25
Auszeichnung 25
Autobauer 25
Autoindustrie 25
Automob@@ 25
Bedrohung 25
Beitrags@@ 25
Belegschaft 25
Beratungs@@ 25
Berechnungen 25
Bergen 25
Berichten 25
Betrieb@@ 25
Bewerber 25
Britney 25
Bundesagentur 25
Bushs 25
Carl 25
Dauer 25
Dienstagabend 25
Diskussionen 25
Dom@@ 25
Eig@@ 25
Eing@@ 25
Einzug 25
Eisen@@ 25
Experte 25
Favorit 25
Ferien@@ 25
Fi@@ 25
Fo@@ 25
Frings 25
Fußball-Bundesliga 25
Geldstrafe 25
Haushalts@@ 25
Heu@@ 25
Hoffnungen 25
Holding 25
Hut 25
Höhepunkt 25
Ihm 25
Kader 25
Kameras 25
Kampagne 25
Kap@@ 25
Ki@@ 25
Kirchen 25
Klim@@ 25
Konsum 25
Kontakte 25
Kri@@ 25
Kuranyi 25
Landesbank 25
Leipziger 25
Lissabon 25
Mannschaften 25
Menschenrechte 25
Militärs 25
Mischung 25
Mission 25
Mond 25
Moschee 25
Mutter@@ 25
Neid 25
Ni@@ 25
Ob@@ 25
Opern@@ 25
Option 25
Pervez 25
Planeten 25
Plat@@ 25
Plänen 25
Port@@ 25
Pra@@ 25
Problemen 25
Psych@@ 25
Quadratmeter 25
RAF 25
Radsport 25
Rand 25
Raub@@ 25
Rausch 25
Realität 25
Rechn@@ 25
Rechnung 25
Regierungschefs 25
Rekordmeister 25
Rudolf 25
Rum@@ 25
Rückzug 25
Schwarz@@ 25
Schweinsteiger 25
Sech@@ 25
Sei@@ 25
Software@@ 25
Sozi@@ 25
Spielern 25
Spreng@@ 25
Stad@@ 25
Stern@@ 25
Streit@@ 25
Summe 25
Tabelle 25
Termin@@ 25
Tokio 25
Typ 25
Umfang 25
Unsicherheit 25
Vel@@ 25
Verantwortlichen 25
Verdächtige 25
Vermögen 25
Versicherung 25
Visier 25
Vision 25
Vo@@ 25
Vormittag 25
Vorstands@@ 25
Weber 25
Wettbewerber 25
Wider@@ 25
Wirklichkeit 25
Wolf 25
Wür@@ 25
Zo@@ 25
aktionen 25
ali@@ 25
ama 25
andt 25
anen 25
angewiesen 25
artig 25
aufgebaut 25
ausgegangen 25
basis 25
ber-@@ 25
bereit@@ 25
besetzt 25
bitte 25
dicht 25
dienen 25
ente@@ 25
entin 25
enzen 25
erenden 25
ergab 25
ergeben 25
erhielten 25
ermöglicht 25
esp@@ 25
esse 25
ett@@ 25
festgelegt 25
ffe 25
fik@@ 25
forderten 25
führende 25
gegenseitig 25
gelder 25
gelegen 25
gerissen 25
geworfen 25
harte 25
hoher 25
ica 25
imp@@ 25
intensiv 25
iranischen 25
issen 25
jemanden 25
jenem 25
jo@@ 25
karte 25
kehr@@ 25
klar@@ 25
klassi@@ 25
klassischen 25
konferenz 25
kontrolle 25
kostenlos 25
kraft@@ 25
krat@@ 25
kritisch 25
kritisieren 25
ktiven 25
ku@@ 25
kurzer 25
las@@ 25
lauter 25
le-@@ 25
leistungs@@ 25
liebe 25
liebsten 25
macher 25
mals 25
mei@@ 25
messen 25
mte 25
nachts 25
opol 25
produziert 25
rasch 25
redet 25
reißen 25
rt 25
ruppen 25
sc@@ 25
schaden 25
scheinbar 25
schießen 25
schoss 25
schwierigen 25
schwäch@@ 25
schä@@ 25
schöne 25
setzung 25
si 25
sin@@ 25
skeptisch 25
spro@@ 25
stehende 25
steigern 25
tan@@ 25
tenen 25
tik 25
trieb 25
ump@@ 25
umso 25
unmöglich 25
urs 25
ve@@ 25
verbrauch 25
verfolgen 25
verkündet 25
verlässt 25
vermutet 25
verschärft 25
verändern 25
voraus@@ 25
vorsichtig 25
wahl 25
wege 25
wehren 25
weite 25
weißen 25
werk@@ 25
wie@@ 25
wissenschaften 25
zeitung 25
zel@@ 25
zuge@@ 25
zurückkehren 25
äm@@ 25
öse 25
überwiegend 25
01.@@ 24
06.@@ 24
13,@@ 24
1500 24
19.@@ 24
1989 24
2-@@ 24
7.html 24
Abbau 24
Allen 24
Anschluss 24
Anti-@@ 24
Anzahl 24
Arme@@ 24
Atem@@ 24
Auffassung 24
Aufnahmen 24
Augsburg 24
Ausbildungs@@ 24
Ausnahme 24
Ausnahme@@ 24
Ausstand 24
Autofahrer 24
Belgien 24
Billi@@ 24
Blut 24
Boom 24
Bundesländern 24
Bundesverband 24
Bus@@ 24
DR@@ 24
Darstellung 24
Del@@ 24
Deswegen 24
Durchsuchung 24
E-Mail 24
Eck@@ 24
Eil@@ 24
Einrichtungen 24
Emissionen 24
Empfang 24
Endspiel 24
Englisch 24
Farbe 24
Feuilleton 24
Forsch@@ 24
Frank-Walter 24
Fremd@@ 24
Gal@@ 24
Geist 24
Gerät 24
Gest@@ 24
Gewal@@ 24
Haare 24
Hans-@@ 24
Hansa 24
Heimspiel 24
Henry 24
Hinzu 24
Häu@@ 24
Inflation 24
Internationale 24
Interviews 24
Investmentbank 24
Is@@ 24
Kaffee 24
Kaiser 24
Kassel 24
Kooperation 24
Können 24
Küh@@ 24
Manchester 24
Maß 24
Medizin 24
Metall@@ 24
Mindestens 24
Ministerin 24
Miss@@ 24
Mittag 24
Mourinho 24
Mushar@@ 24
Mü@@ 24
Mül@@ 24
Nato 24
Neuen 24
Nutzung 24
Nürnberger 24
Olympia 24
Orte 24
Panik 24
Passagier@@ 24
Peters 24
Pflicht@@ 24
Portugal 24
Pri@@ 24
Ra@@ 24
Ranch 24
Raum@@ 24
Red 24
Rh@@ 24
Rohstoff@@ 24
Sachsen-Anhalt 24
Sachsen@@ 24
Schiffe 24
Schne@@ 24
Schuld@@ 24
Schwester 24
Schäden 24
Siege 24
Siemens-@@ 24
Soll 24
Stadtteil 24
Standard@@ 24
Sur@@ 24
Sy@@ 24
Sängerin 24
Ten@@ 24
Turn@@ 24
Tö@@ 24
Verhältnisse 24
Verk@@ 24
Verkauf@@ 24
Vermögens@@ 24
Vertrags@@ 24
Villa 24
Vol@@ 24
Vorstellungen 24
Weiter 24
Wetter@@ 24
Wi@@ 24
Wie@@ 24
Wild@@ 24
Wunder@@ 24
Zehn 24
alia 24
alisierten 24
alt@@ 24
angaben 24
barer 24
beach@@ 24
bedingungen 24
befand 24
bek@@ 24
besitzen 24
betrag 24
bieter 24
binnen 24
deutet 24
deutlichen 24
dreißig 24
drängen 24
ech@@ 24
einfachen 24
einheit 24
entschied 24
erfasst 24
erforderlich 24
erzählen 24
fehlte 24
frau 24
fühle 24
gabe 24
gebäude 24
gebühren 24
gele@@ 24
gemeint 24
gender 24
geprägt 24
geringer 24
gesetzliche 24
gige 24
haf@@ 24
halb@@ 24
handelte 24
hessische 24
höchstens 24
igung 24
ink@@ 24
isierte 24
iss 24
japanische 24
kauf@@ 24
kehren 24
kenne 24
kin@@ 24
klagte 24
kle@@ 24
klinik 24
kreuz 24
ks@@ 24
kti@@ 24
kämen 24
kämpfe 24
kündigt 24
künftige 24
künftigen 24
langem 24
leb@@ 24
lenken 24
linke 24
loser 24
ls 24
lten 24
menschlichen 24
merk@@ 24
mers 24
mitteln 24
morgens 24
mäßig 24
nachzu@@ 24
nete 24
nütz@@ 24
ologischen 24
operiert 24
ordnen 24
plädiert 24
profis 24
reichte 24
reifen 24
richtet 24
rückt 24
sag@@ 24
sicherheit 24
sky 24
spitze 24
spr@@ 24
station 24
stirbt 24
stor@@ 24
strah@@ 24
suche 24
sum@@ 24
tion 24
tisch 24
tische 24
titel 24
traditionellen 24
tsp@@ 24
umgehen 24
unterlag 24
verbieten 24
verhaftet 24
verraten 24
verschwunden 24
vieler 24
warnen 24
wehr@@ 24
wir@@ 24
wissenschaft 24
wobei 24
wuchs 24
zes 24
ziel@@ 24
zuerst 24
Ähnlich 24
äußerst 24
üch@@ 24
03.@@ 23
100@@ 23
11,@@ 23
2.html 23
20.@@ 23
22@@ 23
4,5 23
61 23
91 23
Ablehnung 23
Absatz 23
Afghanistan-@@ 23
Albert 23
Angehörige 23
Ansatz 23
Ansonsten 23
Ap@@ 23
Armut 23
Bauern 23
Baum 23
Baum@@ 23
Bayerns 23
Belastung 23
Betreuungsgeld 23
Bibliothek 23
Bie@@ 23
Bombe 23
Bomben@@ 23
Business 23
Börsianer 23
Büchern 23
CDU-Politiker 23
Charles 23
Col@@ 23
D-@@ 23
Darauf 23
Design 23
Dritt@@ 23
Dubai 23
Durchbruch 23
Düsseldorfer 23
Einladung 23
Emp@@ 23
Empörung 23
Ergebnissen 23
Ermordung 23
Ersten 23
FDP-@@ 23
FI@@ 23
Fachleute 23
Farben 23
Fernsehsender 23
Fest 23
Finanzen 23
Finanzierungs@@ 23
Finger 23
Flug 23
Foulelfmeter 23
Fraktionschef 23
France 23
Fünf 23
GM 23
Gab@@ 23
Gefähr@@ 23
Geschäft@@ 23
Gesprächs@@ 23
Globalisierung 23
Gre@@ 23
Gruppenphase 23
Haf@@ 23
Heinrich 23
Herausforderungen 23
Herbert 23
Hun@@ 23
Indi@@ 23
Ingenieure 23
Inszenierung 23
Internetseite 23
Irak@@ 23
Kassen 23
Kie@@ 23
Klein 23
Knapp 23
Knie@@ 23
Koalitionspartner 23
Konto 23
Kreise 23
Krieg@@ 23
Kul@@ 23
Küsten@@ 23
LBBW 23
Landtagswahl 23
Lediglich 23
Lieblings@@ 23
Ludwig 23
Länderspiel 23
Lö@@ 23
Mangel 23
Marken 23
Marktanteil 23
May@@ 23
Mir 23
Miroslav 23
Mittelfeldspieler 23
Nordkorea 23
Optionen 23
Person@@ 23
Physi@@ 23
Politikern 23
Pro 23
Prof@@ 23
Programme 23
Prozess@@ 23
Prä@@ 23
Qualifikations@@ 23
Rec@@ 23
Regel@@ 23
Regime 23
Rosen@@ 23
Rumänien 23
Rund@@ 23
Schein@@ 23
Schlaf@@ 23
Sel@@ 23
Selbstvertrauen 23
Senkung 23
Si@@ 23
Sigmar 23
Signal 23
Sin@@ 23
Songs 23
Staates 23
Star@@ 23
Steuer 23
Stoi@@ 23
Studenten@@ 23
Sü@@ 23
Tabellenführer 23
Tageszeitung 23
Texte 23
Tier 23
Tränen 23
Unfall@@ 23
Unglück 23
Ursachen 23
Vaters 23
Verbesserung 23
Verbrechen 23
Vereins 23
Verpflichtung 23
Vielmehr 23
Wahlkampf@@ 23
Wald 23
Wander@@ 23
War 23
Weg@@ 23
Weiß@@ 23
Wettbewer@@ 23
Wilhelm 23
Williams 23
X 23
Zusatz@@ 23
Zweite 23
abgeben 23
acher 23
allenfalls 23
allgemein 23
ander 23
angekommen 23
anlage 23
ano 23
ansonsten 23
appt 23
ativer 23
atur 23
atz 23
ausschusses 23
beamten 23
beeinflussen 23
beschäftigen 23
bestehen 23
betrieben 23
bewer@@ 23
bö@@ 23
co@@ 23
deln 23
derte 23
derweil 23
deut@@ 23
dich 23
dis 23
drauf 23
drohte 23
eich@@ 23
einfacher 23
eingel@@ 23
eingesch@@ 23
einziges 23
en- 23
en. 23
endete 23
enger 23
enthält 23
eres 23
erlauben 23
ernde 23
erwarte 23
ete 23
fein@@ 23
finanzielle 23
finanziellen 23
fortsetzen 23
fro@@ 23
fuhren 23
ge-@@ 23
geldes 23
gelingen 23
genaue 23
gener@@ 23
gep@@ 23
geschützt 23
gesetzlichen 23
gestoppt 23
getestet 23
gig 23
glichen 23
heimer 23
hergestellt 23
herstellen 23
hl 23
höh@@ 23
hörte 23
ian 23
ichte 23
iens 23
iken 23
index 23
inner@@ 23
jagd 23
jemals 23
jenseits 23
kassiert 23
kern 23
kes 23
klein@@ 23
kolle@@ 23
kosten@@ 23
kreisen 23
kräfte 23
kümmern 23
lagen@@ 23
lauf@@ 23
lei 23
leich@@ 23
leistung 23
liegenden 23
mas 23
mb@@ 23
medi@@ 23
meldete 23
mes@@ 23
mittels 23
mitunter 23
momentan 23
monatlich 23
mus 23
mächtig 23
mö@@ 23
nochmals 23
nord@@ 23
old 23
onnen 23
organisieren 23
ovic 23
politiker 23
privater 23
präsentierte 23
rapid 23
rats 23
re-@@ 23
reduzieren 23
regieren 23
riesige 23
riss 23
räume 23
sat@@ 23
satz@@ 23
schlimm 23
schlimmer 23
seitige 23
ses 23
sichtbar 23
sichtlich 23
sion@@ 23
sitz@@ 23
sl@@ 23
späteren 23
ss 23
standes 23
stands 23
start 23
startete 23
sten@@ 23
stärke 23
stätten 23
stößt 23
sur@@ 23
sämtliche 23
tab@@ 23
tags 23
ther@@ 23
tier@@ 23
tis 23
träger 23
tter 23
unden 23
use 23
verbringen 23
verfügt 23
verhängt 23
vermischtes 23
verspricht 23
verteilen 23
verursacht 23
veröffentlichen 23
viertel 23
vorzeitig 23
vorübergehend 23
we 23
wechselt 23
weilige 23
wirkung 23
wohnen 23
zahlungen 23
zte 23
zweier 23
zz@@ 23
zäh@@ 23
Überraschung 23
ó@@ 23
üblich 23
1,1 22
1,6 22
14,@@ 22
2.@@ 22
2013 22
4-@@ 22
4000 22
43@@ 22
6000 22
76@@ 22
AD@@ 22
Airbus-@@ 22
Aktienkurs 22
Aktivitäten 22
Amerikas 22
Arbeitslosigkeit 22
Aue 22
Aufnahme 22
Ausweitung 22
Außenministerium 22
Basel 22
Bastian 22
Berlin-@@ 22
Beteiligten 22
Black@@ 22
Blau@@ 22
Bon@@ 22
Botschafter 22
Brasilianer 22
Brücke 22
Bundeskanzler 22
Chefs 22
Craig 22
Dan@@ 22
Dat@@ 22
Demonstration 22
Diana 22
Dritten 22
Dro@@ 22
Ebay 22
Ehre 22
Eich@@ 22
Einsatz@@ 22
Einsätze 22
Erb@@ 22
Erster 22
Europameister 22
Fluggesellschaft 22
Fotografen 22
Frauen-@@ 22
Freilassung 22
Fußballer 22
Ganze 22
Gegend 22
Gewalt@@ 22
Gibt 22
Gordon 22
Heimat@@ 22
Herrn 22
Hier@@ 22
Hinsicht 22
Hinter 22
Hintergründe 22
Hoh@@ 22
Homepage 22
Hund 22
Hä@@ 22
Hän@@ 22
Inder 22
Institutionen 22
Integration 22
Journal 22
Juan 22
Julia 22
Kahn 22
Kartell@@ 22
Kategorie 22
Ke@@ 22
Kindes 22
Klinik 22
Kno@@ 22
Kol@@ 22
Konkurrent 22
Konkurrenz@@ 22
Konzernchef 22
Kosovo 22
Kyi 22
Leider 22
Links@@ 22
Lokal@@ 22
Länge 22
Lösungen 22
Madeleine 22
Main@@ 22
Marketing@@ 22
McCanns 22
Meeres@@ 22
Mei@@ 22
Meisterschaft 22
Met@@ 22
Mitgliedschaft 22
Multi@@ 22
Na@@ 22
Oper@@ 22
Opfer@@ 22
Ottmar 22
Parte@@ 22
Petraeus 22
Pin@@ 22
Postbank 22
Premier@@ 22
Profi@@ 22
Protest@@ 22
Roger 22
Saf@@ 22
Sanierung 22
Schanghai 22
Schau 22
Schritte 22
See@@ 22
Seele 22
Sevilla 22
Solange 22
Spor@@ 22
Sterne 22
Studio 22
Suu 22
Sätze 22
Südkorea 22
Teamchef 22
Tel@@ 22
Tennis 22
Tim 22
Todesstrafe 22
Tourismus 22
Transparenz 22
Trieb@@ 22
Truppen@@ 22
Türen 22
US-Regierung 22
Ul@@ 22
Veranstaltungen 22
Verteidigung 22
Waffe 22
Weiter@@ 22
Wetter 22
Wichtig 22
Wiedeking 22
Wird 22
Zeitraum 22
Zufall 22
Zwangs@@ 22
Zürich 22
acken 22
ai@@ 22
alle@@ 22
ank@@ 22
appen 22
ari@@ 22
article@@ 22
artigen 22
ast 22
aufeinander 22
aufgehoben 22
aufkommen 22
auftreten 22
auftritt 22
auseinander@@ 22
ausverkauften 22
begrenzen 22
bemühen 22
bene 22
beschädigt 22
bestens 22
bie@@ 22
bild@@ 22
brücke 22
bur@@ 22
bücher 22
dauerhaft 22
dauerte 22
dens 22
direkte 22
direkten 22
diskutieren 22
dramatisch 22
dri@@ 22
eck@@ 22
eigen@@ 22
eingeleitet 22
einstigen 22
eis@@ 22
elles 22
enorm 22
eröffnen 22
essen@@ 22
euch 22
fache 22
falschen 22
favor@@ 22
feierten 22
festen 22
ffen 22
fit 22
fluss 22
flü@@ 22
fo@@ 22
frisch 22
fs@@ 22
fäl@@ 22
fängt 22
füllt 22
für@@ 22
gegenwärtig 22
geld@@ 22
gelegentlich 22
geleistet 22
genen 22
gerettet 22
geringen 22
geschossen 22
geschätzt 22
gesichert 22
getrennt 22
gewisse 22
gezielt 22
globalen 22
gra@@ 22
grenzen 22
hell@@ 22
hierzulande 22
hor@@ 22
hr 22
icken 22
if@@ 22
igem 22
ika 22
indischen 22
inge 22
inszen@@ 22
istin 22
its 22
kehrt 22
kinder 22
konkreten 22
kontrollen 22
konzept 22
lager 22
landete 22
lat@@ 22
legendären 22
les@@ 22
lobt 22
loses 22
lte 22
ly 22
mak@@ 22
management 22
mutmaßliche 22
märkten 22
ners 22
not@@ 22
ny 22
näch@@ 22
om 22
partei 22
partner 22
pflich@@ 22
polnischen 22
posten 22
ppt 22
publi@@ 22
punkten 22
reicher 22
reine 22
ris@@ 22
ron@@ 22
rücken 22
schar@@ 22
scher@@ 22
schung 22
schwache 22
sechsten 22
sei@@ 22
sent@@ 22
sicht@@ 22
siebten 22
singen 22
solange 22
solch 22
sorgten 22
staaten 22
stands@@ 22
starker 22
strategischen 22
stücke 22
suchten 22
symbol@@ 22
tat 22
taten 22
technisch 22
test 22
tex@@ 22
tigung 22
ting 22
tlicher 22
total 22
tra@@ 22
ungser@@ 22
ungsh@@ 22
unterricht 22
ust@@ 22
verdächtige 22
vermuten 22
vertrauen 22
verweist 22
via 22
viel@@ 22
vorgenommen 22
vorgesehen 22
wachsende 22
weiße 22
werken 22
wiesen 22
wisse 22
wissenschaftlichen 22
wohnt 22
za 22
zep@@ 22
zitierte 22
zügen 22
Österreicher 22
Ü@@ 22
ändert 22
è@@ 22
öh@@ 22
ös@@ 22
üben 22
0,5 21
15,@@ 21
1986 21
1988 21
1992 21
25.@@ 21
6,@@ 21
76 21
8000 21
Abgel@@ 21
Ahmadinedschad 21
Alltag 21
Ander@@ 21
Ange@@ 21
Anleihen 21
Antonio 21
Arbeitslose 21
Armen 21
Aufklärung 21
Ausdruck 21
Ausgang 21
Av@@ 21
Axel 21
Bekenntnis 21
Besitz 21
Besucher@@ 21
Beteiligungs@@ 21
Big 21
Boeing 21
Boot 21
Brit@@ 21
Bundesbank 21
CD 21
Charakter 21
Charlotte 21
Che@@ 21
Dau@@ 21
Davon 21
Designer 21
Diesel@@ 21
Diesen 21
Dram@@ 21
Drama 21
Durchsuchungen 21
EADS 21
Eines 21
Entschuldigung 21
Ereignis 21
Eskalation 21
Export@@ 21
Falls 21
Festnahme 21
Films 21
Flanke 21
Florian 21
Flughafen@@ 21
Fläche 21
Formen 21
Frankreichs 21
Frieden@@ 21
Front 21
Funktion 21
GE@@ 21
Geduld 21
Geisel@@ 21
Geschäftsjahr 21
Gesetze 21
Gottes 21
Göttingen 21
Hahn 21
Handy@@ 21
Hen@@ 21
Hof@@ 21
Hosen 21
Hugo 21
Höchst@@ 21
I-@@ 21
Innenstadt 21
Ir@@ 21
Israels 21
Jedes 21
Juristen 21
Kaiserslautern 21
Keiner 21
Kiefer 21
Klagen 21
Klaus-@@ 21
Kohlschreiber 21
Konzert 21
Kreuz@@ 21
Kö@@ 21
König@@ 21
Köpfe 21
Künftig 21
Lag@@ 21
Lager@@ 21
Liefer@@ 21
Läden 21
Löhne 21
MDax 21
Mannes 21
Marcel 21
Max 21
Maßnahme 21
Merkels 21
Mes@@ 21
Mikro@@ 21
Mittlerweile 21
Monats 21
Motors 21
Nachbar@@ 21
Nazis 21
Niederländer 21
Noten 21
Nu@@ 21
Olmert 21
Oper 21
Oracle 21
Parlamentswahlen 21
Perspektive 21
Platten@@ 21
Porsche-@@ 21
Presse-Agentur 21
Protesten 21
Prüfung 21
Rasen 21
Rohstoffe 21
Rummenigge 21
Runden 21
Rö@@ 21
Rü@@ 21
Rückschlag 21
Santa 21
Schließung 21
Schluss@@ 21
Schock 21
Schuhe 21
Serien@@ 21
Sieg@@ 21
Sitz@@ 21
Slomka 21
Slowakei 21
Staatsanwalt 21
Standard 21
Stanley 21
Statistik 21
Stell@@ 21
Stevens 21
Stolz 21
Straftaten 21
Talk@@ 21
Taten 21
Tatort 21
TecDax 21
Ter@@ 21
Them@@ 21
Toren 21
Töchter 21
Vaart 21
Vattenfall 21
Verleger 21
Versicherer 21
Versuche 21
Vis@@ 21
Vorteile 21
Weit@@ 21
Welle 21
Weniger 21
Wohnungen 21
Zahlungen 21
Zeitungsbericht 21
Zählern 21
abgesagt 21
absolut 21
absolviert 21
achtet 21
ade 21
ader 21
alis@@ 21
alog@@ 21
anfangen 21
annt 21
annten 21
arabischen 21
ate@@ 21
atik 21
attraktiv 21
aturen 21
außer@@ 21
beeinträchtigt 21
begrüßte 21
behörden 21
beigetragen 21
beitragen 21
belegen 21
besorgt 21
beteiligten 21
betreiben 21
betreiber 21
bewahrt 21
bewerten 21
blü@@ 21
breit@@ 21
breiter 21
bud@@ 21
bungen 21
by-@@ 21
digitalen 21
drückt 21
eingreifen 21
einkommen 21
ena 21
enberg 21
engagiert 21
entdecken 21
entwickelte 21
erische 21
ermordet 21
ersetzt 21
erworben 21
ez@@ 21
fach 21
facht 21
fassung 21
feste 21
feststellen 21
forderungen 21
ga 21
gas@@ 21
gebeten 21
gebildet 21
gekostet 21
gelangen 21
geleitet 21
gelernt 21
gemessen 21
gen-@@ 21
genauer 21
gener 21
gerich@@ 21
gerung 21
gesetz@@ 21
gesorgt 21
gewünscht 21
glob@@ 21
go 21
griechischen 21
hast 21
heits@@ 21
igkeiten 21
ils 21
immt 21
jenes 21
junger 21
kan 21
kap@@ 21
kassierte 21
keit 21
kontrolliert 21
krank 21
kriegen 21
kritische 21
ktes 21
ktiv@@ 21
kulturellen 21
käme 21
körper 21
ler-@@ 21
let 21
lie 21
lieren 21
liger 21
lim@@ 21
listen 21
loh@@ 21
meier 21
menschliche 21
ment 21
ment@@ 21
mittag 21
museum 21
möglicher 21
müde 21
nder 21
negativ 21
ner-@@ 21
neten 21
netz@@ 21
neunziger 21
niederländischen 21
nisses 21
notiert 21
nten 21
nutzt 21
olle 21
oni 21
operative 21
planen 21
problem 21
prüft 21
radikale 21
rede 21
rischen 21
ruf 21
schaffte 21
schalten 21
schel 21
schuldig 21
sitzung 21
sor@@ 21
souverän 21
sperre 21
spürbar 21
stehenden 21
streiken 21
strikt 21
sts 21
suchte 21
tels 21
tiefer 21
tiere 21
tigungen 21
trei@@ 21
trinken 21
tö@@ 21
uf@@ 21
umgehend 21
ungst@@ 21
univers@@ 21
unterbrochen 21
unwahrscheinlich 21
ust 21
utt@@ 21
verantworten 21
verbin@@ 21
vereinbarten 21
verkauften 21
verschoben 21
verwenden 21
verwendet 21
vollkommen 21
wahre 21
wein 21
werben 21
wirtschafts@@ 21
würdigen 21
zeitweise 21
zentralen 21
zugelassen 21
zun@@ 21
Ära 21
ätze 21
übrig 21
üm@@ 21
üssen 21
0.html 20
17-@@ 20
34@@ 20
4.html 20
50. 20
6.html 20
73 20
84 20
97 20
AM@@ 20
AS 20
Abends 20
Absatz@@ 20
Ach@@ 20
Angerer 20
Anklage 20
Anlage 20
Anna 20
Anschließend 20
Athen 20
Athleten 20
Ausstieg 20
Autohersteller 20
Außenpolitik 20
Ay@@ 20
Bahnchef 20
Begeisterung 20
Belastungen 20
Betriebe 20
Bezug 20
Bis@@ 20
Box@@ 20
Branchen 20
Brenn@@ 20
Buchmesse 20
Bühnen@@ 20
Bündnis 20
Cal@@ 20
Cha@@ 20
Clinton 20
Deal 20
Dec@@ 20
Deutsch@@ 20
Diktatur 20
Direkt@@ 20
Disziplin 20
Dritter 20
Dum@@ 20
Dänemark 20
Ehemann 20
Einstieg 20
Emotionen 20
Entlassung 20
Erbe 20
Explosion 20
Facebook 20
Favre 20
Federer 20
Festnahmen 20
Feuer@@ 20
Filmen 20
Fleisch@@ 20
Flo@@ 20
Flu@@ 20
Flügel 20
Form@@ 20
Format 20
Franzose 20
Fäl@@ 20
Fünf@@ 20
Gebieten 20
Gemeinden 20
Gemälde 20
Generationen 20
Gesamtjahr 20
Gestern 20
Glasgow 20
Glücks@@ 20
GmbH 20
Goldman 20
Golf@@ 20
Gouverneur 20
Gremium 20
Grunde 20
Grundsatz@@ 20
Harald 20
Helden 20
Herr@@ 20
Hildebrand 20
Hurrikan 20
Häftlinge 20
Hü@@ 20
Immobilienmarkt 20
Inland@@ 20
Institute 20
Islamabad 20
Jede 20
Jungs 20
Jün@@ 20
Kanzleramt 20
Katastrophen@@ 20
Kenntnis 20
Konzentration 20
Lafontaine 20
Lam@@ 20
Lan@@ 20
Las 20
Lazio 20
Lee 20
Lektüre 20
Lob 20
Lust 20
Match 20
McLaren-@@ 20
Mediziner 20
Menschheit 20
Messer 20
Metro 20
Metropole 20
Milch@@ 20
Moderator 20
Moderne 20
Mordes 20
Mus@@ 20
Mün@@ 20
Münchener 20
Na 20
Nar@@ 20
Nie@@ 20
Normal@@ 20
Offenbach 20
PPP 20
Pa@@ 20
Partner@@ 20
Pen@@ 20
Phänomen 20
Pocher 20
Pokalsieger 20
Preisen 20
Präsidium 20
Radio 20
Rafael 20
Rangun 20
Reaktionen 20
Renten 20
Rentner 20
Res@@ 20
Ries@@ 20
Sar@@ 20
Schuster 20
Schwei@@ 20
Schwerpunkt 20
Schön@@ 20
Sieb@@ 20
Smith 20
Sollten 20
Spielzeit 20
Staat@@ 20
Staatschef 20
Straß@@ 20
Struck 20
Studi@@ 20
Sydney 20
Tag@@ 20
Tel 20
Thailand 20
Thierse 20
Ton 20
Tätigkeit 20
US-Notenbank 20
Unentschieden 20
Unterlagen 20
Unterricht 20
Venezuela 20
Vergabe 20
Vergnügen 20
Versicherungen 20
Verstoß 20
Verwaltungs@@ 20
Vorjahres@@ 20
Wand@@ 20
Weimar 20
Wohl 20
Wowereit 20
Wunsch@@ 20
Wur@@ 20
Zei@@ 20
Zellen 20
Zentrale 20
Zit@@ 20
Zivilisten 20
abend 20
abschluss 20
ada 20
ago@@ 20
ahl 20
akt 20
an-@@ 20
anfangs 20
angemessen 20
arch@@ 20
arti@@ 20
asp@@ 20
atur@@ 20
aufgegeben 20
ausgestattet 20
bemüht 20
berich@@ 20
beru@@ 20
beschränkt 20
bestellt 20
betragen 20
betreibt 20
betrifft 20
billiger 20
bindung 20
blä@@ 20
brau@@ 20
bremsen 20
brü@@ 20
bund 20
bürger@@ 20
chefs 20
den-@@ 20
denkbar 20
derer 20
deutlicher 20
din 20
dringen 20
dro@@ 20
durchgesetzt 20
durchzusetzen 20
eck 20
eigenständigen 20
eingerichtet 20
ells 20
els@@ 20
empfangen 20
engruppe 20
enormen 20
entlang 20
ents 20
entwurf 20
erhöhten 20
erledigt 20
erwerben 20
erwiesen 20
esischen 20
esten 20
etliche 20
explo@@ 20
fang 20
ffs 20
fliegt 20
folgten 20
formuliert 20
frist@@ 20
fuer 20
fügt 20
führe 20
gangs 20
geber 20
gedrückt 20
geeignet 20
geeinigt 20
geheim 20
gehende 20
geholfen 20
gemeinschaft 20
gesteigert 20
gewich@@ 20
gewusst 20
gnisse 20
hab 20
hauses 20
hob 20
hohem 20
hu@@ 20
icht 20
inform@@ 20
invest@@ 20
itzen 20
j 20
karten 20
klang 20
klassen 20
klassische 20
klingen 20
kommentierte 20
kra@@ 20
kreis 20
ktion@@ 20
kung 20
kürz@@ 20
l-@@ 20
landen 20
leer 20
lich-@@ 20
läs@@ 20
lös@@ 20
lösung 20
mahnte 20
maschinen 20
massiven 20
missbraucht 20
mün@@ 20
national@@ 20
niedrig 20
niemanden 20
offizielle 20
ographie 20
park 20
parteien 20
ppen@@ 20
pres@@ 20
prin@@ 20
produ@@ 20
präsident 20
riesigen 20
rische 20
roman@@ 20
runden 20
rät 20
rückte 20
saal 20
saison 20
sam@@ 20
sammeln 20
samt 20
schein@@ 20
scheitern 20
scheiterte 20
schickt 20
schlägen 20
selt 20
sende 20
sendung 20
sens 20
sinkt 20
spartner 20
spekuliert 20
spreis 20
steiner 20
sters 20
strafe 20
stunde 20
stör@@ 20
stützen 20
sächsischen 20
tener 20
ti 20
tions@@ 20
traditionell 20
tum 20
tur 20
umwelt@@ 20
unabhängigen 20
unseres 20
unterzeichnet 20
vari@@ 20
verbinden 20
verdächtigen 20
verkehrs@@ 20
verkündete 20
verließ 20
versammlung 20
verschwinden 20
versichert 20
versicherungen 20
versuch 20
verteidigte 20
verteu@@ 20
verträge 20
vieles 20
volumen 20
vorbei@@ 20
vorigen 20
wa 20
wasser@@ 20
weltgrößte 20
wendet 20
weshalb 20
wiederholen 20
wilden 20
wä@@ 20
ziert 20
zogenen 20
zus@@ 20
Übernahme@@ 20
Übernahmen 20
Überwachungs@@ 20
á@@ 20
ähn@@ 20
älteren 20
änden 20
übergeben 20
überlassen 20
übernahm 20
180 19
19,@@ 19
1977 19
69@@ 19
75@@ 19
88@@ 19
A380 19
AC 19
Abteilung 19
Abzug 19
Air@@ 19
Airlines 19
Ankunft 19
Ann@@ 19
Anstrengungen 19
Anwohner 19
Armin 19
Asche 19
Asi@@ 19
Auflagen 19
Auflösung 19
Ausfälle 19
Ausnahmen 19
Autom@@ 19
Back@@ 19
Bahnhof 19
Banken@@ 19
Bauer 19
Bereichen 19
Betriebsrat 19
Beweis 19
Beweise 19
Bewertung 19
Bildern 19
Blackwater 19
Bonner 19
Brü@@ 19
Büro@@ 19
Chávez 19
Com@@ 19
Cruise 19
Cup-@@ 19
DVD 19
DVD-@@ 19
Daily 19
Damen 19
Denk@@ 19
Dingen 19
Don@@ 19
Dorf@@ 19
Dra@@ 19
Drogen 19
Dynamik 19
Ehe@@ 19
Einem 19
Entführung 19
Erwachsene 19
Erweiterung 19
Ev@@ 19
Experten@@ 19
Fazit 19
Figuren 19
Frank@@ 19
Freistoß 19
Fun@@ 19
Führ@@ 19
Fürth 19
Gambari 19
Gebot 19
Gefangenen 19
Glas 19
Glaube 19
Glück@@ 19
Großteil 19
Gymnasium 19
Has@@ 19
Hilfs@@ 19
Hitler 19
Hollywood 19
Hypotheken 19
Hö@@ 19
Identität 19
Ihrem 19
Inhalte 19
Innenministerium 19
Jagd 19
Jubel 19
Jü@@ 19
Kaffe@@ 19
Kann 19
Kanzler@@ 19
Kim 19
Kit@@ 19
Kleidung 19
Kli@@ 19
Koalition@@ 19
Kommunikation 19
Konflikte 19
Konsumenten 19
Kontrollen 19
Krankenkassen 19
Krebs 19
Krediten 19
Kü@@ 19
Lach@@ 19
Landwirtschaft 19
Linien 19
M-@@ 19
Mafia 19
Meier 19
Mercedes-@@ 19
Metz 19
Mexiko 19
Mike 19
Milan 19
Modell@@ 19
Moder@@ 19
Moderatorin 19
Montagabend 19
Mur@@ 19
My@@ 19
Män@@ 19
Nato-@@ 19
Netzwerk 19
Niederlande 19
Obama 19
Obersten 19
Op@@ 19
Ordnungs@@ 19
Orts@@ 19
Osnabrück 19
Ost 19
Ostdeutschland 19
Pas@@ 19
Pass 19
Pe@@ 19
Pel@@ 19
Pflege 19
Pofalla 19
Prag 19
Pres@@ 19
Produzenten 19
Quartalszahlen 19
Raketen 19
Rauch@@ 19
Renault 19
Rennstall 19
Rezession 19
Risik@@ 19
Rolf 19
Rug@@ 19
Rundfunk 19
Sachs 19
Sau@@ 19
Schalker 19
Schmerzen 19
Schmid@@ 19
Schnee 19
Schuss@@ 19
Schönheit 19
Schülern 19
Seel@@ 19
Seither 19
Senator 19
Sogar 19
Soldat 19
Sportler 19
Spre@@ 19
Stat@@ 19
Steffen 19
Stephan 19
Stra@@ 19
Strafen 19
Strich 19
Syn@@ 19
Systems 19
Säu@@ 19
Süß@@ 19
Taiwan 19
Tex@@ 19
Theorie 19
Transport@@ 19
Tru@@ 19
Umsätze 19
Ursula 19
Verbandes 19
Verbrauch 19
Verbraucher@@ 19
Verhandlungs@@ 19
Verkaufs@@ 19
Verlag@@ 19
Verteidigungs@@ 19
Vit@@ 19
Vize 19
Was@@ 19
Website 19
Weder 19
Weltmeisterin 19
Will@@ 19
Währungs@@ 19
X-@@ 19
Ypsilanti 19
Zi@@ 19
Zinssenkung 19
Zugriff 19
Zweit@@ 19
abends 19
abgegeben 19
abi 19
absolute 19
aden@@ 19
agen@@ 19
aktien 19
aku@@ 19
ala 19
angeklagt 19
angelegt 19
angesprochen 19
ar-@@ 19
arte 19
ater 19
atoren 19
aufgerufen 19
aufhören 19
aussieht 19
back 19
ball-@@ 19
bedien@@ 19
befreit 19
beherrscht 19
beider 19
beklagt 19
belast@@ 19
belohnt 19
bere@@ 19
bergs 19
besich@@ 19
bestehe 19
bester 19
bestimmen 19
bewegungen 19
bezogen 19
blatt 19
blauen 19
blei@@ 19
bri@@ 19
bü@@ 19
christlichen 19
dan@@ 19
denden 19
derartige 19
deter 19
ding@@ 19
durften 19
ehrlich 19
einfache 19
einfluss@@ 19
einschließlich 19
einzusetzen 19
enge 19
enko 19
enswerte 19
entr@@ 19
entscheidung 19
entschär@@ 19
entspannt 19
erfuhr 19
erobern 19
erstaunlich 19
essi@@ 19
ev@@ 19
extra 19
ey 19
familie 19
fehler 19
fleisch 19
flieger 19
forschungs@@ 19
fühlte 19
fürchtet 19
gab@@ 19
garantiert 19
gebene 19
gefahr 19
gefangen 19
gefährliche 19
gefäl@@ 19
gels 19
generell 19
genheit 19
geringe 19
gesetzte 19
gewohnt 19
gucken 19
günstiger 19
handele 19
heftige 19
heimische 19
hinaus@@ 19
hinein@@ 19
hinterlassen 19
ichts@@ 19
identifiziert 19
ierer 19
iern 19
ill 19
inger@@ 19
internationaler 19
istisch 19
itten 19
jederzeit 19
jüngeren 19
keits@@ 19
kritischen 19
kunst 19
kön@@ 19
lebenden 19
lehnen 19
leiterin 19
let@@ 19
letztes 19
li 19
lichkeits@@ 19
liegende 19
liert 19
lik@@ 19
mancher 19
meines 19
mess@@ 19
messe 19
mitt@@ 19
mus@@ 19
mäß@@ 19
nam@@ 19
nehme 19
nei@@ 19
nein 19
nern 19
nominiert 19
nu@@ 19
nummer 19
nutzte 19
näh@@ 19
ond@@ 19
ot 19
partei@@ 19
pend@@ 19
pern 19
pfe@@ 19
plat@@ 19
politisches 19
polnische 19
populär 19
profitiert 19
qualifiziert 19
quer 19
quis@@ 19
raft 19
reagierten 19
rechtlichen 19
reichlich 19
reichsten 19
rer 19
richtung 19
riefen 19
risiko 19
rollen 19
rot 19
ruf@@ 19
rum@@ 19
räu@@ 19
sakti@@ 19
sau@@ 19
saßen 19
sches 19
schießt 19
schrei@@ 19
schwach 19
schwe@@ 19
schützt 19
setze 19
siebziger 19
siert 19
skurs 19
sparte 19
spreche 19
stan@@ 19
stel@@ 19
steller 19
stem 19
stet 19
still 19
stimmten 19
stisch 19
strengen 19
ständige 19
tag@@ 19
tchen 19
ten-@@ 19
tender 19
terte 19
teste 19
tigte 19
to-@@ 19
traum 19
trock@@ 19
trä@@ 19
träumen 19
ulation 19
ungewöhnlich 19
unverändert 19
veranstaltung 19
vermitteln 19
versicherte 19
vertrau@@ 19
verwand@@ 19
veröffentlichte 19
vis@@ 19
vorhanden 19
wachen 19
warb 19
weh 19
welchem 19
welches 19
wertet 19
wettbewerb 19
wirksam 19
würdige 19
zeichnete 19
zellen 19
zins@@ 19
zumeist 19
zy@@ 19
zü@@ 19
Öffent@@ 19
Überschuss 19
Überschwemmungen 19
ärzte 19
äum@@ 19
ösen 19
überprüfen 19
ückt 19
0,1 18
12,@@ 18
16,@@ 18
20-@@ 18
2020 18
3.html 18
50.000 18
58@@ 18
7,5 18
78@@ 18
85@@ 18
92 18
94 18
Abe 18
Abitur 18
Absicht 18
Ac@@ 18
Agenturen 18
Akt 18
Akteure 18
Aktionen 18
Aller@@ 18
Alternativen 18
Angeklagte 18
Angestellte 18
Annahme 18
Anträge 18
Anwal@@ 18
Apfel@@ 18
Arme 18
Ausmaß 18
BGH 18
Barroso 18
Beg@@ 18
Beschäftigung 18
Bestand 18
Betreuung 18
Blei@@ 18
Bou@@ 18
Bundesamt 18
Bundestagswahl 18
Burma 18
Bäume 18
CD@@ 18
CO2-@@ 18
Can@@ 18
Cap@@ 18
Cas@@ 18
Chemnitz 18
Chris 18
Dame 18
Daum 18
Demonstrationen 18
Deut@@ 18
Dienstleister 18
EU-Staaten 18
Ed@@ 18
Effekt 18
Einmal 18
Entwicklungen 18
Erholung 18
Erziehung 18
Euphorie 18
Europ@@ 18
Extre@@ 18
Fahrzeug@@ 18
Fall@@ 18
Feier@@ 18
Flughäfen 18
Fonds@@ 18
Forum 18
Friedensnobel@@ 18
Fris@@ 18
Fußball-Nationalmannschaft 18
Fähigkeiten 18
Gebühren@@ 18
Gegentor 18
Geheimnis 18
Gesetzes@@ 18
Geträn@@ 18
Grab@@ 18
Grä@@ 18
Gül 18
Hambüchen 18
Hauptbahnhof 18
Haut 18
Hillary 18
Hir@@ 18
Hirn@@ 18
Hitze 18
Hubschrauber 18
Hum@@ 18
IT 18
Ibrahim 18
Iraker 18
Island 18
Jan@@ 18
Jap@@ 18
Junta 18
Kau@@ 18
Kinderbetreuung 18
Kino@@ 18
Kleinen 18
Klimak@@ 18
Klub 18
Kombination 18
Konflikts 18
Krebs@@ 18
Labor 18
Last 18
Lasten 18
Lat@@ 18
Leder@@ 18
Leitartikel 18
Leitzins 18
Leu@@ 18
Loch 18
Marath@@ 18
Mohammed 18
Mol@@ 18
Morgen@@ 18
Musiker 18
Mön@@ 18
Nerven 18
Nö@@ 18
OE@@ 18
Oberbürgermeister 18
Offen@@ 18
Ol@@ 18
Optimismus 18
Os@@ 18
Paderborn 18
Pharma@@ 18
Player 18
Pleite 18
Politikerin 18
Private 18
Prozent@@ 18
Präsentation 18
Prüf@@ 18
Qualifikationsspiel 18
Rauchverbot 18
Reden 18
Regen 18
Reich@@ 18
Rein@@ 18
Religions@@ 18
Rest@@ 18
Ronald 18
Rot 18
Rücktritts@@ 18
SI@@ 18
Saal 18
Sam@@ 18
Sander 18
Sandra 18
Schloss 18
Schreck@@ 18
Schreiben 18
Schwarze 18
Schwung 18
Seinen 18
Selbstmord 18
Serbien 18
Sex@@ 18
Sinn@@ 18
Skepsis 18
Slowenien 18
Sonst 18
Spann@@ 18
Spannung 18
Spenden 18
Spiegel@@ 18
Spielzeug 18
Sponsoren 18
Standards 18
Stich@@ 18
Str@@ 18
Strecken 18
Stress 18
Stück@@ 18
Stücke 18
Stütz@@ 18
Superstar 18
Symbol 18
Talent 18
Tarifkonflikt 18
Technologie 18
Telekom-@@ 18
Telekom@@ 18
Terr@@ 18
Terror-@@ 18
Texas 18
Theo@@ 18
Thüringen 18
Tie@@ 18
Trauer 18
Tschechen 18
Umgebung 18
Umsetzung 18
Van 18
Vereine 18
Verlusten 18
Verz@@ 18
Vet@@ 18
Viel@@ 18
Vielfalt 18
Vize-@@ 18
Volkswagen-@@ 18
Volumen 18
Vorfall 18
Weiße 18
Wen 18
Wenige 18
Wieder 18
Wiederaufbau 18
Wol@@ 18
Wulff 18
Zeu@@ 18
Zucker@@ 18
Zunahme 18
Zy@@ 18
Zypern 18
abgezogen 18
ags 18
aller@@ 18
allgemeinen 18
ammern 18
amts 18
analy@@ 18
anbieter 18
andau@@ 18
ange 18
angegriffen 18
ann 18
annte 18
arbeiteten 18
ares 18
arzt 18
asser 18
ausgaben 18
ausgegeben 18
ausländischer 18
aussichten 18
außen@@ 18
ay@@ 18
bat 18
baus 18
bayerische 18
bedeut@@ 18
befragt 18
begrenzt 18
beit@@ 18
bende 18
berichte 18
beruf@@ 18
besitz 18
bestätigten 18
bewe@@ 18
bildet 18
binden 18
bit@@ 18
blut@@ 18
boden 18
bogen 18
breite 18
bringe 18
buch@@ 18
bunten 18
böse 18
chi 18
ci@@ 18
delt 18
dicke 18
diesjährigen 18
dominiert 18
dul@@ 18
dun@@ 18
echter 18
einigte 18
einsetzen 18
elegan@@ 18
endorf 18
enken 18
enne 18
entar@@ 18
enten@@ 18
entes 18
erfahr@@ 18
ergibt 18
erhöhung 18
erwägt 18
ets 18
experte 18
experten 18
feh@@ 18
feier@@ 18
ferin 18
fes 18
festival 18
fing 18
flüs@@ 18
for 18
freiheit 18
freu@@ 18
früherer 18
fül@@ 18
gas 18
gebern 18
gebiete 18
gebrochen 18
gebürtige 18
gedroht 18
gefe@@ 18
gefolgt 18
gefühl 18
geist 18
gemein@@ 18
genauen 18
gend@@ 18
gent@@ 18
gert 18
geschäfte 18
gesellschaftliche 18
gesteckt 18
gestiegenen 18
gewannen 18
globale 18
graben 18
gre@@ 18
griffen 18
grä@@ 18
gäbe 18
günstig 18
günstigen 18
halbes 18
heftigen 18
heran@@ 18
hist@@ 18
historische 18
höchst 18
ibo 18
ichten 18
illegal 18
insel 18
inszeniert 18
ion@@ 18
irgendwo 18
isierten 18
ix 18
jetzigen 18
jährlichen 18
kalt 18
kamp@@ 18
kaufte 18
ki@@ 18
klagt 18
komplette 18
konkret 18
konsequent 18
ktiver 18
käufer 18
l. 18
lacht 18
lernte 18
liest 18
ließe 18
liga 18
log@@ 18
lungs@@ 18
läufe 18
lö@@ 18
mannschaft 18
maschine 18
minus 18
mod@@ 18
modelle 18
mutig 18
möchten 18
neuerdings 18
nung 18
nächstes 18
oberen 18
obersten 18
ologische 18
oper@@ 18
oph@@ 18
organisationen 18
out 18
pan@@ 18
portugiesischen 18
produzieren 18
psych@@ 18
punk@@ 18
quasi 18
que 18
raft@@ 18
rats@@ 18
regen 18
region 18
registriert 18
reist 18
religiöse 18
restlichen 18
rufe 18
samen 18
schancen 18
schich@@ 18
schlafen 18
schlüsse 18
schneiden 18
scho@@ 18
schrecken 18
schten 18
schütz@@ 18
seher 18
sierte 18
singt 18
sobald 18
soli@@ 18
sportlichen 18
spü@@ 18
starben 18
stat@@ 18
stieß 18
strebt 18
streiten 18
stung 18
ständigen 18
such@@ 18
telt 18
terten 18
therapie 18
tini 18
trugen 18
umsetzen 18
verantwortlichen 18
verbands 18
verbesserte 18
verbindet 18
vergleichsweise 18
verlauf 18
verpasste 18
vertrieben 18
vertritt 18
verweigert 18
verzeichnen 18
ves 18
volks@@ 18
vorher@@ 18
weich@@ 18
wein@@ 18
welle 18
werbung 18
wertung 18
wissenschaftler 18
wussten 18
wäh@@ 18
würdig 18
yers 18
zelt 18
zeugen 18
zin@@ 18
zugelegt 18
zugenommen 18
zugänglich 18
zurückge@@ 18
zurückziehen 18
Ökonomen 18
Überwachung 18
ähr@@ 18
í@@ 18
öhnen 18
ügen 18
üpp@@ 18
0,4 17
000-@@ 17
140 17
15.000 17
2.000 17
25.000 17
4,2 17
64@@ 17
67@@ 17
7000 17
89@@ 17
AR@@ 17
Abwehr 17
Akti@@ 17
Alberto 17
Analysen 17
Angehörigen 17
Angel@@ 17
Anhörung 17
Anti-Doping-@@ 17
Arbeitsgruppe 17
Arbeitslosen 17
Argentinien 17
Auflage 17
Aufsehen 17
Aufträge 17
Ausgerechnet 17
Ausstattung 17
Austausch 17
Autobahn@@ 17
Autok@@ 17
BI@@ 17
BMW-@@ 17
Baby 17
Bade@@ 17
Bag@@ 17
Bangkok 17
Bar 17
Barbara 17
Bedingung 17
Beine 17
Beispiele 17
Bereiche 17
Betreuungs@@ 17
Bevölkerungs@@ 17
Bezirk 17
Bischof 17
Blair 17
Bruch 17
Brüsseler 17
Bundesland 17
Büros 17
Camp@@ 17
Chefin 17
Christen 17
Claudia 17
Cop@@ 17
DSV 17
Daimler@@ 17
Dallas 17
Daneben 17
Darum 17
Dateien 17
Denken 17
Derby 17
Diam@@ 17
Diesmal 17
Diplom@@ 17
Drit@@ 17
Durchschnitts@@ 17
E-Mails 17
EM-Qualifikation 17
ER@@ 17
East 17
Egal 17
Einkauf@@ 17
Einkommen@@ 17
Einzelhandel 17
Einzelheiten 17
Empfänger 17
Engel 17
Entführer 17
Enttäuschung 17
Ero@@ 17
Ersatz 17
Erz@@ 17
Etappe 17
F-@@ 17
FTD-@@ 17
Filiale 17
Filialen 17
Finanzministerium 17
Finnland 17
Fra@@ 17
Fran@@ 17
Francisco 17
Freiheits@@ 17
Freundschaft 17
Frist 17
Frü@@ 17
Füßen 17
Gates 17
Gehalt 17
Gehalts@@ 17
Geht 17
Gei@@ 17
Gelder 17
Gemeinsam 17
Gent@@ 17
Geor@@ 17
Gerichts 17
Gerry 17
Gesam@@ 17
Gesetzes 17
Gewerkschafts@@ 17
Gl@@ 17
Gör@@ 17
HD-@@ 17
Haar 17
Hab@@ 17
Haftstrafe 17
Hamann 17
Handeln 17
Heil 17
Heimatstadt 17
ICE 17
IK@@ 17
Ingenieur 17
Instrument 17
Interessen@@ 17
Isa@@ 17
Islamisten 17
Jackson 17
Jahresbeginn 17
José 17
Kac@@ 17
Keeper 17
Klassen@@ 17
Klubs 17
Kost@@ 17
Krie@@ 17
Kä@@ 17
Köl@@ 17
Küchen@@ 17
Kündigung 17
Lady 17
Lar@@ 17
Lauf 17
Legende 17
Lern@@ 17
Lions 17
Liverpool 17
Lohn 17
Louis 17
Lucio 17
Länderspiele 17
MSV 17
MTV 17
Mahmud 17
Marathon 17
Marketing 17
Maß@@ 17
Meh@@ 17
Menschenrechts@@ 17
Meter-@@ 17
Metzelder 17
Miller 17
Minder@@ 17
Minderheit 17
Missbrauch 17
Mitternacht 17
Moscheen 17
Music 17
Münster 17
Nas@@ 17
Nasdaq 17
Nazi-@@ 17
Neu 17
Nobelpreis 17
Notfall@@ 17
Notwendigkeit 17
Null 17
Offenheit 17
Ok@@ 17
Oscar 17
Parteitag@@ 17
Pendler 17
Pie@@ 17
Porträt 17
Potter 17
Problem@@ 17
Produkten 17
Produktion@@ 17
Profil 17
Prozentpunkte 17
Präsidentin 17
Pul@@ 17
Radi@@ 17
Rechner 17
Rechtsanwalt 17
Reporter 17
Ret@@ 17
Rettung 17
Rheinland-Pfalz 17
Ross@@ 17
Royal 17
Saisonsieg 17
Sammler 17
Sand 17
Schauspiel@@ 17
Scheitern 17
Schi@@ 17
Schiff 17
Schre@@ 17
Schwaben 17
Sicher 17
Sicht@@ 17
Sky@@ 17
Spiels 17
Sports 17
Spr@@ 17
Spä@@ 17
Still@@ 17
Stoxx 17
Strö@@ 17
Sun 17
Susanne 17
System@@ 17
Sänger 17
TU@@ 17
Talfahrt 17
Tanz@@ 17
Telekommunikations@@ 17
Ti@@ 17
Titeln 17
Tour-@@ 17
Tragödie 17
Train@@ 17
Trikot 17
Uefa-@@ 17
Ufer 17
Umweltminister 17
Universitäts@@ 17
Uno 17
Untersuchungshaft 17
Vergewaltigung 17
Verlierer 17
Versorgung 17
Viertel@@ 17
Volkswirtschaft 17
Vorstandsmitglied 17
Völler 17
WM-Titel 17
Wahrscheinlich 17
Warnung 17
Wehr@@ 17
Weltmeisterschaften 17
Weltraum@@ 17
Weltrekord 17
Werden 17
Werken 17
Willi 17
Woods 17
Zahlungs@@ 17
Zeitplan 17
Zusammenbruch 17
aben 17
abhän@@ 17
abkommen 17
ade@@ 17
afghanische 17
al-Qaida 17
altes 17
anderthalb 17
angebliche 17
angebote 17
angehoben 17
angeht 17
antrag 17
appe 17
arm 17
armut 17
ater@@ 17
ations-@@ 17
atisch 17
aufgeben 17
auseinander 17
ausger@@ 17
auskommen 17
aussichts@@ 17
bab@@ 17
bast@@ 17
baum 17
beeinflusst 17
begegnen 17
beklagen 17
beliebt 17
benutzt 17
berücksichtigt 17
berühmt 17
bestraft 17
bestreitet 17
betr@@ 17
betra@@ 17
betrieb@@ 17
bew@@ 17
bewahren 17
bewiesen 17
bewussten 17
bilanz 17
bilanz@@ 17
bildungs@@ 17
billig 17
bitter 17
blau@@ 17
brasilianischen 17
bür@@ 17
chens 17
dat@@ 17
denko 17
derungs@@ 17
diejenigen 17
dierten 17
ding 17
dlicher 17
dner 17
dop@@ 17
drastisch 17
drehte 17
drängt 17
drückte 17
elektronischen 17
en.html 17
enkt 17
entscheidende 17
erhoben 17
eri@@ 17
erkennbar 17
erlassen 17
erläuterte 17
ermitteln 17
ert@@ 17
erungs@@ 17
erwäh@@ 17
expor@@ 17
fa 17
fa@@ 17
fahrenen 17
fair 17
faktor 17
fas@@ 17
fet@@ 17
ffer 17
fie@@ 17
finanzen 17
finanzierung 17
flüge 17
fr@@ 17
frauen 17
frühe 17
gangs@@ 17
gebenen 17
gebunden 17
gebung 17
gedreht 17
gefährlichen 17
gefördert 17
geführten 17
gegründeten 17
gei@@ 17
gekommen@@ 17
gelegenen 17
gemerkt 17
genossen 17
gerech@@ 17
geredet 17
gerei@@ 17
gerichts 17
gerungen 17
geräte 17
gesammelt 17
geschäften 17
gesellschaftlichen 17
gesetzlich 17
gestiegene 17
gesund 17
gewaltig 17
gewähren 17
gezählt 17
greif@@ 17
grenz@@ 17
grüne 17
günstig@@ 17
herauszu@@ 17
hilfen 17
hrt 17
hung 17
ian@@ 17
ic@@ 17
iers 17
iller 17
integri@@ 17
israelische 17
isten@@ 17
jahren 17
kannte 17
ki 17
klin@@ 17
kommissar 17
kommission 17
konzentriert 17
kritik 17
kräften 17
kräftigen 17
ktiv 17
lan 17
landschaft 17
langjährigen 17
liberale 17
liberalen 17
liz@@ 17
locker 17
lub 17
läser 17
manag@@ 17
mar 17
mochte 17
musik 17
männ@@ 17
nahen 17
nationale 17
nden 17
nehm@@ 17
nieder 17
notwendigen 17
offener 17
olitische 17
omen 17
opf 17
ordentlich 17
orte 17
our 17
owa 17
parat 17
pat@@ 17
plattform 17
pol 17
potenti@@ 17
prakti@@ 17
privat 17
probe 17
produkten 17
prozess 17
ran 17
regelung 17
religiösen 17
rie 17
satzes 17
schie@@ 17
schlei@@ 17
schu@@ 17
schweigen 17
schwieriger 17
schwin@@ 17
schönsten 17
seither 17
serhöhung 17
sicheren 17
sichergestellt 17
sicht 17
sie@@ 17
sieben@@ 17
sigen 17
sign@@ 17
sion 17
spräsident 17
spä@@ 17
staat@@ 17
stadion 17
stechn@@ 17
steigerungen 17
stetig 17
steuert 17
stoffen 17
stopp 17
strategische 17
stro@@ 17
stru@@ 17
stärkere 17
tagesschau.de 17
tarif@@ 17
teter 17
theater 17
toll 17
treu 17
twagen 17
ty 17
ule 17
ulen 17
umge@@ 17
umgerechnet 17
umzu@@ 17
ungslos 17
unternehmens 17
unüber@@ 17
ursprünglichen 17
verdienten 17
verein@@ 17
vergleichbar 17
verhandlungen 17
verklagt 17
verlangte 17
verletz@@ 17
vermisst 17
verrät 17
verschafft 17
versicherer 17
versprochen 17
verstän@@ 17
verteidigen 17
verw@@ 17
vorsitzende 17
wa@@ 17
wahrgenommen 17
warnten 17
warnung 17
weitergehen 17
wes@@ 17
wirkte 17
wis@@ 17
wissenschaftliche 17
wun@@ 17
wäl@@ 17
yp@@ 17
zeich@@ 17
zeichnen 17
zeitgenöss@@ 17
ziell 17
zugestimmt 17
zunehmende 17
zur@@ 17
zurückgewiesen 17
zurückzuführen 17
zählten 17
zö@@ 17
Ärzten 17
Öko-@@ 17
ärer 17
äs@@ 17
ören 17
überzeugte 17
übt 17
übte 17
1.000 16
1.html 16
13-@@ 16
1975 16
1980 16
198@@ 16
2,6 16
2,8 16
2,9 16
200.000 16
25,@@ 16
250.000 16
3,3 16
3,7 16
30-@@ 16
40. 16
65@@ 16
66. 16
7-@@ 16
79 16
8.html 16
82 16
90. 16
A. 16
Achtelfinale 16
Alarm@@ 16
Ale@@ 16
Alkohol@@ 16
Alter@@ 16
Amerikanern 16
Anzeichen 16
Arbeitnehmer@@ 16
Arbeitsbedingungen 16
Architekten 16
Atomwaffen 16
Auslöser 16
Ausschreitungen 16
Ausschuss 16
Aussichten 16
Ausstellungen 16
BE@@ 16
Bald 16
Band@@ 16
Beck@@ 16
Behörden@@ 16
Beifall 16
Bein 16
Benzin 16
Benzin@@ 16
Berlins 16
Bern@@ 16
Bernanke 16
Beschwerde 16
Besprochen 16
Beust 16
Beweis@@ 16
Bezeichnung 16
Bildschirm 16
Bin@@ 16
Birgit 16
Bit@@ 16
Bob 16
Boston 16
Bri@@ 16
Bundesländer 16
Bundespräsident 16
Bundestagsfraktion 16
Bundesverkehrsminister 16
Büch@@ 16
Chin@@ 16
Co. 16
Daraufhin 16
Deb@@ 16
Dienstleistungs@@ 16
Digital@@ 16
Dimension 16
Droger@@ 16
EM@@ 16
Eigenschaften 16
Einkauf 16
Eisenbahn@@ 16
Empfehlung 16
Engagements 16
Engländer 16
Entscheidungs@@ 16
Erbschaft@@ 16
Ereignisse 16
Erwerbs@@ 16
Ess@@ 16
Et@@ 16
Faktor 16
Farb@@ 16
Feh@@ 16
Final@@ 16
Flüge 16
Focus 16
Fon@@ 16
Fri@@ 16
Geburts@@ 16
Geheimdienst@@ 16
Gelbe 16
Gerichte 16
Gesetz@@ 16
Goethe-@@ 16
Green@@ 16
Guy 16
Hag@@ 16
Hall@@ 16
Hansestadt 16
Herstellern 16
Hessens 16
High@@ 16
Härte 16
IV 16
Information@@ 16
Instrumente 16
Inter 16
Italiens 16
Jacques 16
Japaner 16
Jazz@@ 16
Jedenfalls 16
Johnson 16
Kardinal 16
Karl-@@ 16
Karriere@@ 16
Kickers 16
Klar@@ 16
Kleine 16
Komp@@ 16
Kontinent 16
Konzepte 16
Kredit 16
Kriminal@@ 16
Kub@@ 16
Königin 16
Kürze 16
LA 16
Lab@@ 16
Lande 16
Leidenschaft 16
Len@@ 16
Lieder 16
Litauen 16
Logo 16
Län@@ 16
Lü@@ 16
Mah@@ 16
Mainzer 16
Mann@@ 16
Marktteilnehmer 16
Massa 16
Masters 16
Maxim@@ 16
Meer@@ 16
Meg@@ 16
Meis@@ 16
Meist 16
Min 16
Mittelfeld@@ 16
Monats@@ 16
Mosk@@ 16
Motive 16
Museums 16
Muss 16
Mut@@ 16
Mörder 16
Müll 16
Mütter 16
NDR 16
Neun@@ 16
Neuseeland 16
Neuzugang 16
Nobel@@ 16
Nordamerika 16
Nuklear@@ 16
Null@@ 16
Oft 16
Original@@ 16
Orleans 16
Osteuropa 16
PC-@@ 16
Paket 16
Partien 16
Pflanzen 16
Pflanzen@@ 16
Philosophie 16
Piëch 16
Platz@@ 16
Plötzlich 16
Por@@ 16
Proz@@ 16
Psycho@@ 16
Pun@@ 16
Punkt@@ 16
Quellen 16
Quote 16
RE@@ 16
Ram@@ 16
Rap@@ 16
Rath@@ 16
Reduzierung 16
Reisende 16
Rel@@ 16
Renditen 16
Rent@@ 16
Research 16
Restaurants 16
Rettungs@@ 16
Rich@@ 16
Robo@@ 16
Rollen 16
Ruhr@@ 16
SMS 16
Sachverstän@@ 16
Sammlung 16
Sarkozys 16
Schad@@ 16
Schil@@ 16
Schlange 16
Schleswig-Holstein 16
Schlüssel 16
Schnell@@ 16
Scholz 16
Schulden@@ 16
Schulz 16
Schwächen 16
Sehr 16
Sek@@ 16
Sektor 16
Sens@@ 16
Sieben@@ 16
Siegfried 16
Ski@@ 16
Son@@ 16
Sperre 16
Sprachen 16
Stabilisierung 16
Stammzellen 16
Strategie@@ 16
Söl@@ 16
Tan@@ 16
Tarifverhandlungen 16
Teamkollegen 16
Teammanager 16
Tendenz 16
Themen@@ 16
These 16
Thompson 16
Tickets 16
Tiefe 16
Tiger 16
Torjäger 16
Tornad@@ 16
Tran@@ 16
Traum@@ 16
Unions-@@ 16
Unmut 16
Vegas 16
Verfassungsschutz 16
Verhandlung 16
Vermischtes 16
Verspätung 16
Vertrau@@ 16
Vertrieb@@ 16
Veränderung 16
Vir@@ 16
Virus 16
Vogel@@ 16
Vorjahreszeitraum 16
Völker@@ 16
Wag@@ 16
Wandel 16
Ware 16
Wasch@@ 16
Web 16
Wenger 16
Werten 16
Widerspruch 16
Wiesbadener 16
Wohlstand 16
Wohnzimmer 16
Wurzeln 16
YouTube 16
Zahn@@ 16
Zauber@@ 16
Zehn@@ 16
Zeitalter 16
Zertifikate 16
Zumwinkel 16
Zurückhaltung 16
Zusammen 16
affäre 16
afrikanischen 16
agt 16
ahl@@ 16
aktive 16
alisieren 16
allmählich 16
ame 16
amerikan@@ 16
ance 16
angegeben 16
angeschlagenen 16
anschauen 16
anscheinend 16
anstieg 16
antes 16
appellierte 16
asen 16
assen@@ 16
atischen 16
ator@@ 16
attackiert 16
attraktiver 16
aufnahme 16
aufre@@ 16
ausgeb@@ 16
ausstellung 16
autos 16
bahnen 16
basi@@ 16
baute 16
bauten 16
beantragt 16
beck 16
bedingt 16
befrie@@ 16
begrüßt 16
beides 16
beklagte 16
bekämpfen 16
belie@@ 16
benötigt 16
berg@@ 16
beschluss 16
beschuldigt 16
beu@@ 16
bevorstehenden 16
bewaffneten 16
bewunder@@ 16
bezeichnen 16
bist 16
brech@@ 16
bs@@ 16
bus 16
börsen@@ 16
che@@ 16
chem@@ 16
cker@@ 16
daheim 16
deck@@ 16
deckt 16
dend 16
deutschland 16
dienstes 16
dorthin 16
dramatischen 16
drücke 16
dunklen 16
durchschnittliche 16
dün@@ 16
eig@@ 16
einander@@ 16
eingeladen 16
eingereicht 16
einziger 16
ella 16
ellen@@ 16
embr@@ 16
empfiehlt 16
endgültige 16
ener@@ 16
enh@@ 16
ennung 16
enswert 16
entdeckte 16
entschlossen 16
entzogen 16
er-Jahren 16
erfreut 16
ergänzt 16
erhofft 16
erien 16
erinnerte 16
erkannte 16
erkennt 16
erleichtert 16
erlitt 16
erläutert 16
erneuten 16
ers@@ 16
ersetzen 16
erwar@@ 16
erwischt 16
eröffnete 16
ester@@ 16
fabrik 16
fal@@ 16
fanta@@ 16
fehle 16
fehlende 16
fel 16
feu@@ 16
freundlichen 16
frie@@ 16
fried@@ 16
friedlich 16
fur@@ 16
förderung 16
fügen 16
ganz@@ 16
ganzes 16
gebe@@ 16
gehöre 16
geladen 16
gelegte 16
geliefert 16
geprüft 16
gere@@ 16
gerichtet 16
gespräche 16
gewerk@@ 16
gewinne 16
gol@@ 16
gutem 16
gänger 16
hafter 16
halle 16
hand 16
hauptsächlich 16
hem@@ 16
hindert 16
hingewiesen 16
hinweg@@ 16
hn 16
hon@@ 16
hre 16
ielen 16
ih@@ 16
ind 16
informationen 16
inn 16
ish@@ 16
islamischen 16
itzt 16
jet 16
journal@@ 16
jung 16
junta 16
ka@@ 16
kanadischen 16
kas 16
kehrte 16
kind 16
kler 16
kno@@ 16
kol@@ 16
kts 16
kulturelle 16
kund@@ 16
kungen 16
kurse 16
küh@@ 16
lag@@ 16
langjährige 16
lebte 16
leere 16
leichte 16
leu@@ 16
lichste 16
lierten 16
litt 16
ller 16
lob@@ 16
low 16
low@@ 16
längeren 16
mangelnde 16
mas@@ 16
matisch 16
mehrmals 16
menden 16
menten 16
merken 16
mi 16
mächtigen 16
negative 16
neuesten 16
nie@@ 16
normale 16
nungen 16
ogo 16
ole 16
olen 16
olle@@ 16
olo@@ 16
ong@@ 16
ont 16
organisierten 16
orien 16
ort@@ 16
oten 16
ov@@ 16
palästinensischen 16
parallel 16
pen 16
perfekte 16
portugiesische 16
preises 16
probleme 16
proz@@ 16
rag@@ 16
rang 16
rapid@@ 16
real@@ 16
realen 16
reiben 16
rent@@ 16
ritt 16
schafften 16
schicht 16
schmei@@ 16
schreck@@ 16
schritt 16
schte 16
schub 16
schwächen 16
schöner 16
schützer 16
seiten 16
senkt 16
show 16
sid 16
sige 16
sigkeit 16
sinkende 16
situation 16
skosten 16
sol@@ 16
spek@@ 16
spezi@@ 16
spolitiker 16
sportlich 16
sprach@@ 16
springt 16
spru@@ 16
sta@@ 16
stal@@ 16
statt@@ 16
steigerung 16
stischen 16
strafre@@ 16
strecken 16
strit@@ 16
struktur@@ 16
stum@@ 16
stört 16
störungen 16
stürzte 16
sub@@ 16
sätzen 16
tagen 16
taus@@ 16
tigem 16
tigungs@@ 16
tour@@ 16
tung@@ 16
ty@@ 16
türk@@ 16
ud@@ 16
ul 16
under@@ 16
unglaublich 16
uter 16
utzung 16
verabschieden 16
vereinbarung 16
vergeblich 16
verheiratet 16
verkehr@@ 16
verkehrs 16
vern@@ 16
verschaffen 16
versehen 16
versetzt 16
versprechen 16
vertre@@ 16
vertretern 16
verurteilte 16
verweisen 16
verwiesen 16
vorgehen 16
vorliegen 16
vorliegt 16
vorstellbar 16
wechselte 16
wider 16
witz@@ 16
wski 16
yn@@ 16
zehnten 16
zimmer 16
zufällig 16
zul@@ 16
zustimmen 16
zwang 16
zweitgrößte 16
zwischenzeitlich 16
zün@@ 16
Är@@ 16
Äußerung 16
Überzeugung 16
ährt 16
älteste 16
äne 16
äufe 16
äß@@ 16
ñ@@ 16
öff@@ 16
öffentlich-rechtlichen 16
önt 16
ört 16
öser 16
überfordert 16
überschritten 16
überwunden 16
üllt 16
-Seite 15
-Sport@@ 15
0,2 15
0-Sieg 15
1,4@@ 15
1200 15
150.000 15
1984 15
1993 15
199@@ 15
5,5 15
80er 15
83 15
9.html 15
900 15
97@@ 15
Abdullah 15
Abenteuer 15
Abschreibungen 15
Adri@@ 15
Alarm 15
Alban@@ 15
Alfred 15
Amazon 15
Andrew 15
Anforderungen 15
Anlauf 15
Ansehen 15
Anzug 15
Arminia 15
Audi@@ 15
Aufregung 15
Auftrags@@ 15
Auktion 15
Aung 15
Auslosung 15
Aut@@ 15
Autobahnen 15
Autonomie 15
Autor@@ 15
BA@@ 15
Ban 15
Basispunkte 15
Bauch 15
Bauern@@ 15
Befürchtungen 15
Befürworter 15
Bein@@ 15
Berger 15
Besetzung 15
Besten 15
Bevor 15
Bewerbung 15
Bewertungs@@ 15
Bewusstsein 15
Bitte 15
Bleibt 15
Bolton 15
Bomben 15
Brandt 15
Brau@@ 15
Brot 15
Bru@@ 15
Bundesanwaltschaft 15
Bundesbürger 15
Bundesligisten 15
Bundesstaat 15
Börsenaufsicht 15
Bürgern 15
CSU-Chef 15
Campus 15
Cel@@ 15
Chefredakteur 15
Christopher 15
Clemens 15
Coup 15
Cre@@ 15
DA@@ 15
DE@@ 15
DF@@ 15
DR 15
Daimler-@@ 15
Darfur 15
Dav@@ 15
Debatten 15
Definition 15
Design@@ 15
Diä@@ 15
Dol@@ 15
Doll 15
Dres@@ 15
Dru@@ 15
Dur@@ 15
Durchgang 15
Dür@@ 15
Ebenfalls 15
Ech@@ 15
Einsatzes 15
Einwanderer 15
Einwohnern 15
Element 15
Energien 15
Entdeckung 15
Entschlossenheit 15
Entspannung 15
Erdbeben 15
Erik 15
Erlöse 15
Ermittlungs@@ 15
Etwas 15
Exemplare 15
Expor@@ 15
Extremisten 15
Exzell@@ 15
Fa@@ 15
Faust 15
Fernseher 15
Feuerwehr 15
Fili@@ 15
First 15
Flaschen 15
Fluss 15
Fracht@@ 15
Franck 15
Freenet 15
Front@@ 15
Funk@@ 15
G. 15
Gamm@@ 15
Gedanke 15
Gedenk@@ 15
Gefühle 15
Gehälter 15
Geiseln 15
Genossen@@ 15
Geschehen 15
Geschenke 15
Geschäften 15
Gesetzgeber 15
Gladbach 15
Gleichwohl 15
Goethe 15
Gru@@ 15
Grü@@ 15
Gö@@ 15
Gü@@ 15
Halbinsel 15
Hamburgs 15
Hans@@ 15
Heim 15
Heinz 15
Hitzlsperger 15
Hoffenheim 15
Hong@@ 15
Hy@@ 15
Häuser@@ 15
Immun@@ 15
Inflations@@ 15
Information 15
Inhal@@ 15
Inst@@ 15
Interne@@ 15
Invest@@ 15
Irgendwann 15
Isaf 15
Italien@@ 15
Ivan 15
Jahrestag 15
Jansen 15
Jazz 15
Jean-Claude 15
Jesus 15
Journalist 15
Justizministerin 15
Kabinetts@@ 15
Karl-Heinz 15
Kasse 15
Kenn@@ 15
Kießling 15
Kilo 15
King 15
Kirchen@@ 15
Klimaschutz@@ 15
Kliniken 15
Kommt 15
Kommunikations@@ 15
Kontra@@ 15
Konzep@@ 15
Kopenhagen 15
Korrekturen 15
Kraftwerk 15
Kreuz 15
Königs@@ 15
Königsklasse 15
Landschaft 15
Laufzeit 15
Lebensmitteln 15
Lehrer@@ 15
Lehrerin 15
Licht@@ 15
Lied 15
Liquiditäts@@ 15
Läufer 15
Machtkampf 15
Mannheim 15
Masse 15
Master@@ 15
McLaren 15
Michel 15
Milch 15
Mirko 15
Mitglieds@@ 15
Mobilfun@@ 15
Mum@@ 15
Mythos 15
Nachwuch@@ 15
Nat@@ 15
National 15
Net@@ 15
Netze 15
Netzwelt 15
Neun 15
Neuwahlen 15
Now@@ 15
Off@@ 15
Oh 15
Ohren 15
Optim@@ 15
Orange 15
Ortszeit 15
Oskar 15
Ost-@@ 15
PR-@@ 15
Palästinenser 15
Paolo 15
Parade 15
Per 15
Peri@@ 15
Persönlichkeit 15
Petra 15
Plätzen 15
Privile@@ 15
Probe 15
Provokation 15
Quer@@ 15
Rech@@ 15
Redaktion 15
Renate 15
Republikaner 15
Rosberg 15
SPD-Vorsitzende 15
Saisonende 15
Satelliten@@ 15
Schienen@@ 15
Schiff@@ 15
Schläger 15
Schweigen 15
Schwere 15
Schwieger@@ 15
Selbstbewusstsein 15
Show@@ 15
Sieger@@ 15
Silvia 15
Sl@@ 15
Smart 15
Sobald 15
Solidarität 15
Sor@@ 15
Sowohl 15
Spaniens 15
Spannungen 15
Sparte 15
Sta@@ 15
Staatsk@@ 15
Stab@@ 15
Station 15
Stei@@ 15
Student 15
Stür@@ 15
Süddeutschen 15
TU 15
Tagung 15
Taschen@@ 15
Technologie@@ 15
Theo 15
Tim@@ 15
Tit@@ 15
Tobias 15
Tony 15
UBS 15
UN 15
US-Amerikaner 15
Ulm 15
Ungarn 15
Unschuld 15
Unternehmer@@ 15
Uran@@ 15
Ursprünglich 15
Verdi 15
Vermutlich 15
Versch@@ 15
Verschiebung 15
Verteidigungsministerium 15
Vertragsverlängerung 15
Vertrauens@@ 15
Vertrieb 15
Verwaltung 15
Vietnam 15
Volkes 15
Volkspartei 15
WDR 15
Wahrscheinlichkeit 15
Warnungen 15
Weihnachtsgeschäft 15
Weltverband 15
Wetten 15
Wis@@ 15
Wolfsburger 15
Wucht 15
Wünsche 15
Zahlung 15
Zertifik@@ 15
Zusammenschluss 15
Zähne 15
abgebaut 15
aggressiv 15
ahnt 15
ahr@@ 15
akos 15
aktiv@@ 15
akzep@@ 15
alisiert 15
altung 15
ampf@@ 15
ams 15
angefangen 15
angeführt 15
angen 15
anstehenden 15
ao 15
apo@@ 15
aps 15
assi@@ 15
atischer 15
atten@@ 15
auffäl@@ 15
aufgeb@@ 15
aufgefallen 15
aufger@@ 15
ausführlich 15
ausgabe 15
ausgeben 15
ausgeglichen 15
ausgel@@ 15
australischen 15
autor@@ 15
bauers 15
bedienen 15
begrüßen 15
behandeln 15
bein@@ 15
beispiel@@ 15
beit 15
belasten 15
belt 15
benannt 15
benutzen 15
berat@@ 15
beratung 15
bergen 15
bestehenden 15
bestritten 15
bett 15
bewerber 15
bewohner 15
bir@@ 15
blockiert 15
brachen 15
brauchte 15
bre@@ 15
brä@@ 15
brüche 15
chern 15
chi@@ 15
chtung 15
da-@@ 15
dam@@ 15
deuten 15
deutsch@@ 15
distanz@@ 15
dl 15
dquo 15
dritt@@ 15
druck@@ 15
drän@@ 15
dynam@@ 15
dänische 15
echt 15
ehel@@ 15
einheiten 15
einig@@ 15
ello 15
enheit 15
entstand 15
entum 15
ere@@ 15
erfunden 15
erkämp@@ 15
erleichtern 15
ernden 15
ersteller 15
ests 15
etten 15
exist@@ 15
fahrzeug 15
fasst 15
fehlten 15
festlegen 15
fließen 15
fließt 15
flog 15
fremden 15
freue 15
freund@@ 15
fri@@ 15
friedliche 15
frist 15
funktionieren 15
förder@@ 15
fünfte 15
ga@@ 15
gan 15
gebnisse 15
geboten 15
gelesen 15
geltend 15
geltenden 15
genes 15
genießt 15
geregelt 15
geschah 15
gescheiterten 15
geschieht 15
gesetzten 15
gestellte 15
gestärkt 15
getrieben 15
gewährt 15
gleichermaßen 15
gläub@@ 15
grandi@@ 15
grü@@ 15
gründet 15
gängen 15
half 15
halter 15
hardt 15
heil@@ 15
heimlich 15
heiß 15
herbei@@ 15
herren 15
herz@@ 15
heu@@ 15
heutige 15
him@@ 15
hohes 15
hä@@ 15
igte 15
ik-@@ 15
impor@@ 15
inder 15
indirekt 15
indische 15
ine@@ 15
inneren 15
instituts 15
intellektu@@ 15
intensive 15
interne 15
islamistischen 15
iste 15
ital@@ 15
itas 15
ität@@ 15
jüdische 15
kalkuliert 15
kammer 15
kandidat 15
kanten 15
keit@@ 15
kenn@@ 15
klam@@ 15
kli@@ 15
kochen 15
kommentieren 15
kontrollieren 15
kritiker 15
kritisierten 15
kurdischen 15
kurz@@ 15
kö@@ 15
könig@@ 15
kümmert 15
küste 15
lagern 15
lebten 15
lehrer 15
leitete 15
liebt 15
liefert 15
lieferte 15
lubs 15
lü@@ 15
manischen 15
marken 15
maßgeblich 15
medien 15
menge 15
mente 15
mer-@@ 15
mig@@ 15
mitarbeiter 15
mitglied 15
motor 15
negativen 15
nett 15
neun@@ 15
neutr@@ 15
niedriger 15
notierten 15
nördlich 15
off@@ 15
og@@ 15
ollt 15
orienti@@ 15
parlamentarische 15
part@@ 15
passende 15
pause 15
permanent 15
platten 15
platzierten 15
pler 15
post@@ 15
rah@@ 15
rahmen 15
ras 15
real 15
rechnete 15
rechtliche 15
rett@@ 15
revolution@@ 15
rig 15
risiken 15
ritten 15
robu@@ 15
ros 15
rou@@ 15
rte 15
ruhen 15
räum@@ 15
sauber@@ 15
schale 15
schickte 15
schieben 15
schlepp@@ 15
schlugen 15
schmie@@ 15
schwier@@ 15
schwierige 15
sech@@ 15
sechziger 15
senen 15
serfolg 15
sicher@@ 15
sicherer 15
simu@@ 15
spannend 15
spekul@@ 15
spor@@ 15
sportliche 15
spra@@ 15
spreise 15
stil 15
stimm@@ 15
stin@@ 15
stol@@ 15
stor 15
strategie 15
streben 15
streik 15
struktur 15
studieren 15
studierte 15
sunnit@@ 15
säm@@ 15
telefonieren 15
tes@@ 15
themen 15
ther 15
thin 15
tiker 15
tin@@ 15
tm@@ 15
tons 15
trainieren 15
tru@@ 15
tödlich 15
töten 15
tür@@ 15
umfassende 15
ungewiss 15
uni@@ 15
unzureichend 15
verbesser@@ 15
verbindlich 15
vergab 15
verhältnisse 15
verkaufte 15
verkünden 15
verlaufen 15
verlegen 15
verletzte 15
verliehen 15
verlusten 15
vermissen 15
verringern 15
verschie@@ 15
verschieben 15
verschwand 15
versorgen 15
verteidiger 15
verteilung 15
verwickelt 15
volles 15
vorsitz 15
warm 15
wasser 15
weiblichen 15
weichen 15
weitaus 15
weitem 15
weltweite 15
wendung 15
wet@@ 15
wicklung 15
wil@@ 15
wirtschaf@@ 15
woh@@ 15
ws 15
wärts@@ 15
x-@@ 15
xen 15
zerst@@ 15
zieh@@ 15
zieher 15
ziele 15
ziger 15
zusagen 15
zusammenzu@@ 15
zweieinhalb 15
zweitgrößten 15
zyn@@ 15
Ängste 15
Überleben 15
Überraschungen 15
äle 15
änge 15
ätz@@ 15
östlich 15
überlegt 15
übertrieben 15
ünder 15
ürt 15
-Serie 14
-Stiftung 14
-Turnier 14
0,3 14
1950 14
1966 14
1972 14
1976 14
22-@@ 14
240 14
2500 14
33@@ 14
35. 14
36. 14
4.000 14
500.000 14
70. 14
AT@@ 14
Aber@@ 14
Abkommen 14
Abwehrspieler 14
Achim 14
Af@@ 14
Akzeptanz 14
Alex 14
Alte 14
Alten 14
Amokl@@ 14
Amoklauf 14
Angestellten 14
Anhängern 14
Anleihe 14
Ansprüche 14
Ant@@ 14
Arbeitsplatz 14
Ari@@ 14
Armen@@ 14
Attentäter 14
Auff@@ 14
Aufgrund 14
Aufwand 14
Auskunft 14
Ausrüstung 14
Auswertung 14
Automobilindustrie 14
Außenseiter 14
Az@@ 14
Bab@@ 14
Baby@@ 14
Bad@@ 14
Bahnen 14
Basketball-@@ 14
Bast@@ 14
Bat@@ 14
Bec@@ 14
Beckham 14
Bekann@@ 14
Bekanntgabe 14
Beratungen 14
Bezirks@@ 14
Billionen 14
Blech@@ 14
Boris 14
Brasili@@ 14
Braun 14
Bub@@ 14
Bun@@ 14
Bundesgerichtshof 14
Bundesinnenminister 14
Bundesrat 14
Butter 14
Cat@@ 14
Champion 14
Chemie 14
Christine 14
Cl@@ 14
Cle@@ 14
Clo@@ 14
Co 14
Cé@@ 14
DA 14
DDR-@@ 14
Den@@ 14
Devisen@@ 14
Dick 14
Dienstleistungen 14
Digit@@ 14
Dikt@@ 14
Discounter 14
Dow 14
Edel@@ 14
Edwards 14
Einbruch 14
Einbußen 14
Empfehlungen 14
EnBW 14
Entsprechend 14
Entwarnung 14
Eric 14
Erneut 14
Erreichen 14
Existenz@@ 14
Experiment 14
FIA 14
Fabian 14
Fass 14
Favoriten 14
Feier 14
Feind 14
Ferrari-@@ 14
Fiat 14
Finanzmärkte 14
Fingerab@@ 14
Flan@@ 14
Flugzeugen 14
Flüchtlinge 14
Fortschritt 14
Fossett 14
Fraktionsvorsitzende 14
Freiburger 14
Freizeit@@ 14
Fur@@ 14
Führung@@ 14
Ga@@ 14
Gang@@ 14
Ganztags@@ 14
Gazastreifen 14
Gebiete 14
Gegenstand 14
Gegnern 14
Gerol@@ 14
Geschichts@@ 14
Geschwindigkeit 14
Geschäfts 14
Geschäftsführung 14
Geschäftsmodell 14
Geständnis 14
Gewerk@@ 14
Glob@@ 14
Global 14
Grundschule 14
Größ@@ 14
Gur@@ 14
Gutes 14
Gän@@ 14
Gött@@ 14
Gürtel 14
HSBC 14
HSV-@@ 14
Hack@@ 14
Haft@@ 14
Hansen 14
Heiner 14
Heldt 14
Hi@@ 14
Hit@@ 14
Hollywood-@@ 14
Hop@@ 14
Hotelzimmer 14
Hürde 14
ISS 14
IWF 14
Immobilienkrise 14
Inflationsrate 14
Infrastruktur@@ 14
Initiativen 14
Inneren 14
Interessenten 14
Ja@@ 14
Jagd@@ 14
Jean-@@ 14
Jeans 14
Jerusalem 14
Journalistin 14
Justizministerium 14
KS@@ 14
KSC 14
Kanal 14
Kapazitäten 14
Kapitel 14
Kath@@ 14
Katharina 14
Katja 14
Kauder 14
Kel@@ 14
Kerner 14
Kimi 14
Kindes@@ 14
Kirchner 14
Kla@@ 14
Kleinwagen 14
Kläger 14
Kohlendioxid 14
Koller 14
Komponenten 14
Konflikt@@ 14
Konsens 14
Konsequenz 14
Konservativen 14
Kriminalität 14
Kroos 14
Kuba 14
Kult@@ 14
Kursziel 14
Kämpfer 14
Landsleute 14
Lastwagen 14
Le 14
Leichtathletik-@@ 14
Letzter 14
Leucht@@ 14
Liber@@ 14
Lima 14
Link@@ 14
Lizenz@@ 14
Luxemburg 14
M. 14
MAN 14
MS@@ 14
Maf@@ 14
Mail 14
Maj@@ 14
Marktes 14
Marktführer 14
Mars 14
Methoden 14
Millimeter 14
Misshand@@ 14
Mond@@ 14
Moral 14
Mädchens 14
Mängel 14
Männer@@ 14
NRW-@@ 14
Nagel 14
Namens@@ 14
Nationalstürmer 14
Neonazis 14
Neuregelung 14
Nick 14
Nina 14
Nissan 14
Nord 14
Note 14
Oberfläche 14
Oberstaatsanwalt 14
Of 14
Offizier 14
On@@ 14
Opel 14
Opposition@@ 14
Osaka 14
Palast 14
Parlamentarier 14
Parlaments@@ 14
Pendlerpauschale 14
Pfer@@ 14
Porno@@ 14
Portfolio 14
Pos@@ 14
Pr@@ 14
Preiserhöhungen 14
Prinzipien 14
Priv@@ 14
Produ@@ 14
Projekt@@ 14
Präsidentenwahl 14
Qualifik@@ 14
R-@@ 14
Rahmenbedingungen 14
Raketen@@ 14
Rauchen 14
Red@@ 14
Reichtum 14
Reiseb@@ 14
Rem@@ 14
Rendite@@ 14
Reserve 14
Rezep@@ 14
Rhythmus 14
Ron 14
Ros@@ 14
Rou@@ 14
Rudi 14
Ruhestand 14
S-B@@ 14
SPD-Politiker 14
Sab@@ 14
Sabine 14
Saisontor 14
Sat@@ 14
Saudi-Arabien 14
Schach@@ 14
Schavan 14
Schen@@ 14
Schieflage 14
Schild 14
Schlussmann 14
Schm@@ 14
Schokolade 14
Schreibtisch 14
Schrif@@ 14
Schulter@@ 14
Schwarz 14
Schwarzen 14
Schwarzenegger 14
Schätzung 14
Schützen@@ 14
Science 14
Senatorin 14
Sexual@@ 14
Sil@@ 14
Situationen 14
Skand@@ 14
Sohnes 14
Sonntagszeitung 14
Sowjetunion 14
Spitzenkandidat 14
Spätestens 14
Staatskanzlei 14
Staatspräsident 14
Stahl 14
Status 14
Steine 14
Stellen@@ 14
Steven 14
Sto@@ 14
Struktur 14
Struktur@@ 14
Stufen 14
Sturz 14
Stä@@ 14
Stän@@ 14
Stärken 14
Sympath@@ 14
Süddeutsche 14
TUI 14
Tagebuch 14
Tagesordnung 14
Tayyip 14
Terrain 14
Theat@@ 14
Timo 14
Top 14
Torsten 14
Tottenham 14
Transfer@@ 14
Transport 14
Trends 14
Truppe 14
Turm 14
US@@ 14
Umbau 14
Umzug 14
Unis 14
Venedig 14
Verbraucherschützer 14
Verbreitung 14
Verhältnissen 14
Verletz@@ 14
Vernehmung 14
Versand@@ 14
Vertretern 14
Verurteilung 14
Verzicht 14
Volley@@ 14
Voraus@@ 14
Vordergrund 14
Vorstand@@ 14
Votum 14
Wehen 14
Wellen 14
Weltmeister@@ 14
Wesen 14
West-@@ 14
Wettkampf 14
Wich@@ 14
Wies@@ 14
Wiese 14
Wirtschaftswachstum 14
Wolken 14
Wähler@@ 14
Z-@@ 14
ZDF-@@ 14
Zeilen 14
Zeuge 14
Zucker 14
Zukäufe 14
Zweck@@ 14
Zäh@@ 14
abgelöst 14
abgesehen 14
abgest@@ 14
ablehnt 14
absoluter 14
ache 14
agern 14
ages 14
agte 14
aktion@@ 14
alarm@@ 14
allgemeine 14
amtes 14
ands 14
angedeutet 14
angehen 14
angehört 14
angenehm 14
angesch@@ 14
anhaltenden 14
annehmen 14
ansehen 14
anstatt 14
antin 14
antwortete 14
ard@@ 14
arkt 14
atten 14
aufsicht 14
ausgebaut 14
auslösen 14
australische 14
basiert 14
beauftragt 14
bed@@ 14
bedient 14
befördert 14
begn@@ 14
begründen 14
bekenn@@ 14
bekräftigt 14
bekämpfung 14
beobachter 14
berührt 14
bes 14
beschei@@ 14
beschert 14
beschw@@ 14
besonderer 14
bestreiten 14
betrei@@ 14
betreut 14
betriebe 14
betroffene 14
beträch@@ 14
bewahr@@ 14
biete 14
bisweilen 14
blick 14
blickt 14
blin@@ 14
brutal 14
bundesweiten 14
burg-@@ 14
bäume 14
börse 14
chem 14
chung 14
ck-@@ 14
ckten 14
co-@@ 14
dacht 14
dahinter 14
daneben 14
dazu@@ 14
definitiv 14
demü@@ 14
derselben 14
derungen 14
dex 14
dieselbe 14
diplom@@ 14
dit@@ 14
dreimal 14
dritter 14
drohenden 14
duell 14
dur@@ 14
eigentliche 14
eigentlichen 14
eineinhalb 14
eingegangen 14
eingehen 14
eingeschränkt 14
eingestuft 14
einnehmen 14
einz@@ 14
elektron@@ 14
elnden 14
elsky 14
empf@@ 14
ennen 14
enner 14
entführten 14
entschuldigt 14
enweise 14
erarbeitet 14
erende 14
erfolg 14
erfolgreichste 14
erfolgreichsten 14
erfährt 14
ergebnis 14
erheblichen 14
erklär@@ 14
erreichbar 14
erschüt@@ 14
erteilt 14
erwartete 14
erwähnt 14
erzählte 14
euph@@ 14
europä@@ 14
ewigen 14
exakt 14
falle 14
famili@@ 14
fasste 14
fehl@@ 14
fehler@@ 14
fers 14
fester 14
festgehalten 14
festhalten 14
filme 14
filmen 14
fische 14
fli@@ 14
flüch@@ 14
formation 14
fran@@ 14
freier 14
fres@@ 14
freute 14
front 14
fter 14
ftig 14
ftige 14
funktion 14
fuß@@ 14
fü@@ 14
garten 14
geborenen 14
geführte 14
gegenwärtigen 14
gegründete 14
gekr@@ 14
gelandet 14
gelebt 14
genau@@ 14
genutz@@ 14
genü@@ 14
gerechte 14
gereist 14
gerlich 14
gerüstet 14
geschm@@ 14
gespannt 14
gestürzt 14
gesunde 14
gewiss 14
gien 14
glück@@ 14
goldenen 14
gri@@ 14
gründlich 14
gungs@@ 14
han 14
handels@@ 14
hartnäckig 14
heiß@@ 14
hilfs@@ 14
hinterlässt 14
hoff 14
hoffnungs@@ 14
hundert@@ 14
här@@ 14
ichen 14
ickt 14
infrage 14
ingenie@@ 14
iniert 14
inken 14
insofern 14
intern 14
io@@ 14
ira 14
iss@@ 14
ita 14
itags 14
ite@@ 14
iten@@ 14
iter 14
jahr@@ 14
jetzige 14
ji 14
jugend@@ 14
kalifornischen 14
kam@@ 14
kandidaten 14
kapit@@ 14
klage 14
komplizierte 14
konserv@@ 14
kontak@@ 14
konzentri@@ 14
korrekt 14
korrigieren 14
kranke 14
kredite 14
kündigten 14
lagenen 14
lassen@@ 14
lassung 14
last@@ 14
laufe 14
law 14
leichten 14
leuchtet 14
liber@@ 14
licherweise 14
lichung 14
lier@@ 14
lierte 14
ll 14
loh 14
lohn@@ 14
ls@@ 14
lukr@@ 14
lust@@ 14
malige 14
mangel 14
massen@@ 14
mischt 14
mittleren 14
motiv@@ 14
motiviert 14
muslimische 14
männer 14
mäßigen 14
nachträglich 14
neh@@ 14
nic 14
nik 14
not 14
notwendige 14
och 14
ola 14
oll 14
oms 14
pakistanische 14
papier 14
pert 14
pflan@@ 14
pi@@ 14
port@@ 14
press@@ 14
programme 14
projekte 14
protestieren 14
prü@@ 14
pt 14
pur@@ 14
pässe 14
q@@ 14
qualifizierten 14
qualität 14
radikalen 14
ram@@ 14
redu@@ 14
refle@@ 14
regiert 14
reikt 14
reiß@@ 14
rem 14
rib@@ 14
richtete 14
riert 14
rollt 14
ry-@@ 14
rückgang 14
s- 14
scharfe 14
schiff 14
schlan@@ 14
schweigt 14
schwächer 14
schäden 14
se-@@ 14
seel@@ 14
sektor 14
sen-@@ 14
set@@ 14
sho@@ 14
sib@@ 14
sicherstellen 14
sieren 14
sodass 14
soviel 14
speziell 14
speziellen 14
spiegel 14
spre@@ 14
sprech@@ 14
spürt 14
staatlich 14
stap@@ 14
stationiert 14
stattdessen 14
steiger@@ 14
stellern 14
stif@@ 14
stil@@ 14
stimmte 14
streng 14
stürzt 14
stütz@@ 14
sudan@@ 14
szen@@ 14
t- 14
tan 14
taucht 14
technologie 14
tei@@ 14
terer 14
teuerste 14
tigsten 14
tion@@ 14
tliches 14
tochter 14
toten 14
tran@@ 14
treff@@ 14
trennt 14
triebenen 14
tron@@ 14
tsch 14
tten@@ 14
ttes 14
tti 14
tzu@@ 14
ulieren 14
um-@@ 14
unab@@ 14
unabhängige 14
unan@@ 14
und-@@ 14
undenen 14
ungs- 14
ungspolitik 14
ungsprogramm 14
ungsprozess 14
urteilte 14
usses 14
verbindungen 14
verdanken 14
verdien@@ 14
vergleich 14
verglichen 14
verkauf@@ 14
verlief 14
vermitt@@ 14
verschm@@ 14
verschw@@ 14
verständigen 14
verständnis 14
verwaltet 14
verwaltung 14
verzweifel@@ 14
veränderten 14
vin 14
vorbereit@@ 14
vorletzten 14
vorliegenden 14
wachsender 14
waffe 14
wag@@ 14
wagt 14
wahl@@ 14
widmet 14
will@@ 14
wächter 14
währ@@ 14
zahlte 14
zeichnung 14
zell@@ 14
zers 14
zie@@ 14
zimmer@@ 14
zir@@ 14
zivilen 14
zumachen 14
zurückgegangen 14
zurückhaltend 14
zweifeln 14
zweites 14
zügig 14
Ähnliches 14
Öffnung 14
Ökonom 14
Überprüfung 14
à 14
ältesten 14
ämp@@ 14
äter 14
äußert 14
öffentlicher 14
öffnet 14
öhnt 14
öl 14
überdies 14
überprüft 14
übersetzt 14
ür 14
ütz@@ 14
€ 14
-Sieger 13
0,7 13
0,8 13
1945 13
1985 13
2,1 13
2,3 13
2,7 13
23-@@ 13
3.000 13
34. 13
4,3 13
40.000 13
59@@ 13
67. 13
77@@ 13
99@@ 13
AN@@ 13
Abschluss@@ 13
Absturz 13
Achtz@@ 13
Adidas 13
Adler 13
Aff@@ 13
Akademie 13
Albrecht 13
Allgemein@@ 13
Allofs 13
Alois 13
Amat@@ 13
Anfangs@@ 13
Angeboten 13
Anja 13
Annäherung 13
Anzeige 13
Anzeigen 13
App@@ 13
Architektur 13
Arn@@ 13
Attent@@ 13
Aufbau@@ 13
Aufbruch 13
Aufwertung 13
Ausbruch 13
Ausfall 13
Ausländer@@ 13
BS 13
Bakterien 13
Basic 13
Basra 13
Bay@@ 13
Bayern@@ 13
Beides 13
Bekämpfung 13
Benjamin 13
Beratung 13
Berichterstattung 13
Berlin@@ 13
Beschwerden 13
Beteiligungen 13
Bewegungs@@ 13
Bewährung 13
Bibliothe@@ 13
Bieter@@ 13
Bindung 13
Blan@@ 13
Blo@@ 13
Bour@@ 13
Box 13
Britin 13
Brust@@ 13
Bundesfinanzminister 13
Bundesligist 13
Bundestags@@ 13
Bundesumweltminister 13
CDs 13
CH@@ 13
CO2 13
Cargo 13
Castro 13
Commerzbank-@@ 13
Cou@@ 13
Cup@@ 13
DB 13
DEL 13
Dahinter 13
Defensive 13
Deleg@@ 13
Deren 13
Desaster 13
Dichter 13
Dim@@ 13
Diplomat 13
Dire@@ 13
Domin@@ 13
Dschiha@@ 13
Duisburger 13
Duo 13
Dün@@ 13
Ei@@ 13
Eigentum 13
Eins 13
Einschränkungen 13
Eng@@ 13
Ep@@ 13
Erfolg@@ 13
Erfüllung 13
Erhalt 13
Esp@@ 13
Essener 13
Etat 13
Europameister@@ 13
Evelyn 13
Fach 13
Fahrer@@ 13
Fan 13
Felipe 13
Fernverkehr 13
Feu@@ 13
Finanzinvestor 13
Finanzmarkt 13
Fisch 13
Fitness@@ 13
Fluggesellschaften 13
Fotograf 13
Fotografien 13
Freien 13
Freitagabend 13
Funktionen 13
Furcht 13
Führungskräfte 13
Gazprom 13
Gegenüber 13
Geisel 13
Gemeinde@@ 13
Genau@@ 13
Genossen 13
Gericht@@ 13
Geräten 13
Gig@@ 13
Giganten 13
Gil@@ 13
Giuliani 13
Grand 13
Grundgesetz 13
Grundlagen 13
Grundsatz 13
Gul@@ 13
Gun@@ 13
Hacker 13
Haftbefehl 13
Hals 13
Handelsblatt 13
Hauptgeschäftsführer 13
Hef@@ 13
Heidelberg 13
Heiko 13
Heiz@@ 13
Hektar 13
Hem@@ 13
Herrschaft 13
Hessischen 13
Hing@@ 13
Hochzeit 13
Hof 13
Howard 13
Hurri@@ 13
Höhen@@ 13
Höhenflug 13
IBM 13
IN@@ 13
Ide@@ 13
Il@@ 13
Ill@@ 13
Industrie- 13
Insel@@ 13
Investitions@@ 13
Investment 13
Jen@@ 13
Joe 13
Justizminister 13
Kaida 13
Kak@@ 13
Kanadier 13
Karrier@@ 13
Kenia 13
Kieler 13
Kindheit 13
Koh@@ 13
Kommentare 13
Kopfball 13
Krankenhäuser 13
Krankheiten 13
Krit@@ 13
Krone 13
Köpfen 13
Künstler@@ 13
Künstlern 13
Landtag@@ 13
Lav@@ 13
Leichen 13
Leid 13
Leo 13
Lesen 13
Liberalen 13
Lieber 13
Liebling@@ 13
Life 13
Lig@@ 13
Links 13
Lit@@ 13
Litern 13
Lobby 13
Logik 13
Luftw@@ 13
Lächeln 13
MP3-@@ 13
Magath 13
Mannschafts@@ 13
Marc 13
Marktanteile 13
Marktberichte 13
Matth@@ 13
Maus 13
Mavericks 13
Medaille 13
Mein@@ 13
Meinungsfreiheit 13
Ment@@ 13
Mertesacker 13
Messe@@ 13
Militä@@ 13
Millionenhöhe 13
Minister@@ 13
Ministeriums 13
Mission@@ 13
Molek@@ 13
Motoren 13
Museums@@ 13
Muslimen 13
Muster 13
My 13
Mä@@ 13
Mönchengladbach 13
Müller-@@ 13
Münte@@ 13
NRW 13
NS-@@ 13
Nachteil 13
Nahen 13
Nationalen 13
Nationaltrainer 13
Navigations@@ 13
Neapel 13
Netzbetreiber 13
Nicht@@ 13
Nico 13
Niedrig@@ 13
Nigeria 13
Normalerweise 13
Norwe@@ 13
Nutzen 13
Nutzern 13
Obermann 13
Ole 13
Omar 13
Organisatoren 13
Orten 13
Out@@ 13
Pakist@@ 13
Papier@@ 13
Parkplatz 13
Pet@@ 13
Peter@@ 13
Pion@@ 13
Planung 13
Plas@@ 13
Podium 13
Polizist 13
Pop 13
Potsdam 13
Power 13
Preises 13
Preisträger 13
Preu@@ 13
Prince 13
Prinzessin 13
Privatleben 13
Programms 13
Prote@@ 13
Provinzen 13
Prozent-@@ 13
Prozesses 13
Präsenz 13
Punk@@ 13
Put@@ 13
Quali@@ 13
Ralph 13
Rauch 13
Rechts 13
Rechtsanwäl@@ 13
Redner 13
Regierungschefin 13
Regierungssprecher 13
Regimes 13
René 13
Ressourcen 13
Ribéry 13
Ring 13
Ryan 13
Römer 13
Rüstungs@@ 13
SA@@ 13
SE@@ 13
ST@@ 13
Saarland 13
Sat.1 13
Scheidung 13
Scher@@ 13
Schie@@ 13
Schiiten 13
Schlei@@ 13
Schnee@@ 13
Schnell 13
Schwal@@ 13
Schwar@@ 13
Schwarz-@@ 13
Schwein@@ 13
Schöne 13
Schüler@@ 13
Senioren 13
Sep@@ 13
Sharif 13
Sig@@ 13
Simpson 13
Skep@@ 13
Software-@@ 13
Song 13
Sparkassen 13
Spezialisten 13
Spie@@ 13
Spieler@@ 13
Springer 13
Sprit@@ 13
Sprung@@ 13
Staats- 13
Stephen 13
Stiftungs@@ 13
Stock 13
Strecken@@ 13
Streifen 13
Stro@@ 13
Stufe 13
Stur@@ 13
Sudan 13
Summen 13
Super-@@ 13
Sven 13
TV-S@@ 13
Tabak@@ 13
Tabellenplatz 13
Tagesspiegel 13
Tank@@ 13
Technik@@ 13
Technologien 13
Telef@@ 13
Telefonat 13
Temperaturen 13
Ticket 13
Touren 13
Tourismus@@ 13
Tradition@@ 13
Treffern 13
Trichet 13
Trier 13
Tropen@@ 13
Typen 13
Ulla 13
Umstand 13
Ungleich@@ 13
Unklar 13
Unterhaltungs@@ 13
VZ 13
Verdäch@@ 13
Verhaltens@@ 13
Verletzte 13
Versicher@@ 13
Versorger 13
Versorgungs@@ 13
Vierter 13
Vorder@@ 13
Vorschriften 13
Warner 13
Warschau 13
Wat@@ 13
Wenig 13
Wertpapiere 13
Westerwelle 13
Wet@@ 13
Windows 13
Wy@@ 13
Währungen 13
Wäre 13
Wärme 13
Zehntausende 13
Zentrums 13
Zerschlagung 13
Zeugen@@ 13
Zinssenkungen 13
Zoo 13
Zumal 13
Zun@@ 13
Zurück@@ 13
Zuschlag 13
Zusätzlich 13
Zw@@ 13
abil@@ 13
ablen 13
ac 13
agel 13
agentur 13
alige 13
amb@@ 13
ammer 13
amts@@ 13
anc@@ 13
angeblichen 13
angesehen 13
anspruchs@@ 13
anter 13
arme 13
aro@@ 13
artiger 13
as-@@ 13
ash@@ 13
asse@@ 13
atische 13
atmen 13
aufgeklärt 13
aufzubauen 13
aufzugeben 13
aufzunehmen 13
auseinandersetzen 13
ausgestellt 13
ausgetragen 13
ausschließen 13
ausweiten 13
auszuschließen 13
auto 13
auto@@ 13
auton@@ 13
ball@@ 13
bank-@@ 13
beauftragte 13
beauftragten 13
bedenken 13
bedroh@@ 13
bedrohten 13
beeindruckt 13
befasst 13
befehl 13
begannen 13
begreifen 13
behält 13
bein 13
belei@@ 13
beln 13
bemerkbar 13
benden 13
bereiche 13
bescheiden 13
beschrieben 13
beschrän@@ 13
besetzte 13
besiegte 13
betreuen 13
bewies 13
bezüglich 13
bildern 13
billigen 13
blaue 13
blu@@ 13
blätter 13
bo 13
bor@@ 13
botschaft 13
brenn@@ 13
bul@@ 13
bun@@ 13
bän@@ 13
büro 13
büros 13
chenen 13
cho@@ 13
cool 13
cre@@ 13
dasselbe 13
dau@@ 13
dauer@@ 13
davon@@ 13
decke 13
dent@@ 13
dien 13
discher 13
dium 13
diversen 13
don@@ 13
dumm 13
durchgeführt 13
durchs 13
echef 13
ef 13
eigent@@ 13
einerseits 13
einfach@@ 13
einsteigen 13
elektronische 13
emis@@ 13
engl@@ 13
enta 13
entworfen 13
erarbeiten 13
erb@@ 13
ereien 13
erfolgreich@@ 13
ergaben 13
erns 13
erre@@ 13
erschließen 13
erschüttert 13
erstrei@@ 13
erweitert 13
erzielten 13
ession 13
eta 13
eth@@ 13
etzen 13
etzt 13
ewig 13
fahrten 13
familien@@ 13
ferenz 13
ferner 13
fert 13
fertigung 13
fes@@ 13
festes 13
fir@@ 13
fizierung 13
fleisch@@ 13
flogen 13
flächen 13
forder@@ 13
forderung 13
freiem 13
fris@@ 13
frühzeitig 13
fundament@@ 13
fungen 13
förm@@ 13
gabe@@ 13
gebür@@ 13
gefasste 13
gefährden 13
gefüh@@ 13
gefüllt 13
gegner 13
gehend 13
gemeinde 13
genommenen 13
gereicht 13
geren 13
geschwindigkeiten 13
gespeichert 13
gestellten 13
gestän@@ 13
gewaltigen 13
gewechselt 13
gewinn@@ 13
gewissen 13
gie 13
gleicht 13
gler 13
gremium 13
großzü@@ 13
gründete 13
handels 13
harmon@@ 13
harter 13
haut 13
heuer 13
hi 13
holz 13
homosexu@@ 13
hy@@ 13
höre 13
hörigkeit 13
iche 13
icht@@ 13
icke 13
ien@@ 13
igsten 13
igt 13
ill-@@ 13
immer@@ 13
initiative 13
inne 13
innere 13
intensiver 13
interessieren 13
isse 13
itel 13
ity-@@ 13
ium 13
jan 13
jährig 13
jüdischen 13
kalk@@ 13
kampf@@ 13
kas@@ 13
keines 13
kleidung 13
klim@@ 13
klär@@ 13
knappen 13
kommentiert 13
kommunistischen 13
komple@@ 13
kompon@@ 13
konsum 13
kopf 13
kost@@ 13
kreu@@ 13
kunden@@ 13
kunft 13
kunst@@ 13
kä@@ 13
küm@@ 13
kündigen 13
lak@@ 13
lands 13
landung 13
langfristige 13
lautete 13
leben@@ 13
leiden@@ 13
leise 13
les 13
lick 13
liefer@@ 13
lierung 13
ligkeit 13
lit@@ 13
lustig 13
manches 13
medizin 13
medizinischen 13
mehrheitlich 13
meistern 13
mert 13
metropole 13
mie@@ 13
milde 13
mitteilen 13
mobil@@ 13
moralische 13
mä@@ 13
mäßigkeit 13
nachdenken 13
natur@@ 13
nee 13
nes 13
nicht-@@ 13
niedrige 13
niedrigen 13
nomin@@ 13
normalerweise 13
notor@@ 13
nutzten 13
nächster 13
nördlichen 13
obje@@ 13
ogen 13
olog@@ 13
ologin 13
ommen@@ 13
ons@@ 13
otten 13
ova 13
ox@@ 13
pa 13
perte 13
plau@@ 13
polizei@@ 13
popul@@ 13
pots 13
ppte 13
prime-@@ 13
proben 13
produkt 13
profi 13
prominenten 13
punkt@@ 13
qualifizierte 13
r. 13
rechnung 13
red@@ 13
regel@@ 13
reicherung 13
reif 13
reift 13
rel@@ 13
rest@@ 13
rettete 13
riebenen 13
rieren 13
ro 13
rutschte 13
satte 13
sauber 13
schaftlich 13
scharfen 13
schle@@ 13
schwedische 13
schwimmen 13
schwä@@ 13
schwäche 13
schär@@ 13
schüler 13
selbstbewusst 13
serien 13
serklärung 13
serviert 13
setzbar 13
sexperte 13
sexperten 13
sheim 13
sident 13
siegt 13
sien 13
sinn 13
sions@@ 13
skis 13
smann 13
sonder@@ 13
sonn@@ 13
sorti@@ 13
sozi@@ 13
spekulieren 13
sperr@@ 13
spezielle 13
spitzen 13
splan@@ 13
sportler 13
stab 13
stad@@ 13
standards 13
starkes 13
steil@@ 13
steilen 13
steine 13
stoß 13
strafen 13
strahlen 13
strahlt 13
streit@@ 13
streng@@ 13
strukturen 13
sturm 13
städtischen 13
stö@@ 13
stündigen 13
summe 13
sur 13
sängerin 13
tar@@ 13
tel-@@ 13
teur@@ 13
tiefen 13
trags 13
train@@ 13
trainer 13
tzen 13
umst@@ 13
unbekannten 13
ungenen 13
ungesch@@ 13
unlängst 13
untersuchen 13
unum@@ 13
urer 13
ures 13
vater 13
verab@@ 13
veran@@ 13
verdoppelt 13
verhand@@ 13
verknüpft 13
verletzen 13
verlängern 13
verläuft 13
vermeintlich 13
vermö@@ 13
verrückt 13
verschleppt 13
versor@@ 13
versorgt 13
verun@@ 13
verwei@@ 13
verzeichnet 13
vorläufigen 13
vorsieht 13
vorsitzender 13
vorteil 13
vorwiegend 13
wandel 13
wander@@ 13
warfen 13
weh@@ 13
weis 13
weiß@@ 13
wel@@ 13
wett@@ 13
wichtiges 13
wiegt 13
willen 13
wirtschaftlicher 13
woche 13
woll@@ 13
wuch@@ 13
wunderbar 13
wünsche 13
you 13
zahlung 13
zern 13
zesse 13
zierten 13
zigern 13
zit@@ 13
zug@@ 13
zugesagt 13
zung 13
zustande 13
zwanz@@ 13
Ägypten 13
Überfall 13
Übergabe 13
Übersetzung 13
Übrigen 13
ßen@@ 13
án 13
ächter 13
älen 13
änderung 13
äumt 13
äußerten 13
öhn@@ 13
öß@@ 13
übertrag@@ 13
überzeu@@ 13
üren 13
-Jähriger 12
-Show 12
-Sie@@ 12
0,6 12
1,9 12
103 12
11@@ 12
12.000 12
15-@@ 12
1957 12
3,2 12
33-Jährige 12
3500 12
45. 12
450 12
5-@@ 12
56. 12
6.000 12
60.000 12
8.@@ 12
81 12
86 12
87 12
89 12
9000 12
AB@@ 12
Absol@@ 12
Abstieg 12
Abstimm@@ 12
Abu 12
Adam 12
Airbus@@ 12
Akten 12
Ali@@ 12
Almunia 12
Alp@@ 12
Amp@@ 12
Anfragen 12
Angriffen 12
Anten@@ 12
Appell 12
Arabischen 12
Arbeitsplätzen 12
Art@@ 12
Arti@@ 12
Aspekte 12
Ath@@ 12
Atomprogramm 12
Auffäl@@ 12
Aufgebot 12
Aufruf 12
Aufsichtsrats@@ 12
Augenzeugen 12
Ausblick 12
Ausschluss 12
Autorin 12
Autorität 12
BaFin 12
Balance 12
Bam@@ 12
Bangladesch 12
Basket@@ 12
Bauch@@ 12
Bayerischen 12
Beamter 12
Beckenbauer 12
Beckmann 12
Becks 12
Befragung 12
Begegnungen 12
Begleiter 12
Beh@@ 12
Beis@@ 12
Beit@@ 12
Beobachtung 12
Besser 12
Besser@@ 12
Bestätigung 12
Besuchern 12
Betriebssystem 12
Bewertungen 12
Bilanzen 12
Bilder@@ 12
Biog@@ 12
Björn 12
Bla@@ 12
Blicke 12
Blu@@ 12
Blumen@@ 12
Blätter 12
Bohlen 12
Bord@@ 12
Braut 12
Bron@@ 12
Brüder 12
Bundesinnen@@ 12
Bundestages 12
Bundestagsabgeordnete 12
Bundesverkehrs@@ 12
Bunte 12
Bush-@@ 12
C. 12
CDU-Generalsekretär 12
Capital 12
Chi@@ 12
China-@@ 12
Chip@@ 12
Club@@ 12
Computern 12
DFB@@ 12
Dessen 12
Diktator 12
Display 12
Dominik 12
Don 12
Donnerstagabend 12
Dor@@ 12
Dossier 12
Droh@@ 12
Dun@@ 12
Dutzende 12
Dämpfer 12
Dü@@ 12
Echo 12
Eigentor 12
Einheits@@ 12
Einzelne 12
Einzige 12
Eisbären 12
Elektronik@@ 12
Enders 12
Endrunde 12
Ensemble 12
Enth@@ 12
Entwickler 12
Ergebnis@@ 12
Erhebung 12
Erich 12
Erkrankung 12
Erlaubnis 12
Ermitt@@ 12
Ern@@ 12
Erwerbstä@@ 12
Europa-@@ 12
Expansion 12
Express 12
FA 12
FAZ 12
FR 12
Fahn@@ 12
Faktoren 12
Famili@@ 12
Fas@@ 12
Federal 12
Fein@@ 12
Fes@@ 12
Festival 12
Fische 12
Fla@@ 12
Florida 12
Fluglinie 12
Flut@@ 12
Flächen 12
Fondsmanager 12
Fraktionen 12
Freist@@ 12
Fremde 12
Fres@@ 12
Fuentes 12
Fähigkeit 12
Galerie 12
Ganzen 12
Garten@@ 12
Gau@@ 12
Gebrauch 12
Geburten@@ 12
Gedichte 12
Gef@@ 12
Gefahr@@ 12
Gehei@@ 12
Geheimdienst 12
Gehirn@@ 12
Geist@@ 12
Gekas 12
Generäle 12
Georgien 12
Gepäck 12
German@@ 12
Gescheh@@ 12
Geschmack 12
Geschäftsmann 12
Glaubens@@ 12
Gleiche 12
Graf 12
Grundstück 12
Grundsätzlich 12
Gül@@ 12
H. 12
Haar@@ 12
Handlungs@@ 12
Hauptversammlung 12
Heck@@ 12
Heidelberger 12
Heil@@ 12
Heiligen@@ 12
Heizöl 12
Held 12
Herrmann 12
Hetz@@ 12
Hilfen 12
Himmel@@ 12
Honor@@ 12
Hoo@@ 12
Horn 12
Hubertus 12
Häusern 12
Hürden 12
IA@@ 12
II. 12
Import@@ 12
Indes 12
Indonesien 12
Ingenie@@ 12
Insider 12
Insider@@ 12
Investments 12
Irans 12
Israelis 12
It 12
Jose 12
Joseph 12
Jun@@ 12
Jurist 12
Kambodscha 12
Karin 12
Karten@@ 12
Kette 12
Kibaki 12
Kiew 12
Kinos 12
Koblenz 12
Koch@@ 12
Kok@@ 12
Kolumne 12
Kommun@@ 12
Kompromiss@@ 12
Kontin@@ 12
Koordin@@ 12
Korruptions@@ 12
Koso@@ 12
Krippen@@ 12
Kulisse 12
Kör@@ 12
Kühl@@ 12
Kün@@ 12
Kürzung 12
Lad@@ 12
Landesbanken 12
Landsmann 12
Landtagsfraktion 12
Lange@@ 12
Langstrecken@@ 12
Latte 12
Laufen 12
Lech 12
Letztlich 12
Leverkusener 12
Lim@@ 12
Lizenz 12
Log@@ 12
Logistik 12
Logistik@@ 12
Lor@@ 12
Lucas 12
Luftfahrt@@ 12
Lufthansa-@@ 12
Lupe 12
Lust@@ 12
Lösch@@ 12
Lücke 12
Mac@@ 12
Machthaber 12
Madonna 12
Magn@@ 12
Mahl@@ 12
Male 12
Match@@ 12
McDonald 12
Medaillen 12
Medikament@@ 12
Medikamenten 12
Mehrzahl 12
Meldungen 12
Mensch@@ 12
Messer@@ 12
Meteorologen 12
Mexik@@ 12
Mikrofon 12
Milliardär 12
Mini@@ 12
Missbrauchs 12
Mitarbeit@@ 12
Mittagessen 12
Motivation 12
Museen 12
Museum@@ 12
Muskeln 12
Muslim 12
Must@@ 12
Muster@@ 12
ND 12
Nachbarschaft 12
Nationalsozialismus 12
Naz@@ 12
Nec@@ 12
Nerven@@ 12
Netto@@ 12
Neuerungen 12
Neuverschuldung 12
Nichtrau@@ 12
Nik@@ 12
Nikolai 12
Notstand 12
Nov@@ 12
O2 12
OR@@ 12
Obdach@@ 12
Oberste 12
Objekte 12
Ohr 12
Oktober@@ 12
Olaf 12
Open@@ 12
Opfern 12
Organisations@@ 12
Ori@@ 12
Osama 12
PS@@ 12
Paare 12
Paradies 12
Parkett 12
Partnern 12
Paulo 12
Pazifik 12
Pend@@ 12
People 12
Performance 12
Perspektiven 12
Pfosten 12
Pir@@ 12
Pist@@ 12
Poly@@ 12
Pop-@@ 12
Popularität 12
Potential 12
Power@@ 12
Prakti@@ 12
Private-Equity-@@ 12
Prix 12
Produktionen 12
Professoren 12
Pur@@ 12
Quadratmetern 12
Queen 12
Radprofi 12
Rand@@ 12
Rathaus 12
Rating 12
Raucher 12
Raumfahrt@@ 12
Rawalpindi 12
Recherchen 12
Rechten 12
Regier@@ 12
Reichs@@ 12
Reichweite 12
Rekorde 12
Remis 12
Rensing 12
Revision 12
Richtig 12
Rolfes 12
Rundschau 12
Ryanair 12
Räume 12
SPD@@ 12
SW@@ 12
Sad@@ 12
Salz@@ 12
Samm@@ 12
Scha@@ 12
Schal@@ 12
Schir@@ 12
Schlacht 12
Schmerz 12
Schmier@@ 12
Schnapp@@ 12
Schri@@ 12
Schuh@@ 12
Schwimmen 12
Schö@@ 12
Seg@@ 12
Sekunde 12
Sem@@ 12
Separ@@ 12
Sergio 12
Sich 12
Sicher@@ 12
Sid@@ 12
Sonde 12
Sonnabend 12
Sou@@ 12
Sozialismus 12
Span@@ 12
Sparkasse 12
Sparten 12
Speicher@@ 12
Sperr@@ 12
Spo@@ 12
Staatsfonds 12
Staatssekretär 12
Stadien 12
Stan@@ 12
Stationen 12
Steg 12
Steigerung 12
Stich 12
Stille 12
Stoff 12
Stol@@ 12
Strafraum 12
Strand 12
Strategien 12
Stru@@ 12
Studios 12
Supermarkt 12
Sz@@ 12
TH@@ 12
Tabellen-@@ 12
Tal 12
Tarifstreit 12
Tas@@ 12
Tatsachen 12
Taus@@ 12
Tausend 12
Teenager 12
Teufel 12
Texten 12
Ther@@ 12
Tibet 12
Tibeter 12
Tisch@@ 12
Tochter@@ 12
Tochtergesellschaft 12
Tode 12
Tonne 12
Torschütze 12
Toten@@ 12
Traditions@@ 12
Trainers 12
Trainingslager 12
Transaktion 12
Treibstoff@@ 12
Trend@@ 12
Tribüne 12
Träume 12
Ty@@ 12
Tä@@ 12
Tötung 12
U-Bahn 12
US-Außenministerin 12
US-Bundesstaat 12
US-Soldaten 12
Uli 12
Umstellung 12
Umstände 12
Umweltz@@ 12
Under@@ 12
Untergang 12
Urlaubs@@ 12
Vater@@ 12
Vatikan 12
Verbindungs@@ 12
Verbände 12
Verfahrens 12
Verhaftung 12
Verhandlungstisch 12
Verkäufer 12
Verl@@ 12
Verpack@@ 12
Verpflichtungen 12
Verschwinden 12
Vertrag@@ 12
Vertretung 12
Verunsicherung 12
Vize@@ 12
Vodafone 12
Vok@@ 12
Volksrepublik 12
Vormonat 12
Vorratsdatenspeicherung 12
Vorrunden@@ 12
Vorschlägen 12
Vorstandsvorsitzender 12
Vorstände 12
Vorur@@ 12
Vorurteile 12
Vulkan@@ 12
Wachstumsraten 12
Waren@@ 12
Weile 12
Weis@@ 12
Weiteres 12
Weltre@@ 12
Weltweit 12
Weltwirtschaft 12
Wetz@@ 12
Wid@@ 12
Willy 12
Wirbel@@ 12
Wirtschaftsforschung 12
Wü@@ 12
Zehntel 12
Zell@@ 12
Zelt 12
Zigaretten@@ 12
Zimmer@@ 12
Zorn 12
Zulieferer 12
Zurück 12
Zweitens 12
Zwer@@ 12
a- 12
abe@@ 12
abgel@@ 12
abger@@ 12
abgestimmt 12
abo@@ 12
absetzen 12
abstimmen 12
absur@@ 12
abwehr 12
ads 12
afrikanische 12
ahr 12
alarmiert 12
alias 12
allemal 12
alternative 12
ammlung 12
ampf 12
anbietet 12
anda 12
anderswo 12
angemeldet 12
angeschlagene 12
angriff 12
anim@@ 12
anspruch 12
anta@@ 12
anten@@ 12
anträge 12
antwortet 12
arin 12
arische 12
asche 12
aschen 12
ath 12
atiker 12
ativ@@ 12
atte 12
aufgetreten 12
augen@@ 12
ausbauen 12
ausführ@@ 12
ausgebildet 12
ausgeführt 12
ausgesch@@ 12
ausgeschöpft 12
ausgest@@ 12
ausreichen 12
aver@@ 12
baller 12
beamte 12
beantragen 12
beantworten 12
beendete 12
befragten 12
befördern 12
begegnet 12
begleit@@ 12
behielt 12
beitrag 12
beiträge 12
bekanntgegeben 12
belegte 12
belieb@@ 12
berei@@ 12
bereichen 12
berto 12
beruhigen 12
berühmte 12
beschließen 12
beschreiben 12
beschränken 12
besitzer 12
besseres 12
besuch 12
beteiligung 12
betonen 12
bewusstsein 12
bezieht 12
bezwang 12
bezweifelt 12
billi@@ 12
bizar@@ 12
blick@@ 12
bomben 12
boot 12
brecher@@ 12
bten 12
bus@@ 12
ce-@@ 12
chancen 12
charman@@ 12
ci 12
ckte 12
dachten 12
damm 12
deb@@ 12
deckung 12
deutsches 12
diensten 12
diff@@ 12
differenz@@ 12
digend 12
digitale 12
diskussion 12
donn@@ 12
dor 12
dum@@ 12
dunkle 12
durchschnittlichen 12
dy 12
eben@@ 12
ehemaliger 12
einführung 12
eingelegt 12
einzelner 12
einzuführen 12
eme 12
emen 12
emotionale 12
empfunden 12
endung 12
entfernen 12
entgeg@@ 12
entgehen 12
enth@@ 12
entiert 12
entreffen 12
entscheidungen 12
enttäuschenden 12
entwickelten 12
er-Jahre 12
erfolg@@ 12
erfolgt 12
erfreulich 12
ergy 12
erh@@ 12
erhebt 12
erie 12
erlebte 12
ermann 12
erober@@ 12
erungen 12
esische 12
esses 12
este 12
eure 12
fahrzeuge 12
fairen 12
farb@@ 12
fasziniert 12
feier 12
fertigen 12
fertigt 12
field 12
fikation 12
fin 12
fischen 12
fizierten 12
flicht 12
flie@@ 12
fläch@@ 12
flügen 12
fortan 12
freigelassen 12
freigesprochen 12
fremde 12
freundliche 12
ftigen 12
fußball 12
fällige 12
fär@@ 12
führender 12
gebremst 12
geforderte 12
gefährlicher 12
geheime 12
gehenden 12
gelangt 12
gelegten 12
gelenk 12
gemein 12
generation 12
geratenen 12
gere 12
gering@@ 12
gerten 12
gerückt 12
geschn@@ 12
geschäfts 12
geschüt@@ 12
gestaltet 12
gestritten 12
getrunken 12
gewissermaßen 12
gewöhnlich 12
giger 12
ginge 12
glo@@ 12
gnis 12
grat@@ 12
grau@@ 12
grün 12
haar@@ 12
ham 12
handelten 12
handle 12
hauer 12
heiligen 12
hekt@@ 12
herstellers 12
herzustellen 12
heutzutage 12
histor@@ 12
hung@@ 12
härter 12
höhungen 12
iPod 12
iegel 12
ielle 12
ierend 12
if 12
ignoriert 12
igste 12
illegale 12
illustri@@ 12
industri@@ 12
installiert 12
institute 12
ire 12
ises 12
islam@@ 12
ith 12
itikerin 12
itären 12
iv@@ 12
jagen 12
jahre 12
jeher 12
jekt 12
jen 12
jew 12
jugendlichen 12
jährliche 12
kal 12
kanadische 12
kandidieren 12
kannst 12
kaputt 12
kasten 12
kehr 12
kenntnisse 12
kin 12
kit@@ 12
klarer 12
klares 12
klop@@ 12
koh@@ 12
kommens 12
kompletten 12
konflik@@ 12
konkre@@ 12
konstru@@ 12
kontin@@ 12
konz@@ 12
kow@@ 12
krieg 12
kriminalität 12
kräftige 12
ksam@@ 12
ktur 12
kun@@ 12
köpfigen 12
körper@@ 12
kühlen 12
lam@@ 12
landes 12
last 12
legungen 12
leuchten 12
lieferungen 12
litten 12
lo 12
loch 12
lohn 12
lohnen 12
magazin 12
maligen 12
malt 12
manip@@ 12
marsch 12
maßnahme 12
meistens 12
mend 12
mende 12
menschlich 12
merkt 12
mittelfristig 12
mittelstän@@ 12
mm 12
mme 12
mobile 12
multi@@ 12
mut 12
nachgewiesen 12
nachhaltige 12
nacht 12
nes@@ 12
nette 12
neuem 12
ney 12
nik@@ 12
nunmehr 12
nö@@ 12
nötige 12
nüchtern 12
obendrein 12
ohl@@ 12
oli 12
olitischen 12
ometer 12
onien 12
opo@@ 12
or-@@ 12
ordentliche 12
organ@@ 12
organis@@ 12
orten 12
osse 12
our@@ 12
p-@@ 12
pas@@ 12
plak@@ 12
porträ@@ 12
positionen 12
pot 12
pp 12
ppi 12
pran@@ 12
prim@@ 12
professor 12
prognostiz@@ 12
prompt 12
q 12
qualifizieren 12
quelle 12
raf 12
rangiert 12
rechne 12
rechtfertigen 12
reckt 12
refer@@ 12
reform@@ 12
regu@@ 12
reihe 12
religi@@ 12
rhein@@ 12
rhetor@@ 12
richtungen 12
riecht 12
rien 12
riskieren 12
rol 12
rop@@ 12
russ@@ 12
rutschen 12
sammelte 12
sanft 12
sauer 12
schaff@@ 12
schefs 12
scheibe 12
schenken 12
scheu@@ 12
schichten 12
schieden 12
schlech@@ 12
schlechtes 12
schluss@@ 12
schmalen 12
schnei@@ 12
schnellsten 12
schnit@@ 12
schnitten 12
schr@@ 12
schrieben 12
schuld 12
schungen 12
schuss@@ 12
schutzes 12
schätze 12
schönste 12
schüsse 12
selb@@ 12
seltsam 12
seltsame 12
setz@@ 12
setzungen 12
shel@@ 12
shows 12
sichtigen 12
sieg@@ 12
sig@@ 12
skandal 12
skrise 12
software 12
sogleich 12
sorge 12
spanne 12
spektakulären 12
spiels 12
splatz 12
sprit@@ 12
staatlicher 12
stammten 12
stens 12
stige 12
stim@@ 12
stimme 12
straining 12
straßen 12
streifen 12
stritten 12
strom 12
stunden 12
städte 12
ständiger 12
stürmen 12
system@@ 12
sächsische 12
tages 12
tauchen 12
teams 12
tech 12
teilungen 12
telefon@@ 12
telten 12
tend 12
terlichen 12
test@@ 12
then 12
these 12
tho@@ 12
tigten 12
time 12
tn@@ 12
tnis 12
ton@@ 12
tors 12
tote 12
traditionelle 12
traditions@@ 12
trags@@ 12
training 12
transportieren 12
trop@@ 12
trotz@@ 12
trägen 12
träume 12
trü@@ 12
turbul@@ 12
turm 12
tü@@ 12
uli@@ 12
umsonst 12
unbekannt 12
unerwartet 12
unger@@ 12
unsicher 12
unternehmer 12
unterstrich 12
urlaub 12
utscht 12
utz 12
van@@ 12
vehement 12
vel@@ 12
ventionen 12
verantwortungs@@ 12
verbotenen 12
verbrau@@ 12
verbänden 12
verdiente 12
vereinbar 12
vergleichen 12
vergleicht 12
verlautete 12
verli@@ 12
verließen 12
vernommen 12
verspielt 12
versprach 12
verstoßen 12
verständlich 12
versu@@ 12
vertagt 12
verzeichnete 12
vie@@ 12
ville 12
vir@@ 12
virtuellen 12
vollem 12
vollzogen 12
vorbe@@ 12
vorderen 12
vorgesch@@ 12
vorkommen 12
vorläufig 12
vormittag 12
vorsitzenden 12
vorüber 12
wall@@ 12
wandern 12
wecken 12
werfer 12
wertvolle 12
wirk@@ 12
wurf 12
yon@@ 12
zehnte 12
zeichn@@ 12
zeln 12
zielen 12
zunehmenden 12
zurückgekehrt 12
zurückzukehren 12
zusehen 12
zutragen 12
zwingend 12
zwingt 12
zählte 12
¿ 12
Ästhetik 12
Überein@@ 12
Überhaupt 12
ßer 12
ächer 12
ämter 12
änen 12
ängen 12
ästhet@@ 12
äufer 12
és 12
östlichen 12
üb@@ 12
überleben 12
übers 12
überwinden 12
übliche 12
ücher 12
-I@@ 11
-Klasse 11
-Kunden 11
-Saison 11
-Software 11
-Sparte 11
-Spezial@@ 11
-System 11
-Terror@@ 11
-Tick@@ 11
100-@@ 11
18-@@ 11
1899 11
1947 11
195 11
1968 11
1969 11
1970 11
20,@@ 11
21-@@ 11
23,@@ 11
25-@@ 11
300.000 11
360 11
5.@@ 11
57@@ 11
60. 11
62. 11
63@@ 11
66@@ 11
78. 11
81. 11
ADAC 11
Abenteu@@ 11
Abschaffung 11
Afghanistan-Einsatz 11
Afghanistans 11
Afrika-@@ 11
Afrikas 11
Ahmed 11
Air-@@ 11
Akadem@@ 11
Aktionär 11
Alan 11
Albtraum 11
Aldi 11
Alex@@ 11
Allein@@ 11
Allgemeine 11
Amanatidis 11
Ambitionen 11
Amerikan@@ 11
Amy 11
Andrej 11
Andy 11
Anlegern 11
Anliegen 11
Anordnung 11
Anreiz 11
Anschlag@@ 11
Anschuldigungen 11
Ansichten 11
Architekt 11
Architektur@@ 11
Are@@ 11
Armstrong 11
Arnold 11
Arzneimittel 11
Aspekt 11
Atem 11
Aufführung 11
Aufholjagd 11
Aufsicht 11
Auftritte 11
Aufwärtstrend 11
August@@ 11
Ausgangs@@ 11
Ausscheiden 11
Auswahl@@ 11
Auto-@@ 11
Automatik 11
Awards 11
BB@@ 11
BKA-@@ 11
BMW@@ 11
Basketball 11
Baustelle 11
Befreiung 11
Behandlungs@@ 11
Behauptung 11
Behinderungen 11
Benedikt 11
Bester 11
Besu@@ 11
Beton@@ 11
Betrachter 11
Bilderserie 11
Bio-@@ 11
Bloomberg 11
Blue 11
Blumen 11
Bol@@ 11
Borowski 11
Boykott 11
Breit@@ 11
Breite 11
Bridge 11
Bronze 11
Brutalität 11
Brände 11
Bsirske 11
Buches 11
Budapest 11
Bukarest 11
Bundeskartellamt 11
Buß@@ 11
Bär@@ 11
Bör@@ 11
Bürgerkrieg 11
CI 11
Ca@@ 11
Call@@ 11
Carstensen 11
Celtic 11
Cent@@ 11
Chel@@ 11
Chile 11
Christiane 11
Christina 11
Cli@@ 11
Code 11
Colorado 11
Condoleezza 11
Cordes 11
Cow@@ 11
Cro@@ 11
Crocker 11
Cur@@ 11
DGB 11
Dam@@ 11
Daraus 11
Darunter 11
Dax-@@ 11
Decke 11
Depot 11
Deutschland-@@ 11
Diagnose 11
Dietmar 11
Dietrich 11
Diplomatie 11
Direktorin 11
Disk@@ 11
Division 11
Dop@@ 11
Drohungen 11
Dublin 11
Dörfer 11
Dörfern 11
E.on 11
Ebenso 11
Eg@@ 11
Ehem@@ 11
Eher 11
Ehud 11
Eigenkapital 11
Einblick 11
Einhaltung 11
Einzelfall 11
Einzelhandels@@ 11
Einzelnen 11
Eishockey 11
Elb@@ 11
Elisabeth 11
Elite 11
Emission@@ 11
Entdeck@@ 11
Entfernung 11
Entschei@@ 11
Entscheidend 11
Erkenntnissen 11
Erwartung 11
Esk@@ 11
Europapo@@ 11
F. 11
F.A.@@ 11
Fahnder 11
Fahrgäste 11
Falsch@@ 11
Familienvater 11
Feder@@ 11
Fei@@ 11
Feinstau@@ 11
Fifa 11
Finanzbranche 11
Finanzinvestoren 11
Finanzvorstand 11
Fle@@ 11
Flughafens 11
Flächen@@ 11
Forscher@@ 11
Freitagmorgen 11
Freund@@ 11
Friedens 11
Frühstück 11
Funktionäre 11
Geistes@@ 11
Gemüse 11
Genehmigung 11
Geplant 11
Gesetzen 11
Gestaltung 11
Gie@@ 11
Gießen 11
Gif@@ 11
Gipfeltreffen 11
Glaubwürdigkeit 11
Gon@@ 11
Großaktionär 11
Guerrero 11
Gut@@ 11
Handlungen 11
Handvoll 11
Hannah 11
Hard@@ 11
Hartz-IV-@@ 11
Hat@@ 11
Hauptdarsteller 11
Hausarrest 11
Haush@@ 11
Heidfeld 11
Hein@@ 11
Hell@@ 11
Helmes 11
Henn@@ 11
Herstellers 11
Hess@@ 11
Hilton 11
Hitz@@ 11
Hoffmann 11
Hohe 11
Holger 11
Holocaust 11
Holz 11
Horror@@ 11
Humor 11
Häfen 11
Hölle 11
III 11
IOC 11
IS@@ 11
Individu@@ 11
Infineon 11
Innerhalb 11
Insolvenz 11
Intellektu@@ 11
Investmentbanken 11
Ironie 11
Irr@@ 11
Islamischen 11
Israel@@ 11
Jack 11
Janukowitsch 11
Japans 11
Jochen 11
Kanzler 11
Kardin@@ 11
Keh@@ 11
Ken@@ 11
Kennedy 11
Kerstin 11
Ketten@@ 11
Kindergarten 11
Klinsmann 11
Kollaps 11
Kolle@@ 11
Kommiss@@ 11
Kommune 11
Kommunikation@@ 11
Kompetenz 11
Kompli@@ 11
Kontakt@@ 11
Konvoi 11
Konzernen 11
Kooperationen 11
Korrektur 11
Kriterien 11
Kuchen 11
Kuhn 11
Kulissen 11
Kulturen 11
Kultus@@ 11
Kunsth@@ 11
Kursen 11
Kursgewinne 11
Kurve 11
Kyoto-@@ 11
Künast 11
Kür@@ 11
LE@@ 11
Labor@@ 11
Labour 11
Lagern 11
Landkreis 11
Lars 11
Lebensgefähr@@ 11
Lehrern 11
Leib@@ 11
Leon@@ 11
Libanon 11
Liebhaber 11
Lieferanten 11
Live-@@ 11
Lohner@@ 11
Lopez 11
Love 11
Magdeburg 11
Maler 11
Mama 11
Marie 11
Marine 11
Marken@@ 11
Marokko 11
Meisters 11
Merk@@ 11
Metro@@ 11
Metz@@ 11
Miami 11
Miet@@ 11
Mini-@@ 11
Misch@@ 11
Miss 11
Missstände 11
Misstrauen 11
Mitgliedstaaten 11
Mitspieler 11
Modellen 11
Modernisierung 11
Mont@@ 11
Montag@@ 11
Mund@@ 11
Möglicherweise 11
Nachbarland 11
Nad@@ 11
Nahles 11
Nahrung 11
Nasa 11
Nationalelf 11
Neal 11
Neuanfang 11
Nicht-@@ 11
Nobelpreisträger 11
Notenbanken 11
Nuri 11
Obje@@ 11
Objekt 11
Offensichtlich 11
Offensiv@@ 11
Olig@@ 11
Online@@ 11
Oppositionsführer 11
Orientierung 11
Ot@@ 11
Owen 11
Parfü@@ 11
Parlaments 11
Parteivorsitzenden 11
Pascal 11
Passauer 11
Pay@@ 11
Pazi@@ 11
Pech 11
Pence 11
Personalie 11
Persön@@ 11
Pete 11
Petersburg 11
Petro@@ 11
Pfand@@ 11
Phoenix 11
Pierre 11
Pit@@ 11
Poin@@ 11
Pokal-@@ 11
Poli@@ 11
Privath@@ 11
Privatsphäre 11
Prodi 11
Projekts 11
Protok@@ 11
Provinz@@ 11
Präsidenten@@ 11
Prüfer 11
Prüfstand 11
Psychologen 11
Puer@@ 11
Quartals@@ 11
Radik@@ 11
Rakete 11
Ranking 11
Rapper 11
Rechnungen 11
Rechtsextremismus 11
Rechtsstaat 11
Reh@@ 11
Reifen 11
Reser@@ 11
Resolution 11
Retro@@ 11
Richtlinie 11
Rob@@ 11
Roboter 11
Roh 11
Rotterdam 11
Ruhm 11
Russe 11
Rücksicht 11
SPD-Fraktionschef 11
Saakaschwili 11
Saddam 11
Sagen 11
Saisonbeginn 11
Sche@@ 11
Scheich 11
Schien@@ 11
Schießerei 11
Schild@@ 11
Schlechte 11
Schlich@@ 11
Schlusslicht 11
Schrift@@ 11
Schröders 11
Schwellenländer 11
Schwellenländern 11
Schüsse 11
Seh@@ 11
Sehnsucht 11
Selbstmordanschlag 11
Sieges@@ 11
Silke 11
Ski 11
Slowen@@ 11
Solidar@@ 11
Sonn@@ 11
Sorten 11
Sotheby 11
Sparer 11
Sparkassen@@ 11
Speis@@ 11
Spektakel 11
Spenden@@ 11
Spielfeld 11
Spielraum 11
Spieltagen 11
Sprengstoff 11
Sprit 11
Spy@@ 11
Staatschefs 11
Stegner 11
Stirn 11
Strauß 11
Straßburg 11
Streichung 11
Stri@@ 11
Studentin 11
Substanz 11
TM 11
Tabellenführung 11
Tabellenspitze 11
Tai@@ 11
Tak@@ 11
Taktik 11
Taliban-@@ 11
Talkshow 11
Tanz 11
Tax@@ 11
Techn@@ 11
Teilnehmern 11
Tempelhof 11
Termine 11
Testoster@@ 11
Testspiel 11
Tipp 11
Todesopfer 11
Toleranz 11
Trauer@@ 11
Treue 11
Trinkwasser 11
Trost 11
Träger 11
Turin 11
TÜV 11
US-Investmentbank 11
US-Kongress 11
US-Markt 11
Ulrike 11
Umwel@@ 11
Uni-@@ 11
Uno-@@ 11
Unterhal@@ 11
Unterhaltung 11
Urban 11
Urlauber 11
Verbands@@ 11
Verbesserungen 11
Verleihung 11
Versionen 11
Verspätungen 11
Verteidig@@ 11
Verur@@ 11
Verweis 11
Verzehr 11
Vide@@ 11
Vielzahl 11
Viren 11
Vorfälle 11
Vorgang 11
Vorsicht 11
Vorsitz 11
Vorstandsvorsitzende 11
Wachstums 11
Waff@@ 11
Wahlkamp@@ 11
Wahlkommission 11
Wahlsieg 11
Warentest 11
Warte@@ 11
Wellen@@ 11
Welten 11
Wille 11
William 11
Winehouse 11
Wirtschaftspolitik 11
Wirtschaftsprü@@ 11
Wissens@@ 11
Witz 11
Wut 11
Würden 11
Yang 11
Zeh@@ 11
Zelle 11
Zensur 11
Zoll@@ 11
Zus@@ 11
Zuschüsse 11
Zusp@@ 11
Zuwachs 11
Zwischenfall 11
abgebrochen 11
abgesprochen 11
abhalten 11
able 11
ackt 11
afft 11
aja 11
akadem@@ 11
akti@@ 11
alisierungs@@ 11
altet 11
ambition@@ 11
amo 11
amtlichen 11
anas 11
angehören 11
angerufen 11
angeschlagen 11
angest@@ 11
anhand 11
ankommt 11
anonym 11
anschließen 11
antworten 11
anwal@@ 11
anzeigen 11
anzie@@ 11
anzubieten 11
arbeite 11
archen 11
archite@@ 11
argumentiert 11
ary 11
ates 11
atom@@ 11
atsch 11
auffor@@ 11
aufgehalten 11
aufgetaucht 11
ault 11
ausgebrochen 11
ausgefallen 11
ausgemacht 11
ausgerei@@ 11
ausgetauscht 11
aussagen 11
aust@@ 11
az 11
bank@@ 11
befin@@ 11
begraben 11
beherrsch@@ 11
bekamen 11
bekann@@ 11
bekennt 11
bekundet 11
beobach@@ 11
berechnet 11
beruflich 11
beruhigt 11
berät 11
berühm@@ 11
bescherte 11
beschimpft 11
beschleunigen 11
beschrieb 11
beschul@@ 11
beschä@@ 11
besonderes 11
bestanden 11
bestehende 11
bestimm@@ 11
bestritt 11
bestände 11
betre@@ 11
beugen 11
beurteilen 11
bevor@@ 11
bewirkt 11
ble 11
ble@@ 11
bliche 11
bliebe 11
block 11
blö@@ 11
boom 11
boykot@@ 11
breitet 11
brennt 11
bris@@ 11
brit@@ 11
britischer 11
bundes 11
bungs@@ 11
bösen 11
bürokrat@@ 11
car@@ 11
chtes 11
chtete 11
cup 11
darstellt 11
def@@ 11
defizit 11
deklar@@ 11
delten 11
demann 11
demokratisch 11
derin 11
derzeitige 11
dest@@ 11
deutsch 11
diente 11
dierte 11
digungen 11
diplomatischen 11
dis@@ 11
dom 11
dominierten 11
dramatische 11
dreim@@ 11
drin@@ 11
drohe 11
drohten 11
drücklich 11
durchsucht 11
durchzu@@ 11
dänischen 11
dünn 11
ebenen 11
egnet 11
ehrung 11
eid 11
eingeschlagen 11
eingeschrän@@ 11
einhalb 11
einmalige 11
einräumen 11
einzig 11
eiro 11
eme@@ 11
ence 11
endem 11
energie 11
enes 11
ennt 11
entlar@@ 11
entsetzt 11
erd@@ 11
erend 11
erfolgreicher 11
ergie 11
erisch 11
erischer 11
erklärung 11
ernannt 11
ero 11
errichten 11
erteilte 11
essing 11
ethn@@ 11
facher 11
faches 11
feuer 11
fft 11
finale 11
findungen 11
flan@@ 11
flexi@@ 11
flich 11
flucht 11
ford 11
formal 11
format 11
fraglich 11
fragten 11
friedlichen 11
frischen 11
fristig 11
früh@@ 11
fähiger 11
fälligen 11
för@@ 11
füh@@ 11
ganzer 11
garantie 11
gebers 11
gebil@@ 11
gebor@@ 11
gedanken 11
gedauert 11
gedrängt 11
geehrt 11
geeignete 11
gegebenenfalls 11
gegenwärtige 11
gehalt 11
geheimnis@@ 11
gehofft 11
gehör@@ 11
gekleidet 11
gekämpft 11
gelie@@ 11
gemachte 11
gemeinsames 11
gemütlich 11
gerieten 11
geringere 11
geringfü@@ 11
gerü@@ 11
geschlossenen 11
gesell@@ 11
gespürt 11
gesteht 11
gestohlen 11
geständnis 11
gestört 11
gesunden 11
gewandt 11
gewerbe 11
gewährleistet 11
gewöhn@@ 11
gewürdigt 11
gier@@ 11
glie@@ 11
glänz@@ 11
gran@@ 11
gravier@@ 11
gret 11
grund 11
gungen 11
gut@@ 11
gänzlich 11
hakt 11
halt@@ 11
hebt 11
heimliche 11
hen@@ 11
herrschte 11
hier@@ 11
hilfe@@ 11
historischer 11
horn 11
höfe 11
iTunes 11
ichtet 11
id-@@ 11
iden 11
ign@@ 11
ihrerseits 11
ikanischen 11
ile@@ 11
ilfe 11
ilt 11
individuell 11
informierte 11
innen@@ 11
inos 11
institution@@ 11
intelligen@@ 11
inten@@ 11
interessierten 11
internationales 11
investitionen 11
iser 11
islamistische 11
istor@@ 11
ition 11
itt@@ 11
ituation 11
jahre@@ 11
jahrelangen 11
juristisch 11
juristischen 11
jün@@ 11
jüngere 11
kabel 11
kamera 11
kampagne 11
kans 11
kassieren 11
katholischen 11
keinesfalls 11
kennengelernt 11
kerin 11
ketten 11
kindern 11
klei@@ 11
klen 11
kletterte 11
knall@@ 11
kommunikation 11
kompromis@@ 11
konkurri@@ 11
konten 11
konto 11
kostenlose 11
kriegt 11
kurzfristigen 11
ky 11
könig 11
kün@@ 11
künfte 11
lahm 11
landes@@ 11
langsamer 11
las 11
lau 11
lebe 11
lege 11
lehnten 11
letzt@@ 11
lic@@ 11
lik 11
log 11
lossene 11
lächerlich 11
ländern 11
längerem 11
lässlich 11
mahn@@ 11
mahnt 11
manch 11
mangel@@ 11
markts 11
material 11
mein@@ 11
meiste 11
meisterin 11
meisters 11
meldung 11
mengen 11
messer 11
militärisch 11
minder 11
mittlere 11
modern@@ 11
monaten 11
moralisch 11
motor@@ 11
my 11
mär@@ 11
müh@@ 11
nachvollziehen 11
naiv 11
namentlich 11
nannten 11
natürliche 11
ne-@@ 11
nebenan 11
nervös 11
net@@ 11
nicht@@ 11
niederländische 11
niedersächsischen 11
niemandem 11
oberste 11
od 11
onz@@ 11
oos 11
operativen 11
organisierte 11
ossen 11
otischen 11
ows 11
pack@@ 11
packt 11
pak@@ 11
panor@@ 11
parlamentarischen 11
pass@@ 11
passte 11
pein@@ 11
pflegt 11
ping 11
platz@@ 11
populären 11
positives 11
ppchen 11
pps 11
pr@@ 11
prag@@ 11
preu@@ 11
problematisch 11
problemlos 11
profi@@ 11
prognose 11
programms 11
prote@@ 11
provis@@ 11
prüfungen 11
pu@@ 11
pädagog@@ 11
quoten 11
rand 11
rassist@@ 11
raus@@ 11
regionale 11
regionalen 11
regnet 11
regt 11
reichste 11
reihen 11
reis 11
reis@@ 11
reiste 11
rek@@ 11
rekord 11
renommierten 11
repräsent@@ 11
respekt@@ 11
ret@@ 11
reu@@ 11
rig@@ 11
rot-grünen 11
ruhig@@ 11
ruhigen 11
rum 11
run@@ 11
rüh@@ 11
rüstung 11
sal 11
sang 11
sar@@ 11
satt 11
saubere 11
sch-@@ 11
schadet 11
schein 11
scheine 11
scheitert 11
schienen 11
schil@@ 11
schir@@ 11
schlossen 11
schmeckt 11
schrau@@ 11
schrift 11
schwel@@ 11
schweres 11
schwungs 11
schüssen 11
sdorf 11
seinerzeit 11
seitigen 11
sekretärin 11
seri@@ 11
sexuell 11
shilfe 11
sibil@@ 11
sieb@@ 11
sied@@ 11
sim@@ 11
sofern 11
sohn 11
solide 11
soweit 11
spezialisiert 11
spielern 11
split@@ 11
spläne 11
sport-@@ 11
sprang 11
sprä@@ 11
stabil@@ 11
stagn@@ 11
stalten 11
stars 11
statist@@ 11
stau@@ 11
steigert 11
steins 11
stie@@ 11
stoßes 11
strich 11
strä@@ 11
studenten 11
stufe 11
stufen 11
stunden@@ 11
stärkt 11
stür@@ 11
sum 11
syn@@ 11
sätz@@ 11
tas 11
teilgenommen 11
teu@@ 11
th-@@ 11
thema 11
tier 11
tollen 11
top@@ 11
total@@ 11
tra 11
traten 11
tretenen 11
trieb@@ 11
triebe 11
trinkt 11
träumt 11
tun@@ 11
tv 11
typisch 11
typische 11
tzsch 11
u-@@ 11
umm@@ 11
under 11
unglaub@@ 11
ungs-@@ 11
unnötig 11
uns@@ 11
unschul@@ 11
untereinander 11
unterhalten 11
unternehmer@@ 11
untersagt 11
up-@@ 11
usen 11
verbote 11
verdeut@@ 11
verdoppeln 11
verdrängt 11
vereinigung 11
verfahrens 11
verh@@ 11
verhinderte 11
verhältnismäßig 11
verkraften 11
verkörpert 11
verlagert 11
verleihen 11
verluste 11
vermarkten 11
vermehrt 11
vermittelt 11
verpassen 11
verringert 11
versagt 11
versi@@ 11
versicherungs@@ 11
version 11
versteckt 11
verstorbenen 11
verständigt 11
verstärken 11
verweigern 11
verzö@@ 11
verzögern 11
verzögert 11
vielver@@ 11
virtuelle 11
vorangegangenen 11
vorbereiten 11
vorhaben 11
vorwerfen 11
vorzeitige 11
wahlkampf 11
ware 11
water-@@ 11
web@@ 11
wechselten 11
weckt 11
wei 11
weib@@ 11
weilt 11
weisung 11
wellen 11
wendungen 11
wenigsten 11
westliche 11
widri@@ 11
wiederholte 11
wirkenden 11
wirkliche 11
wischen 11
wissenschaft@@ 11
wissenschaftlich 11
wofür 11
worfen 11
wundern 11
würdigte 11
xt 11
zeichneten 11
zem@@ 11
zens 11
zettel 11
zeug 11
zeugung 11
zial@@ 11
ziehe 11
zieren 11
zo 11
zogene 11
zugegeben 11
zugs@@ 11
zurückgezogen 11
zurücktreten 11
zusammenarbeiten 11
zusätzlicher 11
Äl@@ 11
Öl- 11
Übergangs@@ 11
Übung 11
ßer@@ 11
ärgern 11
ón 11
ökonom@@ 11
öll@@ 11
öp@@ 11
öpfe 11
übernahmen 11
überqu@@ 11
überschau@@ 11
überschuss 11
überstanden 11
überwacht 11
überwältigt 11
üp@@ 11
ürzung 11
üsse 11
üter 11
* 10
-Kolle@@ 10
-Sau@@ 10
-Sonder@@ 10
-Spe@@ 10
-Szene 10
1-Sieg 10
1100 10
14-@@ 10
159 10
170 10
18.000 10
1860 10
1962 10
1964 10
1982 10
225 10
2300 10
29,@@ 10
3,1 10
3,8 10
32-Jährige 10
32. 10
33. 10
330 10
4,4 10
4.@@ 10
50-@@ 10
50-Jährige 10
6-@@ 10
62@@ 10
64. 10
69. 10
70.000 10
750 10
79. 10
8-@@ 10
AKP 10
ARD@@ 10
Abbas 10
Abschieds@@ 10
Absicherung 10
Absolventen 10
Adrian 10
Afghanen 10
Afri@@ 10
Ahnung 10
Airport 10
Aktienindex 10
Aktienmärkte 10
Aktion@@ 10
Alice 10
Alpen 10
Alpen@@ 10
Altkanzler 10
Altstadt 10
Andre@@ 10
Annette 10
Anstrengung 10
Anteil@@ 10
Anzei@@ 10
Apothe@@ 10
Applaus 10
Archivbild 10
Armuts@@ 10
Arsen@@ 10
Arz@@ 10
Ash@@ 10
Astro@@ 10
Astronomen 10
Atlanta 10
Attentat 10
Aufklärungs@@ 10
Aufsichts@@ 10
Auftritten 10
Augsburger 10
Ausflug 10
Auslieferung 10
Aussehen 10
Ausstoß 10
Ausstrahlung 10
Australier 10
Auswärtsspiel 10
Autoh@@ 10
Autover@@ 10
Außer 10
Außer@@ 10
BD@@ 10
Babys 10
Baf@@ 10
Banker 10
Barth 10
Basis@@ 10
Bayer-@@ 10
Beamten@@ 10
Befu@@ 10
Bege@@ 10
Begleit@@ 10
Behr@@ 10
Bek@@ 10
Belgrad 10
Belohnung 10
Bemerkung 10
Berat@@ 10
Berechnung 10
Bernhard 10
Beschleun@@ 10
Bestsell@@ 10
Betrachtung 10
Betroffene 10
Beträge 10
Beweg@@ 10
Bewerbungs@@ 10
Bild-Zeitung 10
Bill 10
Biogra@@ 10
Blatter 10
Block 10
Blü@@ 10
Body@@ 10
Bom@@ 10
Bombenanschlag 10
Bonität 10
Bonus 10
Botschaften 10
Boulevard@@ 10
Brücken@@ 10
Bundesfinanz@@ 10
Busch@@ 10
Busse 10
Bussen 10
Bürokratie 10
CIA 10
CNN 10
CO2-Ausstoß 10
Cabrio 10
Cardiff 10
Carlo 10
Celsius 10
Charak@@ 10
Chemikalien 10
Chips 10
Ci@@ 10
Cla@@ 10
Claus 10
Co-@@ 10
Cour@@ 10
Credit 10
Cristina 10
Cu@@ 10
DNA-@@ 10
DV@@ 10
Danke 10
Darlehen 10
Datum 10
De 10
Dei@@ 10
Demokrat@@ 10
Derweil 10
Deutsch-@@ 10
Di 10
Differenzen 10
Diskussions@@ 10
Dividende 10
Dog@@ 10
Dokumentation 10
Doll@@ 10
Doppelpack 10
Doris 10
Down@@ 10
Drehbuch 10
Druck@@ 10
Dunk@@ 10
EE@@ 10
EZB-@@ 10
Eber@@ 10
Eberhard 10
Edelmet@@ 10
Ehepaar 10
Ehren 10
Ehrung 10
Eigenkapital@@ 10
Ein-@@ 10
Einmischung 10
Einwander@@ 10
Ek@@ 10
Elend 10
Ell@@ 10
Energie- 10
Energiekonzern 10
Energier@@ 10
Engl@@ 10
Englands 10
Entsetzen 10
Erdbe@@ 10
Erfurt 10
Erkrankungen 10
Erlebnis 10
Erleichterung 10
Erlös 10
Ermittlungsverfahren 10
Ernstfall 10
Ertrag 10
Erwar@@ 10
Etage 10
Europe 10
Expres@@ 10
FBI 10
Fahrplan 10
Fahrrad 10
Fair@@ 10
Fakten 10
Familienministerin 10
Fassade 10
Fati@@ 10
Fenster@@ 10
Ferdinand 10
Ferne 10
Ferner 10
Fett@@ 10
Filter 10
Finanzchef 10
Finanzmarktkrise 10
Fit@@ 10
Flieger 10
Flüssig@@ 10
Folter@@ 10
Foul 10
Fraktionsvize 10
Französisch 10
Frauenfußball 10
Fronten 10
Frust 10
Fuchs 10
Funktion@@ 10
Fußball-Bundes 10
Fußballs 10
Fähr@@ 10
Fün@@ 10
Füße 10
Gala 10
Galax@@ 10
Galer@@ 10
Gaza 10
Gedanken@@ 10
Gefangene 10
Gefühlen 10
Gegenden 10
Gegenspieler 10
Gehalt@@ 10
Gehirn 10
Geldes 10
Gelegenheiten 10
Geländewagen 10
Gering@@ 10
Germany 10
Geschenk 10
Geschmack@@ 10
Geschäftsführerin 10
Getrei@@ 10
Gewich@@ 10
Gleichgewicht 10
Gonzales 10
Grand-Slam@@ 10
Grenzgebiet 10
Großbritanniens 10
Großmann 10
Großvater 10
Größenordnung 10
Größte 10
Guido 10
Gumm@@ 10
Guten 10
Haftbe@@ 10
Hagen 10
Hak@@ 10
Halt 10
Hammer 10
Handelsk@@ 10
Hang 10
Hanseaten 10
Harmon@@ 10
Haug 10
Hauptsache 10
Hausherren 10
Heb@@ 10
Hec@@ 10
Heim-@@ 10
Henin 10
Herausgeber 10
Hilfsorganisation 10
Hinblick 10
Historiker 10
Hoch 10
Hochtief 10
Hon@@ 10
Horizont 10
House 10
Houston 10
Hybri@@ 10
Höch@@ 10
IC@@ 10
IE@@ 10
Identi@@ 10
Illu@@ 10
Impfstoff 10
Impul@@ 10
Indizien 10
Informanten 10
Ingrid 10
Inland 10
Inlands@@ 10
Inseln 10
Insofern 10
Institution 10
Intendant 10
Internetseiten 10
Investition 10
J. 10
JP 10
Jeden 10
Jennifer 10
Jog@@ 10
Kabel@@ 10
Kabine 10
Kabinett@@ 10
Karib@@ 10
Karik@@ 10
Kartoffeln 10
Kasten 10
Kil@@ 10
Kirch@@ 10
Kita-@@ 10
Klavier@@ 10
Klei@@ 10
Kleider 10
Kleinstadt 10
Klö@@ 10
Knochen 10
Knut 10
Kohl@@ 10
Kohlendiox@@ 10
Kombin@@ 10
Kommunal@@ 10
Kompromisse 10
Konfrontation 10
Kongress@@ 10
Konjunkturdaten 10
Konsortium 10
Konten 10
Kontrahenten 10
Kooper@@ 10
Kouchner 10
Krankenhaus@@ 10
Krankheits@@ 10
Kreativität 10
Krieges 10
Krist@@ 10
Kronprin@@ 10
Krümmel 10
Kubikmeter 10
Kugel 10
Kund@@ 10
Kundschaft 10
Kyr@@ 10
Künstlerin 10
Lande@@ 10
Landebahn 10
Landtagswahlen 10
Landwirtschafts@@ 10
Lang 10
Lebensjahr 10
Leg@@ 10
Li 10
Lindner 10
Lob@@ 10
Lok@@ 10
Lokomo@@ 10
Look 10
Lorenz 10
Luxem@@ 10
Luxus 10
Ly@@ 10
Lyon 10
Mac 10
Malta 10
Manipulation 10
Marcel@@ 10
Massaker 10
McClaren 10
Mecklenburg-Vorpommern 10
Medikament 10
Medwedew 10
Mehrheits@@ 10
Meldung 10
Mengen 10
Menschenleben 10
Merck 10
Migranten 10
Milieu 10
Mitarbeiter@@ 10
Mitglieder@@ 10
Mix@@ 10
Mobilität 10
Model 10
Models 10
Moden@@ 10
Modernis@@ 10
Momente 10
Monika 10
Moore 10
Morgenmagazin 10
Moritz 10
Mosche@@ 10
Mr. 10
Mun@@ 10
Mär@@ 10
Mör@@ 10
Müll@@ 10
Münchens 10
Müt@@ 10
N-@@ 10
NBA 10
Nachah@@ 10
Nachspielzeit 10
Nahost-@@ 10
Nahrungs@@ 10
Nation@@ 10
Naumann 10
Nav@@ 10
Nebenwirkungen 10
Nei@@ 10
Nervosität 10
Neu-@@ 10
Neuling 10
Neumann 10
Nich@@ 10
Nie 10
Niederlanden 10
Nir@@ 10
Noel 10
Normalität 10
North 10
Noti@@ 10
Num@@ 10
Näh@@ 10
OM@@ 10
OS@@ 10
Obduktion 10
Oberhaupt 10
Offen 10
Offerte 10
Oktoberfest 10
Olympiasieger 10
Oma 10
One 10
Onlin@@ 10
Oran@@ 10
PO 10
Palm 10
Pantelic 10
Parteifreunde 10
Parteispitze 10
Partys 10
Patrou@@ 10
Peru 10
Pfei@@ 10
Pfi@@ 10
Phantasie 10
Phar@@ 10
Phil 10
Pic@@ 10
Piräus 10
Pla@@ 10
Planungen 10
Politische 10
Pom@@ 10
Porto 10
Posen 10
Pressemitteilung 10
Prot@@ 10
Protagonisten 10
Prämie 10
Prämien 10
Präsidentschaftswahlen 10
Py@@ 10
Quadrat@@ 10
Qualitäten 10
RO@@ 10
Radio@@ 10
Rah@@ 10
Ramsauer 10
Ran@@ 10
Rang@@ 10
Rangers 10
Rast@@ 10
Rats@@ 10
Rausch@@ 10
Rechtslage 10
Referenz@@ 10
Regierungsvertreter 10
Reinhold 10
Rekord-@@ 10
Rekordhoch 10
Ren@@ 10
Rentenversicherung 10
Rhein-Main-@@ 10
Richtlinien 10
Rin@@ 10
Rivale 10
Rohöl 10
Rollen@@ 10
Roman@@ 10
Roo@@ 10
Roth@@ 10
Rudy 10
Russ@@ 10
Rätsel 10
Räuber 10
SG 10
SUV 10
Salz 10
Salzburg 10
Sammel@@ 10
Samstagmorgen 10
Santiago 10
Saturn 10
Schalkes 10
Schande 10
Scheiben 10
Scherz 10
Schlecker 10
Schlu@@ 10
Schlägen 10
Schmerz@@ 10
Schmid 10
Schneef@@ 10
Schock@@ 10
Schokol@@ 10
Schrecken 10
Schreib@@ 10
Schritten 10
Schu@@ 10
Schutztruppe 10
Schwimm@@ 10
Schü@@ 10
Sean 10
Sechs@@ 10
Segment 10
Seibert 10
Sensation 10
Sergej 10
Series 10
Sicherheitsbehörden 10
Signale 10
Sitze 10
Sitzen 10
Skibbe 10
Sofa 10
Somit 10
Sozialpolitik 10
Spielerinnen 10
Spitzen 10
Spitzenspiel 10
Spons@@ 10
Sponsor 10
Sprengstoff@@ 10
Staatsanleihen 10
Stadtwerke 10
Stal@@ 10
Stammes@@ 10
Starke 10
Start-@@ 10
Stoff@@ 10
Stor@@ 10
Streits 10
Stuhl 10
Stundenkilometern 10
Stürmer@@ 10
Substanzen 10
Sw@@ 10
Swe@@ 10
Symp@@ 10
Sätzen 10
Südamerika 10
TS 10
Tabell@@ 10
Talente 10
Talk 10
Tante 10
Tap@@ 10
Tari@@ 10
Tech@@ 10
Teher@@ 10
Telegraph 10
Telekommunikation 10
Tennis-@@ 10
Tenor 10
Terrornetz@@ 10
Terry 10
Thur@@ 10
Timoschenko 10
Tinto 10
Todesursache 10
Tok@@ 10
Tommy 10
Torres 10
Trab@@ 10
Traditionen 10
Training@@ 10
Transaktionen 10
Trenn@@ 10
Trikots 10
Trio 10
Trochowski 10
Tü@@ 10
UCI 10
US- 10
US-Börsen 10
US-Konzern 10
Uefa-Cup 10
Umgekehrt 10
Unfälle 10
Unge@@ 10
Univers@@ 10
Universum 10
Unrecht 10
Untreue 10
Ursprung 10
User 10
V. 10
VD@@ 10
Varianten 10
Ver.di 10
Verbands 10
Verbänden 10
Verfassungsgericht 10
Verfilmung 10
Vergehen 10
Vergütung 10
Verhän@@ 10
Verletzten 10
Vermark@@ 10
Vermitt@@ 10
Vermittler 10
Vermögenswerte 10
Vernehmen 10
Vernunft 10
Verschärfung 10
Vertrages 10
Verwal@@ 10
Verwand@@ 10
Verwandten 10
Verzweiflung 10
Verzögerung 10
Verzögerungen 10
Veter@@ 10
Video-@@ 10
Viktor 10
Vogt 10
Vollversammlung 10
Vorentscheidung 10
Vorliebe 10
Vorrang 10
Vorsorge 10
Vortrag 10
Vorwürfen 10
Väter 10
Wanderers 10
Warn@@ 10
Warten 10
Wayne 10
Web-@@ 10
Webseite 10
Weich@@ 10
Weltcup 10
Weltrangliste 10
Weltranglisten-@@ 10
Werbes@@ 10
Wiesn 10
Wieso 10
Wik@@ 10
Wim@@ 10
Windows-@@ 10
Winterkorn 10
Wissenschaft@@ 10
Wissenschaftlern 10
Wu@@ 10
Wälder 10
Young 10
Zahlreiche 10
Zau@@ 10
Zeb@@ 10
Zerstörung 10
Zetsche 10
Zukunft@@ 10
Zwang 10
a-S@@ 10
abend@@ 10
abgelaufenen 10
abges@@ 10
abgesetzt 10
absol@@ 10
abwarten 10
abzusehen 10
achte 10
achtung 10
afen 10
affen 10
agieren 10
agten 10
aison 10
aj@@ 10
aktiven 10
ald 10
alische 10
alkohol@@ 10
allt 10
alog 10
ament@@ 10
ancen 10
andererseits 10
anerkannt 10
anfän@@ 10
angebracht 10
angekündigten 10
angesetzt 10
angesp@@ 10
angespannt 10
anhalten 10
ank 10
ankommen 10
anlässlich 10
annis 10
anpassen 10
ansprüche 10
appte 10
arbeitslos 10
arbeitung 10
arel 10
ario 10
artige 10
artikel 10
asien 10
asis 10
at-@@ 10
attraktive 10
auern 10
aufe 10
aufgaben 10
aufgelöst 10
aufgestockt 10
auft 10
auftakt 10
auftrag 10
ausfälle 10
ausgedrückt 10
ausgeprä@@ 10
ausgewiesen 10
ausgewählt 10
auszugeben 10
ausüben 10
aute 10
autor 10
awa 10
b-@@ 10
bacher 10
balls 10
beauf@@ 10
bedeute 10
bedingten 10
bedrohlich 10
bedrohte 10
befanden 10
befassen 10
befreien 10
begangen 10
begehen 10
begeisterte 10
begriff 10
beh@@ 10
beharrt 10
behauptete 10
beherr@@ 10
beleidigt 10
belgischen 10
bens 10
berücksichtigen 10
beschlossene 10
beschwert 10
beseitigt 10
bestellen 10
bestimmung 10
bet 10
betritt 10
bets 10
beutel 10
bevölkerung 10
bewaffnete 10
bewegten 10
bewältigen 10
bezahlten 10
blau 10
blichkeit 10
blockieren 10
bogen@@ 10
bon@@ 10
boomt 10
borg 10
bote 10
bran@@ 10
brauchten 10
brecher 10
brot 10
bs 10
bunt 10
burg@@ 10
börsen 10
c-@@ 10
can 10
cha@@ 10
chene 10
chener 10
chner 10
christ@@ 10
ckel 10
computer 10
cor@@ 10
d. 10
dchen 10
debattiert 10
deckte 10
defiz@@ 10
dekor@@ 10
dementierte 10
derben 10
dick 10
digten 10
disk@@ 10
diverse 10
dler 10
dlichkeit 10
dotierten 10
dring@@ 10
drit@@ 10
drohende 10
drohungen 10
druckt 10
drück@@ 10
eckt 10
ee 10
effektiv 10
eh 10
ehrte 10
eigenem 10
eigens 10
eignet 10
einbringen 10
einer@@ 10
einf@@ 10
einführen 10
eingang 10
eingehalten 10
eingestiegen 10
einheitliche 10
einigermaßen 10
einrichtungen 10
einstimmig 10
einverstanden 10
einzugehen 10
ej 10
elnde 10
emann 10
empfin@@ 10
empfohlen 10
empört 10
engsten 10
enor@@ 10
ent-@@ 10
entfallen 10
entführt 10
entlich 10
entour@@ 10
entre@@ 10
entsch@@ 10
entwickler 10
entziehen 10
enz-@@ 10
erfolgen 10
ergriffen 10
ergruppe 10
ergänzte 10
erhoffen 10
erischen 10
erkenn@@ 10
ermittel@@ 10
ermu@@ 10
ernsthafte 10
erstmal 10
erwachsen@@ 10
erwies 10
erz@@ 10
erzeugt 10
erzäh@@ 10
eröffnung 10
esenen 10
etabliert 10
eur 10
europ@@ 10
europäischer 10
eute 10
expan@@ 10
experim@@ 10
ext 10
fabri@@ 10
faktisch 10
familien 10
far@@ 10
fei@@ 10
feren 10
fertige 10
feuer@@ 10
feuern 10
ffe@@ 10
fig 10
figen 10
film@@ 10
finanzierten 10
finger 10
fisch 10
fix@@ 10
fizierte 10
fliehen 10
flut@@ 10
flächendeck@@ 10
flüsse 10
formulieren 10
fotografieren 10
fotografiert 10
frank@@ 10
freund 10
ft-@@ 10
ftet 10
fördert 10
führern 10
führers 10
führungen 10
fün@@ 10
gang@@ 10
gase 10
gebühr 10
gedeckt 10
gefühlt 10
geglaubt 10
gehaltenen 10
geheim@@ 10
geheimen 10
gelbe 10
geltende 10
gelände 10
gemis@@ 10
gendes 10
genommene 10
geprägten 10
gerau@@ 10
geraumer 10
geringeren 10
gerinnen 10
geschichten 10
geschie@@ 10
geschoben 10
geschä@@ 10
geschätzten 10
gesellschaft@@ 10
gespart 10
gesprächen 10
gestimmt 10
gestochen 10
gestürmt 10
getr@@ 10
gewidmet 10
gewirkt 10
gewis@@ 10
gewohn@@ 10
gewährleisten 10
gi 10
gien@@ 10
gigant@@ 10
gipfel 10
glas@@ 10
gleicher 10
gliche 10
gläser@@ 10
gnis@@ 10
gramm@@ 10
grauen 10
grenzt 10
grob 10
großartig 10
größen 10
gründer 10
halte@@ 10
han@@ 10
hang 10
hat@@ 10
hauen 10
hauptstadt 10
heiße 10
herauszufinden 10
hervorragend 10
hie@@ 10
hinsichtlich 10
hinunter 10
hir@@ 10
hitz@@ 10
hobenen 10
hunderttaus@@ 10
hut 10
höchst@@ 10
höchster 10
höhe 10
hübsch 10
iPhone-@@ 10
ideal 10
ideale 10
ien-@@ 10
iff 10
ignorieren 10
ikern 10
illegalen 10
illen@@ 10
ilte 10
individuelle 10
individuellen 10
ings@@ 10
ingt 10
inkt 10
inne@@ 10
installieren 10
interessen 10
interessierte 10
interpretiert 10
irischen 10
irs 10
iso@@ 10
isoliert 10
ius 10
jubelte 10
jubelten 10
just@@ 10
jü@@ 10
ka-@@ 10
kab@@ 10
karriere 10
katholische 10
kes@@ 10
kins 10
kir@@ 10
kla@@ 10
klat@@ 10
klingelt 10
komisch 10
kompet@@ 10
kompetenz 10
konflikt 10
konkur@@ 10
konsequ@@ 10
konzert 10
kopf@@ 10
krieges 10
kriminelle 10
kräftiger 10
kter 10
kub@@ 10
kultur@@ 10
kup@@ 10
käufe 10
kühl 10
kündigung 10
ladungen 10
lar@@ 10
lass 10
lass@@ 10
laubnis 10
lebende 10
legal 10
lehre 10
leichen 10
leistet 10
lem 10
lende 10
lese 10
letz@@ 10
leuten 10
li-@@ 10
lichten 10
liga-@@ 10
link@@ 10
links@@ 10
liter@@ 10
litz 10
lmann 10
lokale 10
lossenen 10
luckt 10
lust 10
läch@@ 10
lägen 10
länge 10
lässig 10
macht@@ 10
magazins 10
mand@@ 10
mannschaften 10
markt-@@ 10
marktes 10
mechan@@ 10
medizinische 10
mehrerer 10
mensch@@ 10
menschen 10
meren 10
merkte 10
mexikanischen 10
meyer 10
militärischen 10
min 10
mine 10
minim@@ 10
mitbekommen 10
mitmachen 10
modernis@@ 10
mpf 10
muslimischen 10
musst 10
mäßige 10
nachhaltig 10
nation@@ 10
neben@@ 10
nehmbar 10
nehmenden 10
neigung 10
nem 10
nenn@@ 10
neutral 10
norwegischen 10
nüchter@@ 10
obs@@ 10
och@@ 10
ode 10
ografie 10
olit@@ 10
olitik 10
olitisch 10
olo 10
olympischen 10
ome 10
ona 10
onin 10
onte 10
opol@@ 10
ora 10
ordnungen 10
orisch 10
osen 10
parierte 10
park@@ 10
parteil@@ 10
parteitag 10
passend 10
peinlich 10
plung 10
plätzen 10
potenziellen 10
pper 10
praxis 10
prel@@ 10
profitierte 10
promin@@ 10
propag@@ 10
protest@@ 10
protestierten 10
proto@@ 10
prügelt 10
publikum 10
quäl@@ 10
rad 10
radikal 10
ragt 10
rauchen 10
reale 10
realisieren 10
regierte 10
reichende 10
reichten 10
reih@@ 10
reise@@ 10
renommierte 10
republik 10
richt@@ 10
richteten 10
rigen 10
rik 10
ringt 10
rise 10
riv@@ 10
row 10
ruhiger 10
rumän@@ 10
ruppe 10
rus 10
russischer 10
rutscht 10
rühr@@ 10
rüstet 10
rüt@@ 10
samkeit 10
sburg 10
schaftliche 10
schel@@ 10
schi@@ 10
schief 10
schildert 10
schimp@@ 10
schlu@@ 10
schmerz@@ 10
schmu@@ 10
schnell@@ 10
schossen 10
schrank 10
schreibung 10
schri@@ 10
schwanger 10
schwarz-@@ 10
schwedischen 10
schwersten 10
schärfere 10
schätzung 10
schöp@@ 10
see@@ 10
selbe 10
seltener 10
sem 10
sha@@ 10
sicherheit@@ 10
sicherheits@@ 10
sichert 10
sicherten 10
sichten 10
siegte 10
siger 10
sinkenden 10
siv 10
ska 10
skaja 10
skand@@ 10
skraft 10
skreisen 10
sogenannter 10
sorgfältig 10
sowjetischen 10
sozialistischen 10
sozusagen 10
spektakuläre 10
sperren 10
spir@@ 10
spot@@ 10
sprobleme 10
spurlos 10
staatssekretär 10
stab@@ 10
stabilisieren 10
stanten 10
station@@ 10
stattung 10
steam 10
steige 10
stellvertretenden 10
steu@@ 10
sth@@ 10
stiftung 10
stig 10
stigen 10
stin 10
stop@@ 10
straf@@ 10
streicht 10
stren@@ 10
studi@@ 10
studie 10
studio 10
studium 10
stundenlang 10
stärkeren 10
stöße 10
stücken 10
subvention@@ 10
sus 10
südkoreanischen 10
südlich 10
tatsächliche 10
taz 10
tech@@ 10
teilung 10
tele@@ 10
tent@@ 10
teres 10
terr@@ 10
terroristischen 10
tetes 10
teuersten 10
thal@@ 10
them@@ 10
therapeut@@ 10
tierter 10
tierung 10
tion-@@ 10
tis@@ 10
tiv 10
tner 10
tolles 10
tragenen 10
trauen 10
trockenen 10
truppe 10
träch@@ 10
träge 10
tsame 10
tschaft 10
ttern 10
tue 10
twahl 10
tägigen 10
täuschen 10
tödlichen 10
uch 10
uk 10
umfassenden 10
umfasst 10
ums@@ 10
umzusetzen 10
una 10
unbeeindruckt 10
unent@@ 10
unfall 10
ungerecht 10
unglück@@ 10
ungslose 10
unteren 10
unterhalb 10
unterliegen 10
unterschiedlicher 10
unterstütze 10
unvermei@@ 10
unverständlich 10
urn@@ 10
utzt 10
ventions@@ 10
verabredet 10
veranlasst 10
verbracht 10
verbreiten 10
verbucht 10
verbuchte 10
verdacht 10
verdiener 10
verdrei@@ 10
vereint 10
verfein@@ 10
verfügbar 10
verhält 10
verlegt 10
verlorenen 10
vermark@@ 10
vernichtet 10
vernünftig 10
verordnung 10
verschickt 10
verschlechtert 10
verschlei@@ 10
verse 10
verst@@ 10
verteidig@@ 10
verursachen 10
verwandeln 10
verzerr@@ 10
vic 10
vielfach 10
vität 10
vorab 10
voran@@ 10
vorgesehene 10
vorgesehenen 10
vorläufige 10
vorsich@@ 10
vorsorglich 10
völ@@ 10
wachstum 10
wacht 10
warmen 10
weißer 10
well 10
weltmeister 10
wenngleich 10
wertete 10
wettbewerbs@@ 10
wich@@ 10
wies@@ 10
willi@@ 10
wind@@ 10
winner 10
wirkungs@@ 10
wo@@ 10
wohin 10
wohlhab@@ 10
wohn@@ 10
wort@@ 10
wählt 10
wäsche 10
wörter 10
wünschte 10
zau@@ 10
zb@@ 10
zene 10
zentren 10
zeugen@@ 10
zial 10
ziehungs@@ 10
zivile 10
zten 10
zugeben 10
zugehöri@@ 10
zugs 10
zungen 10
zurückgehen 10
zurückgetreten 10
zurückliegenden 10
zweistel@@ 10
zählung 10
Ähn@@ 10
Ähnliche 10
Ök@@ 10
Österreichs 10
Überstunden 10
á 10
ächs@@ 10
äf@@ 10
ähe 10
ällen 10
ärm@@ 10
ía 10
öll 10
öst@@ 10
überaus 10
überflüssig 10
übergab 10
überlebt 10
überraschenden 10
übersch@@ 10
übertroffen 10
überwachung 10
überzeugend 10
ühr@@ 10
üssel 10
-Kampf 9
-Kollegen 9
-Kopf-@@ 9
-Kul@@ 9
-Kämpfer 9
-Terroristen 9
101 9
110 9
1400 9
155 9
160 9
19-Jährige 9
1942 9
1973 9
1974 9
1978 9
1979 9
2.0 9
22,@@ 9
28,@@ 9
38-@@ 9
41. 9
43. 9
500-@@ 9
53@@ 9
54@@ 9
57. 9
61. 9
70er 9
74@@ 9
75. 9
787 9
79@@ 9
82. 9
84@@ 9
@ 9
AC@@ 9
AK@@ 9
AT 9
AU@@ 9
Abgrund 9
Ablauf 9
Abschlus@@ 9
Abschwung 9
Absteiger 9
Ach 9
Adolf 9
Aero@@ 9
Agent@@ 9
Akte 9
Akzente 9
Alleingang 9
Almeida 9
Alt-@@ 9
Amtsantritt 9
Amtsgericht 9
Analysten@@ 9
Anbietern 9
Andernfalls 9
Anfän@@ 9
Angebots 9
Anhebung 9
Ankündigungen 9
Anlagen@@ 9
Annapolis 9
Anreize 9
Anschein 9
Anschlags@@ 9
Antarktis 9
Anti-Terror-@@ 9
Antje 9
Anwen@@ 9
Anwendung 9
Apotheken 9
Arbeitsagentur 9
Arbeitsmark@@ 9
Arbeitszeiten 9
Arc@@ 9
Arten 9
Arzneimittel@@ 9
Asiens 9
Assistent 9
Assistenten 9
Astronauten 9
Atlan@@ 9
Aufruhr 9
Aufschlag 9
Aufsichtsratschef 9
Aufstellung 9
Aufstockung 9
Ausführungen 9
Ausschreibung 9
Ausschü@@ 9
Aussteller 9
Auswärtssieg 9
Avenue 9
Ax@@ 9
BASF 9
Bali 9
Balkon 9
Bamberg 9
Bands 9
Bargeld 9
Bars 9
Bauermann 9
Baustellen 9
Bay 9
BayernLB 9
Beat@@ 9
Bedar@@ 9
Bedrängnis 9
Beinen 9
Beirut 9
Bekanntwerden 9
Belei@@ 9
Bell@@ 9
Bem@@ 9
Beno@@ 9
Benz@@ 9
Berei@@ 9
Berge 9
Bernard 9
Bert 9
Beruhig@@ 9
Besatzung 9
Beschaff@@ 9
Beschäf@@ 9
Betrieben 9
Betrugs@@ 9
Bezahlung 9
Bibel 9
Bilanz@@ 9
Billig-@@ 9
Binnen@@ 9
Biok@@ 9
Biom@@ 9
Blas@@ 9
Blau 9
Blitz@@ 9
Blog 9
Blum@@ 9
Boh@@ 9
Boll@@ 9
Bombar@@ 9
Brad 9
Brat@@ 9
Braunschweig 9
Brem@@ 9
Brisanz 9
Britische 9
British 9
Bruch@@ 9
Brust 9
Brut@@ 9
Brücken 9
Buck@@ 9
Bundesan@@ 9
Bundeskabinett 9
Bundesligasp@@ 9
Bundestrain@@ 9
Business-@@ 9
Böh@@ 9
CD-@@ 9
CS@@ 9
Cann@@ 9
Carsten 9
Cast@@ 9
Champagner 9
Charme 9
Charts 9
Cheftrainer 9
Chicago 9
Christa 9
Clans 9
Cock@@ 9
Contain@@ 9
Cottbus@@ 9
Cran@@ 9
DFB-Präsident 9
DIW 9
DR-@@ 9
Dal@@ 9
Daran 9
Darf 9
Darm@@ 9
Darsteller 9
Das@@ 9
Datei 9
Datenschutz 9
Day 9
Deals 9
Debakel 9
Defizit 9
Defizite 9
Delegation 9
Dell 9
Demon@@ 9
Deriv@@ 9
Dest@@ 9
Devis@@ 9
Diebstahl 9
Differenz 9
Dilemma 9
Din@@ 9
Discoun@@ 9
Doppel-@@ 9
Dortmunder 9
Douglas 9
Dreck 9
Dring@@ 9
Dylan 9
Dä@@ 9
Dänen 9
Dön@@ 9
ER 9
ET@@ 9
Eb@@ 9
Ebit@@ 9
Edgar 9
Edinburgh 9
Effizienz 9
Eier 9
Eigner 9
Eile 9
Einfach 9
Eingang 9
Einkaufs@@ 9
Einklang 9
Einkommens@@ 9
Einkommensteuer 9
Einmal@@ 9
Einsch@@ 9
Einspruch 9
Einsätzen 9
Elite-@@ 9
Empfän@@ 9
Energieversorger 9
Enkel@@ 9
Epoche 9
Erdöl@@ 9
Erfinder 9
Erfolgen 9
Erhard 9
Erlebnis@@ 9
Ernte 9
Erscheinung 9
Erspar@@ 9
Erstens 9
Erstligisten 9
Erzgebirge 9
Erziehungs@@ 9
Eröffnungs@@ 9
European 9
Everton 9
Experim@@ 9
Explorer 9
FA@@ 9
FFC 9
Fahndung 9
Fahrern 9
Fast@@ 9
Festgenommenen 9
Flagge 9
Fliegen 9
Flugzeu@@ 9
Flur 9
Flut 9
Flüsse 9
Forschungspro@@ 9
Fortsch@@ 9
Frankfurts 9
Free@@ 9
Freitag@@ 9
Freizeit 9
Frenzel 9
Freundeskreis 9
Friedman 9
Frit@@ 9
Frucht@@ 9
Früchte 9
Fundament 9
Fundament@@ 9
Füchse 9
Fünfte 9
Fünftel 9
GA@@ 9
GPS 9
Games 9
Gangster 9
Garanti@@ 9
Garantie 9
Garten 9
Gefängnis@@ 9
Gehir@@ 9
Gelb-@@ 9
Geldpolitik 9
Genauso 9
Gene 9
Genuss 9
Gerä@@ 9
Geschäftspartner 9
Gesellschafts@@ 9
Gesichter 9
Ghana 9
Giovanni 9
Gisela 9
Go 9
Grande 9
Grant 9
Grau@@ 9
Greenspan 9
Greg 9
Greuther 9
Großbank 9
Grundstein 9
Größen 9
Grün 9
Guard 9
HI@@ 9
Haag 9
Haaren 9
Had@@ 9
Hanau 9
Handball-@@ 9
Handlung 9
Hans-Joachim 9
Harvard 9
Hauch 9
Heiligabend 9
Heiligen 9
Heit@@ 9
Herren@@ 9
Herstellung 9
Herthas 9
Herzog 9
High 9
High-@@ 9
Hightech-@@ 9
Hochgeschwindigkeits@@ 9
Hochwasser@@ 9
Homburger 9
Home 9
Hul@@ 9
Hunde@@ 9
Hunger 9
Hussein 9
Höl@@ 9
I. 9
Ian 9
Ideal 9
Image@@ 9
Impulse 9
Indiz 9
Ingenieur@@ 9
Inhaber 9
Initi@@ 9
Innenministeriums 9
Innenverteidiger 9
Innenverteidigung 9
Innovationen 9
Insassen 9
Insbesondere 9
Insolvenz@@ 9
Instanz 9
Interess@@ 9
Internetnutz@@ 9
Inz@@ 9
Io@@ 9
Israeli 9
Jack@@ 9
Jahreswechsel 9
Jahrhunder@@ 9
Jane 9
Janeiro 9
Jason 9
Javier 9
Jean 9
Jedoch 9
Jeff 9
Jim 9
Johann 9
Journal@@ 9
Jugendamt 9
Juncker 9
Junior@@ 9
Jäger 9
Jährige 9
Kabare@@ 9
Kammer@@ 9
Kapit@@ 9
Kapitalismus 9
Karen 9
Karibik 9
Kassen@@ 9
Katholiken 9
Katrina 9
Klarheit 9
Klassi@@ 9
Klassiker 9
Klat@@ 9
Klaus@@ 9
Kleinig@@ 9
Kleinkinder 9
Klimawandels 9
Klin@@ 9
Klo@@ 9
Kluft 9
Klärung 9
Kolumbien 9
Kombi 9
Kommunismus 9
Kommunisten 9
Komponisten 9
Komödie 9
Kongresses 9
Konkret 9
Konkurrenzkampf 9
Konsolidierung 9
Konto@@ 9
Konz@@ 9
Konzerte 9
Kooperations@@ 9
Kopie 9
Korea 9
Korruption@@ 9
Kraftwerke 9
Krankenversicherung 9
Krause 9
Kreml 9
Kreuzfahrtsch@@ 9
Krimin@@ 9
Kriminelle 9
Krisenmanagement 9
Kristall@@ 9
Kräften 9
Kum@@ 9
Kundgebung 9
Kuns@@ 9
Kunstwerk 9
Kurven 9
Kurzem 9
Königlichen 9
Körpers 9
Körperverletzung 9
Künstlers 9
Kürz@@ 9
LK@@ 9
Lachen 9
Lade@@ 9
Laien 9
Lak@@ 9
Lake 9
Lammert 9
Langer 9
Langzeit@@ 9
Leicht@@ 9
Leichtathle@@ 9
Leichtigkeit 9
Leinwand 9
Lernen 9
Letz@@ 9
Lich@@ 9
Lidl 9
Liga-@@ 9
Limousine 9
Linden 9
Linux 9
Listen@@ 9
Liter-@@ 9
Lith@@ 9
Live 9
Los@@ 9
Lothar 9
Luf@@ 9
Länderspiel@@ 9
MAN@@ 9
Magnet@@ 9
Mahler 9
Mallorca 9
Manag@@ 9
Managern 9
Manhattan 9
Manuskri@@ 9
Marcus 9
Marek 9
Marin@@ 9
Marktforschungs@@ 9
Marktwirtschaft 9
Max-Planck-@@ 9
May 9
Maz@@ 9
Maßstab 9
Mechan@@ 9
Melancho@@ 9
Meteor@@ 9
Metzger 9
Miene 9
Miete 9
Mieter 9
Mill@@ 9
Milliardenhöhe 9
Ministerr@@ 9
Ministers 9
Mixed 9
Momentan 9
Moon 9
Moskauer 9
Mö@@ 9
Möbel 9
Möbel@@ 9
Möglich 9
Müh@@ 9
Münchn@@ 9
Münzen 9
NE@@ 9
NPD-@@ 9
NR@@ 9
Nachdruck 9
Nachteile 9
Nachwuchs@@ 9
Nadal 9
Nadine 9
Nak@@ 9
Nationalteam 9
Nawaz 9
Neo@@ 9
Neukölln 9
Neum@@ 9
Neuro@@ 9
New@@ 9
Newcastle 9
Nicol@@ 9
Nigeri@@ 9
Norm@@ 9
Norman 9
Notfall 9
Novelle 9
Näch@@ 9
Oberlandesgericht 9
Obst 9
Odinga 9
Offiz@@ 9
Oldenburg 9
Organis@@ 9
Original 9
Ozean 9
PP@@ 9
Panzer 9
Papieren 9
Parker 9
Parlamentar@@ 9
Parteil@@ 9
Partners 9
Passi@@ 9
Patient 9
Patienten@@ 9
Petzschner 9
Pfarrer 9
Pflichten 9
Philips 9
Pick@@ 9
Plakat 9
Plakate 9
Planet 9
Planungs@@ 9
Platte 9
Pol 9
Polens 9
Polizeiangaben 9
Pot@@ 9
Pressefreiheit 9
Proben 9
Produzent 9
Profi-@@ 9
Programmen 9
Prominente 9
Prophe@@ 9
Provis@@ 9
Prozentpunkt 9
Präsidentschaftskandidat 9
Präsidi@@ 9
Präzision 9
Psychologe 9
Publik@@ 9
Putz@@ 9
Pädagogen 9
Qaida 9
Rad 9
Radar@@ 9
Radfahrer 9
Real-@@ 9
Recep 9
Rechen@@ 9
Redak@@ 9
Ree@@ 9
Referendum 9
Regelungen 9
Regierung@@ 9
Regisseure 9
Regulierung 9
Resultat 9
Rev@@ 9
Rhein 9
Rhein-Main@@ 9
Ric@@ 9
Richterin 9
Richtige 9
Richtungen 9
Road 9
Ronaldinho 9
Rose@@ 9
Rostocker 9
Rot-@@ 9
Route 9
Rugby 9
Ruhr 9
Run@@ 9
Rup@@ 9
Rus@@ 9
Rückendeckung 9
Rückspiel 9
Rückzugs@@ 9
S-Bahn 9
SC@@ 9
SP@@ 9
Sak@@ 9
Sam 9
Sarah 9
Sarrazin 9
Sascha 9
Schadens@@ 9
Schauen 9
Scheit@@ 9
Schiene 9
Schlach@@ 9
Schlim@@ 9
Schlus@@ 9
Schnitt@@ 9
School 9
Schulleiter 9
Schulter 9
Schwelle 9
Schwier@@ 9
Schäubles 9
Semin@@ 9
Sende@@ 9
Senders 9
Sendungen 9
Seri@@ 9
Service@@ 9
Sha@@ 9
Sher@@ 9
Shin@@ 9
Sicherung 9
Silvest@@ 9
Sir 9
Sir@@ 9
Sla@@ 9
Society 9
Somalia 9
Sozialleistungen 9
Sozialstaat 9
Spaltung 9
Speicherung 9
Spen@@ 9
Spielmacher 9
Spitzenkandidaten 9
Spring@@ 9
Springer-@@ 9
Sprüche 9
Spät@@ 9
Staatsoberhaupt 9
Stadion@@ 9
Stadtverwaltung 9
Standorte 9
Stark 9
Stasi-@@ 9
Staus 9
Stellvertreter 9
Stief@@ 9
Stil@@ 9
Stopp@@ 9
Story 9
Strand@@ 9
Stu@@ 9
Studierenden 9
Stärkung 9
Störungen 9
Subventionen 9
Sunn@@ 9
THW 9
Taliban@@ 9
Tarife 9
Team-@@ 9
Teamkollege 9
Techniker 9
Technischen 9
Text@@ 9
Tha@@ 9
Thom@@ 9
Thor@@ 9
Thriller 9
Tiflis 9
Tipps 9
Total@@ 9
Touch@@ 9
Touristen@@ 9
Tournee 9
Tragen 9
Treffens 9
Treibhaus@@ 9
Tricks 9
Trink@@ 9
Trittin 9
Trocken@@ 9
Tum@@ 9
Typ@@ 9
Tän@@ 9
U-Bahn-@@ 9
UEFA 9
UM@@ 9
US-amerikanischen 9
Ungeachtet 9
Union@@ 9
Unions@@ 9
Universal 9
Unruhe 9
Unsinn 9
Urheber@@ 9
Urteile 9
Us@@ 9
Vati@@ 9
Venus 9
Verbleib 9
Verbots@@ 9
Verbraucherschutz@@ 9
Verbün@@ 9
Verdachts@@ 9
Verdienst 9
Vereinen 9
Vergleich@@ 9
Verheu@@ 9
Verhält@@ 9
Verkäufe 9
Vermittlung 9
Vermögens 9
Vernichtung 9
Vers@@ 9
Verwendung 9
Veröffentlich@@ 9
Veto 9
VfB-@@ 9
Victor 9
Victoria 9
Viertelstunde 9
Visa 9
Vogel 9
Vorabend 9
Vorbereitungs@@ 9
Vorjahres 9
Vorreiter 9
Vorrunde 9
Völkermord 9
Wahrnehmung 9
Wang 9
Websites 9
Week 9
Weine 9
Weiß 9
Welt-@@ 9
Weltkriegs 9
Weltmarkt@@ 9
Weltrekord@@ 9
Wertpapieren 9
Wertung 9
Western 9
Westfalen 9
Widerstände 9
Wikipedia 9
Wirk@@ 9
Wirtschafts- 9
Witze 9
Wochenbeginn 9
Wolff 9
Wär@@ 9
Wörter 9
Yo@@ 9
ZE@@ 9
Za@@ 9
Zagreb 9
Zeitarbeit 9
Zentren 9
Zertifikat 9
Zeug 9
Zier@@ 9
Zinssatz 9
Zitat 9
Zustände 9
Zut@@ 9
Zwang@@ 9
Zwecke 9
Zwei-@@ 9
Zweitliga-@@ 9
Zweitligist 9
Zweitligisten 9
Zykl@@ 9
abgeschaltet 9
abgeschnitten 9
abgestellt 9
ablesen 9
abschließ@@ 9
abschreiben 9
absolvieren 9
abzuwarten 9
achtziger 9
acker 9
adas 9
ado 9
ae 9
agnen 9
agra@@ 9
ah-@@ 9
aj 9
aki 9
akzeptabel 9
ali 9
all-@@ 9
allesamt 9
alo@@ 9
aman@@ 9
ambul@@ 9
amera 9
amerik@@ 9
ami 9
amkeit 9
analysiert 9
and-@@ 9
andra 9
aners 9
angekündigte 9
angel 9
angelegten 9
angepasst 9
angetreten 9
anlegen 9
annter 9
ansprechen 9
anteile 9
anti-@@ 9
anwesend 9
appel@@ 9
ari 9
arien 9
asses 9
assungen 9
asten 9
attra@@ 9
aufer@@ 9
auffällig 9
aufgeregt 9
aufgewachsen 9
aufnahmen 9
aufrecht 9
aufsteigen 9
aufträge 9
aufwen@@ 9
ause 9
ausgerichtet 9
ausgeschieden 9
ausgesucht 9
aush@@ 9
aushalten 9
ausrichten 9
aussage 9
ausstattung 9
auten 9
autom@@ 9
außerordentlich 9
ay-@@ 9
band@@ 9
bangen 9
bare@@ 9
bart 9
bauf@@ 9
be-@@ 9
beachten 9
bedenklich 9
bedingte 9
befinde 9
befragte 9
befürchteten 9
begehr@@ 9
begehrt 9
begrenzung 9
begriffen 9
begründeten 9
behaup@@ 9
beil@@ 9
beir@@ 9
bekannter 9
bekanntgeben 9
bekennen 9
belassen 9
beleben 9
beliebtesten 9
bemerk@@ 9
bemängelte 9
benötigen 9
benötigte 9
berechtigt 9
berg-@@ 9
beruhig@@ 9
berühmtesten 9
beschloss 9
besetzen 9
besitz@@ 9
besorgen 9
besser@@ 9
betonten 9
betriebs@@ 9
betrunken 9
beträge 9
betrü@@ 9
bevölk@@ 9
bewegte 9
bewährt 9
bezahlte 9
bildungen 9
bisher@@ 9
bittere 9
blasen 9
blich 9
boom@@ 9
boote 9
born 9
bots 9
brand@@ 9
braune 9
brennen 9
brin@@ 9
bröck@@ 9
buchstäblich 9
bulgar@@ 9
burgs 9
büchern 9
bündnis 9
bürger 9
bürgerlichen 9
chan@@ 9
char@@ 9
charakter@@ 9
chemische 9
chender 9
chers 9
chinesischer 9
chst@@ 9
cili@@ 9
club 9
clubs 9
dankbar 9
dantrieb 9
darstellen 9
dash 9
dati@@ 9
dazwischen 9
deckten 9
definieren 9
definiert 9
deh@@ 9
delik@@ 9
dello 9
dementiert 9
demon@@ 9
demonstr@@ 9
denselben 9
desch@@ 9
di-@@ 9
dicken 9
dicker 9
dierung 9
dies@@ 9
dieselben 9
differ@@ 9
digen@@ 9
diges 9
dirig@@ 9
diskrimin@@ 9
disziplin@@ 9
diti@@ 9
dnis 9
dokum@@ 9
drauf@@ 9
drich 9
drom 9
dros@@ 9
dung@@ 9
dunkel@@ 9
duo 9
durchweg 9
dämp@@ 9
dämpft 9
dü@@ 9
ear@@ 9
ebene 9
ecker 9
ed 9
eder 9
ee@@ 9
effekt 9
effizi@@ 9
effizienter 9
ehrgei@@ 9
eht 9
eim 9
eindrucksvoll 9
eingenommen 9
einheimischen 9
einheitlichen 9
einigten 9
einigung 9
einmalig 9
einnahmen 9
einrichten 9
einrichtung 9
einsatz@@ 9
einseitig 9
ela 9
elen 9
elter 9
ema 9
emotionalen 9
endgültigen 9
engagieren 9
ental@@ 9
enter@@ 9
entieren 9
enzel 9
ereignete 9
erfol@@ 9
erfolglos 9
erfordert 9
erheben 9
erinnere 9
erle@@ 9
ernen 9
erobert 9
erpres@@ 9
erspart 9
erweisen 9
erzeugen 9
essel 9
essur 9
etta 9
etti 9
etz 9
evakuiert 9
ewige 9
externen 9
exzell@@ 9
ey@@ 9
fassten 9
fehlenden 9
feindlichen 9
feine 9
fernen 9
ffekt 9
fig@@ 9
films 9
flexibel 9
flugzeug 9
flügel 9
folg 9
forc@@ 9
forschen 9
forum 9
fossil@@ 9
französ@@ 9
fremd 9
freude 9
frisch@@ 9
frisches 9
fränkischen 9
frü@@ 9
funk 9
fünfzig 9
gaben@@ 9
garantieren 9
gebie@@ 9
gebot 9
gebrauchen 9
gebucht 9
gedul@@ 9
gefan@@ 9
gefehlt 9
gegriffen 9
gehöri@@ 9
geistige 9
gelangte 9
gelegene 9
gelobt 9
gelöscht 9
gemeinnütz@@ 9
geneh@@ 9
genehmigung 9
genießen 9
genügt 9
gepflegt 9
ger-@@ 9
gerechtfertigt 9
gerer 9
gerichtlich 9
geschmack@@ 9
geschockt 9
gesessen 9
gesich@@ 9
gesicht 9
gesperrten 9
gesprungen 9
gestaltung 9
gestand 9
gestützt 9
getrenn@@ 9
gewach@@ 9
gewagt 9
gewertet 9
gie@@ 9
giges 9
glatt 9
gleichnamigen 9
glicher 9
gor@@ 9
großzügig 9
grundsätzliche 9
größ@@ 9
größe 9
grünes 9
gü@@ 9
günstige 9
hard 9
haupt 9
hauser 9
heimischer 9
heiratete 9
herrschaft 9
herrschen 9
hervorragenden 9
hil@@ 9
hintereinander 9
hinteren 9
historisch 9
hl@@ 9
holten 9
hren@@ 9
huber 9
häl@@ 9
hübsche 9
hüt@@ 9
hüter 9
ias 9
ichts 9
ickte 9
ide 9
ierung@@ 9
ilfen 9
iller@@ 9
imm@@ 9
indi@@ 9
initiativen 9
inspiriert 9
inst@@ 9
interesse 9
interview 9
ischen@@ 9
isen@@ 9
israel@@ 9
isträgerin 9
itals 9
itzung 9
itä@@ 9
jah@@ 9
jahres 9
jan@@ 9
jap@@ 9
jets 9
ji@@ 9
jubeln 9
jur@@ 9
jäger 9
kalte 9
kameras 9
kanal 9
kapital@@ 9
katastrophalen 9
kelt 9
ken-@@ 9
kenner 9
ket@@ 9
kil@@ 9
klag@@ 9
klagten 9
klappt 9
klausel 9
kleid 9
klä@@ 9
knappe 9
kommene 9
komment@@ 9
kommun@@ 9
kompliziert 9
konjunktur 9
konservativ 9
konstant 9
konzep@@ 9
koordiniert 9
kopp@@ 9
korde 9
korrigiert 9
kostspiel@@ 9
kran@@ 9
kreativen 9
kreis@@ 9
kriminellen 9
krisen@@ 9
kräf@@ 9
ktor@@ 9
ktoren 9
kum 9
kunde 9
kurzerhand 9
kurzzeitig 9
kus 9
kus@@ 9
kämpfer 9
kämpfte 9
köpfige 9
körperlichen 9
künften 9
lah@@ 9
landet 9
langes 9
lebnis 9
leeren 9
lehnung 9
leist@@ 9
leite 9
lica 9
lichte 9
lieb 9
lies 9
ligt 9
list@@ 9
lockt 9
lokalen 9
lon@@ 9
lossen 9
ländischen 9
male 9
manipuliert 9
mans 9
mark 9
markierte 9
maschinen@@ 9
matischen 9
mau@@ 9
maßgeb@@ 9
med@@ 9
medizin@@ 9
meldeten 9
merklich 9
mieten 9
mindern 9
minuten 9
mismus 9
mitgliedern 9
mitnehmen 9
mo 9
mobil 9
modi@@ 9
mom@@ 9
mond 9
mun@@ 9
musikalischen 9
möge 9
mütig 9
nacheinander 9
nachhaltigen 9
nachvollziehbar 9
nachweisen 9
nar 9
nation 9
nebenbei 9
nehmer 9
nehmern 9
nerin 9
nerv@@ 9
neunten 9
niederlage 9
niedrigsten 9
nix 9
nordrhein-westfälische 9
normales 9
norwegische 9
null 9
nungs@@ 9
nutz@@ 9
nützt 9
obdach@@ 9
offenkundig 9
offensive 9
offiz@@ 9
ohn 9
ollegen 9
ologie@@ 9
ols 9
omie 9
oni@@ 9
onie 9
opfer 9
oren@@ 9
ori 9
ori@@ 9
orie 9
orientiert 9
origin@@ 9
orts 9
ous@@ 9
packen 9
paket 9
parte@@ 9
parti@@ 9
passierte 9
peilt 9
personal 9
pfei@@ 9
pflanzen 9
phase 9
phys@@ 9
physi@@ 9
plo@@ 9
plötz@@ 9
port 9
prechen 9
pret@@ 9
prima 9
pro-@@ 9
produzenten 9
prominent@@ 9
promov@@ 9
protestiert 9
provo@@ 9
provoziert 9
prozentige 9
präsent 9
präsidenten 9
präzise 9
quar@@ 9
quartal 9
qui@@ 9
racht 9
rad@@ 9
ranche 9
rannte 9
rannten 9
rasant 9
raum@@ 9
realistisch 9
register 9
regte 9
regulären 9
reichenden 9
reif@@ 9
reife 9
rem@@ 9
renten 9
report 9
repräsentiert 9
reserven 9
rettet 9
revol@@ 9
rheinland-pfälz@@ 9
ria 9
rich 9
richtiger 9
riese 9
riesen 9
riskant 9
robust 9
rot-@@ 9
rund@@ 9
rät@@ 9
räten 9
rö@@ 9
rückgängig 9
s. 9
saniert 9
sau 9
saudi@@ 9
say 9
schade 9
schaftlichen 9
schal@@ 9
schaltet 9
scheiterten 9
schenkt 9
schiffe 9
schild 9
schlaf@@ 9
schlags 9
schlüssen 9
schmug@@ 9
schon@@ 9
schreckliche 9
schrift@@ 9
schwarz 9
schweb@@ 9
schweben 9
schwerste 9
schwung 9
schwächung 9
schwär@@ 9
schäd@@ 9
schätz@@ 9
schätzungen 9
schütteln 9
sechste 9
sehn@@ 9
semester 9
sensation@@ 9
serbischen 9
sergebnis 9
serhöhungen 9
setzer 9
shor@@ 9
signalisiert 9
sit@@ 9
sive 9
siven 9
sk 9
skan@@ 9
sler 9
sofortige 9
solidar@@ 9
sonderlich 9
sons 9
sonstigen 9
sozialdemokratische 9
spannende 9
spektakul@@ 9
spenden 9
spezialisierte 9
spie@@ 9
spiegeln 9
spitz@@ 9
spl@@ 9
splan 9
sprachige 9
sprechende 9
sprechenden 9
spruch 9
ssen 9
stabilen 9
standardi@@ 9
staunt 9
steiger 9
stellter 9
stest 9
stream 9
strichen 9
strukturel@@ 9
strö@@ 9
stud@@ 9
sturz 9
stören 9
stün@@ 9
stürzen 9
stützt 9
sun@@ 9
suspendiert 9
tagung 9
takt 9
tanz@@ 9
tanzen 9
tation 9
tatsächlichen 9
tec 9
technischer 9
teur 9
thalle 9
thet@@ 9
tie@@ 9
tigste 9
tim@@ 9
tionen 9
tiven 9
tolle 9
tragene 9
trainiert 9
transportiert 9
traurige 9
treg@@ 9
trennten 9
trete 9
trump@@ 9
trüben 9
tus 9
typen 9
typischen 9
tzeit 9
tägliche 9
tät 9
tätige 9
ud 9
ula 9
ular 9
ulierte 9
umfang@@ 9
umgebracht 9
umpf 9
umsatz 9
umstrit@@ 9
unaus@@ 9
unbefri@@ 9
ungsmittel 9
ungsverfahren 9
unkte 9
unruhig@@ 9
unterscheidet 9
unterschied@@ 9
unterschrieben 9
unterschätzt 9
unterstützte 9
untersuchten 9
unzu@@ 9
unzufrieden 9
urt 9
usch 9
uth 9
utsch 9
val@@ 9
var@@ 9
vaters 9
veranstalten 9
verbindung 9
verbo@@ 9
verbraucht 9
verbreitete 9
verbundene 9
verd@@ 9
verdammt 9
verdächtig 9
vereinbarte 9
vereinen 9
verfasst 9
vergangener 9
vergehen 9
verges@@ 9
vergleich@@ 9
vergnü@@ 9
verhe@@ 9
verheerenden 9
verhung@@ 9
verhältnis 9
verkauf 9
verlangten 9
vermehr@@ 9
vermei@@ 9
vernachlässi@@ 9
vers 9
versammelt 9
verschont 9
verschwindet 9
verschärfte 9
versicher@@ 9
verstecken 9
verteidi@@ 9
verteuerten 9
vertraute 9
verunsichert 9
verwaltungs@@ 9
verwandelte 9
verzweifelt 9
verän@@ 9
vielfältig 9
vo 9
vol@@ 9
voneinander 9
vorangetrieben 9
vorausgesetzt 9
vorgelegten 9
vorzeitigen 9
vorüber@@ 9
wache 9
wack@@ 9
waffen 9
wahnsinnig 9
wahrnehmen 9
wandte 9
waren@@ 9
wechslung 9
wegs 9
wegzu@@ 9
wehrt 9
weihnach@@ 9
weitermachen 9
weiterzu@@ 9
wem 9
werden@@ 9
werkes 9
wesentlichen 9
wiegen 9
wig@@ 9
willkommen 9
winken 9
winter@@ 9
wirklichen 9
witz 9
wochen@@ 9
wohnung 9
wu@@ 9
wählte 9
wärts 9
wöchentlich 9
xis 9
yl 9
yl@@ 9
ymp@@ 9
yn 9
yst@@ 9
zag@@ 9
zeitlich 9
zeleb@@ 9
zentrales 9
zentrums 9
zip 9
ziti@@ 9
zitieren 9
zugezogen 9
zuhause 9
zukünftigen 9
zulässig 9
zurückzahlen 9
zuspielen 9
zustand 9
zweistelligen 9
zwölf@@ 9
Ärzte@@ 9
Äthiopien 9
Ölpreise 9
Österreich@@ 9
Überblick 9
Übergang 9
Überschrift 9
äd@@ 9
ähnliches 9
äht 9
ändische 9
äng@@ 9
ängste 9
ässer 9
äufen 9
örper 9
österreichische 9
ött@@ 9
ú@@ 9
überraschen 9
üchterung 9
üge 9
ündigen 9
ütte 9
ütze 9
-Brü@@ 8
-Kampagne 8
-Krie@@ 8
-Ser@@ 8
-Skandal 8
-Soldaten 8
-Tor 8
-Tour 8
1,50 8
1,8 8
1-Jährige 8
104 8
106 8
107 8
109 8
117 8
120.000 8
134 8
16-@@ 8
1600 8
1700 8
175 8
19-@@ 8
1953 8
1954 8
1963 8
1967 8
197@@ 8
1981 8
2018 8
21@@ 8
220 8
23-Jährige 8
24,@@ 8
26,@@ 8
275 8
29-@@ 8
3,4 8
32@@ 8
39,@@ 8
42. 8
420 8
47. 8
5,7 8
5,8 8
53. 8
54. 8
59. 8
63. 8
7,4 8
73. 8
9.@@ 8
ABN 8
Abfahrt 8
Abgang 8
Abgeordnetenhaus 8
Abkehr 8
Abnehmer 8
Abschlag 8
Abseits 8
Absprachen 8
Abwärtstrend 8
Acht@@ 8
Affen 8
Agen@@ 8
Aids 8
Aires 8
Akten@@ 8
Aktienkurse 8
Aktivisten 8
Alf@@ 8
Alliance 8
Alpha@@ 8
Altersvorsorge 8
Amro 8
Anbau 8
André 8
Ang@@ 8
Angelegenheiten 8
Angriffs 8
Angriffs@@ 8
Anhaltspunkte 8
Anhän@@ 8
Anita 8
Anleger@@ 8
Anlei@@ 8
Anmeldung 8
Anpassung 8
Anteils@@ 8
Anton 8
Anweisung 8
Anwesen 8
Anwältin 8
Anwärter 8
Anzeigen@@ 8
Apples 8
Arbeitskräfte 8
Arbeitslosenquote 8
Arcandor 8
Argumentation 8
Argumente 8
Arten@@ 8
Arthur 8
Asien-@@ 8
Assist@@ 8
Attra@@ 8
Aufenthalt 8
Aufpreis 8
Aufsichtsrats 8
Aufstieg@@ 8
Auftreten 8
Ausrichtung 8
Ausstellungs@@ 8
Auswärts@@ 8
Autobi@@ 8
Autors 8
Außenministerin 8
Außenseit@@ 8
Außenwelt 8
Avant@@ 8
Aviv 8
BB 8
BC 8
BV@@ 8
BW@@ 8
Bachel@@ 8
Baj@@ 8
Bak@@ 8
Baker 8
Bankenaufsicht 8
Barak 8
Bayreuth 8
Beauf@@ 8
Beben 8
Bentley 8
Beobachtungen 8
Berlusconi 8
Berthold 8
Beschl@@ 8
Beschreibung 8
Besitz@@ 8
Besonderes 8
Bestandteil 8
Bestechung 8
Bestellung 8
Betroffen 8
Betrug 8
Betrüger 8
Bettina 8
Beute 8
Bezir@@ 8
Bib@@ 8
Bielefelder 8
Bildschir@@ 8
Biografie 8
Björ@@ 8
Bli@@ 8
Blin@@ 8
Block@@ 8
Blogger 8
Blue@@ 8
Bluttat 8
Boch@@ 8
Bochumer 8
Bond 8
Box-@@ 8
Boxer 8
Bran@@ 8
Brandenburger 8
Brent 8
Brite 8
Brothers 8
Brun@@ 8
Buche 8
Buddh@@ 8
Budget 8
Buenos 8
Bundesaußenminister 8
Bundesfinanzministerium 8
Bundesgesundheits@@ 8
Bundeskrimin@@ 8
Bundeskriminalamt 8
Bundeswehr@@ 8
Bundeswirtschaftsminister 8
Bußgeld 8
[...]
